02
0f
f6
05
04
f9
fd
d5
16
0d
f7
e8
de
f9
23
0f
09
e6
df
24
07
23
22
0c
eb
f5
0a
fa
c1
0a
0c
c7
cf
fa
20
ea
f3
2a
16
02
de
37
24
ed
18
de
0d
35
02
e3
12
fe
fe
f3
e9
05
12
04
ea
ff
2c
0f
d5
d9
f1
ed
c0
f6
ea
eb
1a
18
fe
10
18
f7
f6
f5
11
12
f5
ef
02
27
0a
ca
d9
f1
0c
f9
e7
0e
2c
2b
1c
f0
01
04
0b
e1
f5
fe
f3
dc
fe
f6
fc
f6
12
de
03
f6
02
16
cd
e0
fd
08
02
cf
03
15
07
e0
d6
f9
fc
0b
0f
f0
0f
13
06
bc
fb
1c
f0
d2
be
f4
f1
fc
bc
d6
f1
16
d0
ca
00
16
e2
c6
c7
f9
ff
fa
10
0a
18
2b
22
27
1b
1e
fb
1f
05
fc
06
d5
11
fb
00
f6
ea
e2
0f
28
fa
db
09
28
e9
f3
18
26
eb
1a
28
0d
f1
12
1d
fc
da
0d
f3
eb
22
0d
01
13
0e
0f
08
d4
f8
29
15
32
cf
00
11
17
fa
be
cf
e3
08
23
dd
0e
2e
3b
0d
20
e0
cb
db
e5
20
36
14
e6
d1
e7
f9
06
29
2b
f8
e1
da
00
16
f8
d0
c8
f7
0c
da
0f
1f
00
f4
d4
df
ff
fa
f1
bb
ac
05
0d
f2
b3
d5
d8
13
17
e8
c4
e9
1a
17
ec
f1
1a
ed
0c
f9
e3
0b
d2
12
e7
dc
ed
e3
de
ee
e4
e8
f1
fb
13
f1
ed
f3
f7
1d
22
05
15
21
0c
ee
fd
15
0c
f3
dc
fb
1d
1e
ea
ce
bf
00
1b
fd
f0
fe
e7
fa
f4
04
ec
08
0c
f1
e6
dc
dd
ce
1a
10
2c
24
02
0c
11
28
23
12
fe
f3
25
0a
1a
ee
0d
17
03
f5
31
14
16
fe
21
07
16
dd
9b
af
32
01
e3
e3
04
07
da
f4
f6
fa
fe
de
f5
d3
f3
19
34
09
00
22
f2
01
04
f7
d4
17
19
04
f2
17
dd
0d
1f
09
fb
ee
1d
1d
07
1c
e6
1e
24
de
16
d4
00
14
b7
ea
df
ea
0b
b7
cc
1a
f1
23
f9
d4
f9
0a
fe
e4
e3
1f
04
e4
1e
df
2e
ff
02
06
d8
05
f5
be
fe
f8
fe
f1
e4
ff
c7
08
e2
ed
f0
c8
0f
08
ea
19
ea
f4
f2
f0
1e
e6
fa
fa
f7
13
01
d6
04
ea
fb
f2
f7
10
d9
fd
ee
00
08
f2
f0
e3
10
fb
e2
f4
16
0c
ed
de
f7
11
0b
ec
07
02
fa
0b
da
e5
ef
03
0a
e7
ea
26
26
17
cc
f9
26
21
1b
f0
16
1d
1e
fb
06
0f
13
2e
fa
0e
fb
fb
d6
02
11
0f
0f
f4
f9
ff
2d
e5
05
fa
11
2f
d9
0f
0b
1f
ff
d2
18
19
15
25
07
0e
0e
f8
fe
f0
00
e9
01
f6
f6
02
ea
f6
f4
f0
02
e9
fd
05
0c
09
13
07
22
05
fa
1f
f9
05
dd
13
0c
e9
f4
ff
05
fe
e4
ef
f0
e2
f1
ff
15
f5
f0
d5
cf
0c
14
f9
e8
d0
01
16
f7
db
bd
ee
fd
04
f0
d8
d5
f1
f0
ea
e7
e4
f8
07
f0
00
21
3c
24
b8
df
14
13
0f
cc
d4
e5
ed
ec
05
ef
ef
e6
f2
0a
21
1a
08
eb
e2
13
21
08
0e
0e
1c
00
28
15
09
18
f5
0a
0d
f7
01
f7
dc
de
f8
08
06
e4
d7
f7
cc
13
1e
ee
0d
e9
2a
08
e0
0a
e9
2b
ff
e9
ee
0e
1a
fa
e8
25
11
18
0a
00
f8
00
07
fd
fe
fa
eb
00
f7
e3
06
01
f5
e3
ef
06
01
01
d9
d2
08
00
0a
d4
84
e3
f4
01
f7
f0
e8
06
fb
fb
fe
e9
fb
ee
eb
fe
e4
da
f3
fa
ff
ea
ec
ed
f6
ec
f7
fc
f9
17
cc
e0
e8
f9
11
97
dc
10
06
ed
14
fc
0f
03
f9
17
28
22
d3
07
f5
27
04
13
14
08
f2
e1
0b
ff
08
e2
c7
e4
02
f5
ee
02
0b
22
da
16
15
0e
ea
cb
f8
04
fd
15
0b
0e
f1
e9
f5
e7
09
ec
00
1f
05
13
1c
ef
00
10
f3
f5
ed
e8
f5
e2
16
1b
e2
f0
02
02
d9
f0
14
d7
e8
15
0c
04
08
2d
21
eb
f5
f8
f3
d0
ee
05
0c
07
0a
16
02
ec
14
13
fe
06
1c
1c
03
e5
fc
0e
d8
d3
e1
db
d4
08
f9
fa
f2
07
0c
09
08
0d
09
02
20
23
18
f2
f8
db
f0
de
ff
e3
cf
cd
e5
fc
fa
ec
03
eb
25
05
01
e8
06
0b
03
ce
ee
0e
0e
08
f5
00
ff
07
f1
fd
fb
f7
f5
0a
10
10
f6
e5
07
06
17
06
05
12
11
0d
eb
1e
05
e9
e5
f3
0b
dd
00
ef
f9
d6
f4
10
14
0b
db
d4
cd
bf
b6
f9
f7
f0
f7
0e
00
0a
0d
09
1a
00
0c
f4
f6
fb
fb
0f
07
12
ff
dd
f7
14
03
e1
10
1b
0a
d7
dc
01
d4
d5
ff
08
df
f0
03
f3
f8
0e
fb
0d
10
12
fd
1a
20
05
f0
0d
fc
0c
17
17
f5
0a
ee
08
fb
f2
22
eb
b2
c3
c5
d7
04
ed
08
de
c7
dd
03
0c
1a
0e
de
bd
db
26
1c
1a
00
e2
03
06
10
10
07
15
fa
14
10
1f
1e
11
e6
d6
16
f4
0b
13
c7
04
02
04
10
fc
fa
fb
fc
18
0b
f2
05
0c
10
1c
18
0e
f0
db
f9
f6
02
f1
d6
e8
ff
11
09
dd
01
16
fd
08
f7
06
0c
df
07
0b
09
fe
f5
0e
02
fb
0f
0a
f8
fd
15
12
dc
0c
03
ff
e5
e4
f6
05
16
0a
e0
f3
ff
0e
00
eb
0f
27
22
1d
c5
c5
ec
f7
04
05
fb
ff
e0
d8
09
14
14
ff
01
06
06
01
f9
09
df
06
f3
f9
15
12
1c
10
06
21
fb
ee
03
07
f9
d2
ee
f5
ee
a1
07
e6
e9
ed
e1
fb
de
dc
ee
d7
08
fe
f1
12
1c
0b
11
03
fb
02
c2
d0
f0
d8
e3
e3
04
f1
09
03
e9
ff
f8
da
00
f3
10
0e
ec
ff
fd
04
fb
df
d4
16
dd
08
16
e0
fd
1d
1b
23
f5
df
0c
e2
eb
03
f7
f9
d0
08
f8
e6
f6
10
0b
f8
db
f5
fd
ed
16
08
0e
0a
09
f3
ff
ff
ff
10
d0
01
04
1a
de
e4
10
04
d6
03
f2
01
eb
eb
f5
0f
fc
ff
ee
f9
06
eb
0e
ea
fe
f0
10
f3
e0
c6
e5
14
0a
08
25
24
01
07
09
02
fc
ec
e0
ea
f4
ea
fe
f4
e5
f4
0b
f1
f5
fa
08
2a
d5
df
f3
1c
17
e5
e7
fe
1d
0b
f4
04
0f
1b
0d
e8
0c
fd
ed
e5
fe
15
05
fc
db
03
ff
07
f8
00
18
f5
1b
e5
eb
1d
05
17
04
cd
12
d7
dc
03
01
f8
ec
e7
ef
f9
e3
fd
d3
f9
fc
17
ff
ff
19
2c
f8
fc
10
0d
17
01
13
32
0d
f2
f2
0e
f3
ea
f7
f8
dd
00
0a
fb
01
f6
0b
fa
0a
ff
fe
0c
09
05
0f
f9
eb
11
fa
14
f1
16
15
0c
13
c4
e9
ed
e0
fc
df
d1
0e
0a
06
1f
16
03
05
ef
e2
d6
0a
03
c6
c7
db
11
13
e7
ee
c3
f6
0f
26
28
0c
ea
e4
0c
fc
0b
06
10
ff
e2
04
f8
07
0d
ef
e2
e2
1e
f0
07
ef
fc
f7
f2
07
f1
e1
ef
ff
fc
02
15
0a
02
f3
fc
fb
f1
0b
fb
10
1d
e7
0f
e2
0f
1b
fa
f4
cd
f6
1d
17
13
1d
ff
11
f8
13
02
0e
e7
e6
f3
08
05
f0
02
1e
21
01
e3
fb
fb
ff
ff
e2
dd
f2
01
28
06
e3
0c
ef
f8
f3
e9
09
1f
0f
01
1d
f7
fa
17
16
14
db
fb
f2
f0
e5
ee
e8
ee
f4
12
fd
f9
f7
07
f4
f3
cd
ed
02
b5
e4
12
21
e4
15
25
1d
1b
f5
ff
06
00
f3
c2
df
07
d7
11
fc
07
f4
d5
01
fd
21
f3
dc
ef
f0
f9
0c
30
16
fd
1a
d1
fc
f1
f5
e8
f4
e4
df
d3
08
02
e3
e5
ec
0d
1d
f9
1b
1f
c1
04
15
f9
16
0e
d2
18
03
fd
fe
e9
ee
dd
f8
fc
f4
f2
eb
0d
f1
e3
fe
fc
f3
eb
f9
06
f8
fa
07
0c
07
27
16
22
19
f7
0b
09
10
f6
f6
fc
e6
f8
f7
e7
f1
14
10
f9
ec
29
2c
07
0b
23
06
02
fc
f4
dc
d8
e9
fb
07
06
13
19
0e
ff
24
1b
08
17
01
0d
07
0f
e6
e5
e9
eb
d8
ce
e7
13
25
0c
fd
e9
0f
13
f9
04
05
04
e0
fb
fe
03
ef
fa
df
f9
e8
f1
08
0e
12
0f
19
f3
d2
00
f8
fe
ff
f6
0c
fc
e3
e7
f6
fb
ea
fe
fd
fe
f8
09
12
03
0b
09
3e
31
00
f5
03
15
fb
cf
ed
0e
dd
ce
d9
f7
d7
f9
18
fa
fe
01
f9
f5
10
fb
03
f0
fb
ed
e2
e6
db
e9
ee
1b
1c
ff
f8
14
2c
03
0e
18
f5
ea
00
00
01
01
d5
e0
03
f6
ef
0b
ef
f6
d2
0a
07
02
22
ec
fa
f8
f7
1c
25
0b
03
fb
00
1e
11
04
e3
ee
07
10
0a
fb
e9
c2
fc
11
05
1b
2d
e7
cd
d0
12
28
1f
0d
f6
0f
06
fe
05
12
0e
d6
c4
02
0e
15
f2
c9
f6
0c
03
06
06
fb
af
f9
11
23
05
e8
0c
ff
f8
10
1b
10
04
03
f6
e1
0e
eb
eb
1f
06
04
19
ec
1a
1b
fb
14
fc
02
07
0c
01
c7
e5
e8
fd
eb
f6
bb
f1
03
e7
e1
d7
00
06
1a
00
f6
f4
f4
0a
2a
10
ff
e8
d6
1d
21
eb
16
1b
fc
da
07
f6
07
20
24
24
e6
f7
ee
f7
12
f6
f1
df
ea
f1
f4
10
fa
06
17
05
d9
d7
fa
d5
fb
ec
ce
cb
eb
0b
14
13
f8
11
15
03
ef
04
0c
ca
e9
f6
04
e8
e1
d5
fe
11
e7
e5
d4
01
01
f1
1b
2d
f2
e9
01
f5
22
24
1b
1a
ca
d3
e1
fd
0d
0d
fe
13
f8
e9
1a
e7
0c
18
ea
f8
0d
eb
0c
0c
f1
f8
e1
ea
0d
fd
06
06
01
10
12
19
06
08
09
0d
0b
1e
02
0a
04
31
13
d9
ee
ff
16
ed
f6
13
f2
03
05
00
ef
01
e8
e2
05
0e
e1
e4
ff
19
19
d6
f0
14
12
f6
d9
02
34
21
f5
f2
15
f9
fc
f4
0f
f7
14
08
14
dc
e0
08
04
03
e7
02
ed
17
26
04
0a
00
ef
f0
0d
fa
f0
d6
d8
09
0b
01
de
e1
1f
0e
fc
c9
db
06
0a
f4
bb
04
12
00
04
d5
20
12
05
eb
ed
11
ed
eb
db
de
f8
e1
d2
ea
fd
0c
d3
eb
00
10
ff
d0
15
0a
22
fc
f7
19
05
29
16
2c
08
f2
f3
14
06
fa
f1
f4
04
db
ff
f6
fd
e6
f3
eb
03
0a
ed
f2
01
1d
e7
fb
fa
ed
f8
fa
14
f8
dc
de
10
11
e3
0b
15
0c
fe
07
12
e4
d3
de
ef
e2
e0
02
f3
06
04
00
f3
00
fc
02
0b
ee
04
0b
0e
00
02
fc
e7
04
fa
18
0b
fa
f5
11
fb
d9
f8
0d
e8
fc
0c
02
12
e8
d8
fd
f4
f8
f5
d7
cd
05
03
19
09
fa
f3
fa
13
1f
18
19
ff
ed
f1
ee
06
1d
01
f2
f3
f3
13
1b
13
e8
e7
0e
18
f7
04
e3
05
13
0c
fa
ed
e5
f9
f7
11
05
00
e8
f4
f9
00
2d
f9
e0
17
17
1d
e6
e3
0f
02
1c
f2
ed
0b
05
14
f7
0a
01
ff
03
f5
20
df
f4
02
0f
19
0f
e2
cf
f7
0b
0c
bd
e4
f5
f0
11
05
f4
ef
e8
05
f0
dc
f1
f6
0e
d6
d1
c7
ec
f5
ea
e1
e8
d4
05
db
f1
f6
eb
15
19
0c
ef
0c
0f
13
f3
d4
0e
08
e5
db
f0
fc
f6
05
eb
e5
02
f4
f7
fe
0d
0d
f1
fe
0c
05
18
f2
22
2f
f6
25
00
e8
ee
e6
05
f2
02
e7
0b
fc
f7
0a
f6
ff
f5
f0
