10
01
12
ef
f5
02
f1
05
13
16
f6
d5
0d
f1
f0
ea
db
f4
14
db
1a
ed
1d
10
19
f8
12
16
fd
08
12
e7
09
01
05
07
eb
f9
04
f0
de
fc
0a
03
00
f2
f0
df
07
f9
f2
ef
f8
fe
e9
f4
ec
15
fc
c2
fc
11
17
13
15
06
11
19
ea
fb
0d
02
cd
0b
09
19
08
04
eb
03
eb
06
43
f2
07
0b
14
09
0c
f9
ee
f3
0e
f1
15
ee
15
02
c1
e6
1c
fc
fd
ef
e2
0a
0c
07
00
20
1e
04
e8
13
ef
18
03
19
1c
f4
fe
0f
c1
15
05
e2
0f
18
05
ec
ec
ff
03
12
13
11
00
fd
f5
12
f3
da
2d
0a
d2
05
f9
19
02
fc
f9
f3
17
11
0f
e8
ed
f7
e9
10
06
eb
06
0c
f6
0b
ec
f4
08
04
24
04
12
0b
23
f8
02
f6
d9
ec
24
14
18
c1
0d
0e
16
f8
05
ee
05
d0
01
ee
0d
05
f3
eb
08
d8
0e
d3
00
08
e2
e0
16
03
dd
e9
0e
13
f2
ff
fe
15
12
f9
ea
06
0a
f6
0a
03
0d
ef
0d
0b
f7
e0
f0
11
1e
f7
2a
07
10
10
ef
13
fd
11
1c
e8
f9
09
ea
ff
16
e4
ed
f1
09
0b
f5
d5
d6
07
1a
cc
0f
ca
fa
fd
fd
15
10
16
f9
00
ea
e8
16
e4
08
f6
eb
f4
02
02
14
03
f8
f8
ea
fd
ed
df
09
18
0f
0b
f7
03
02
de
18
f1
ed
11
14
1a
07
17
12
dd
f3
ef
17
f1
02
1b
04
05
08
0f
11
ed
22
0d
09
fe
18
15
21
18
f9
12
0f
ef
e7
f9
f9
0e
02
f3
ed
f3
1b
f3
fc
0a
fb
e6
f6
f6
0f
06
17
0c
11
e7
0a
fc
0c
0a
db
07
03
ee
ef
0f
d1
09
0a
e3
03
13
03
20
ec
1a
20
0b
27
0e
ff
22
f1
cf
02
04
ee
f4
05
e3
17
d5
04
12
14
fa
25
ea
08
fe
fc
f6
f2
f1
04
14
ff
df
26
ef
f3
0e
03
f4
10
fc
ff
16
ee
f4
12
15
e5
04
1b
ff
08
f7
0d
3e
02
17
f1
fc
00
e7
f5
14
01
07
11
11
08
2c
fd
e2
20
27
d9
de
07
f3
fc
0d
17
fe
04
18
10
ff
f6
00
e3
0a
f3
02
08
08
0a
15
ed
d9
f3
f9
0e
f1
1e
f8
fe
fc
ff
32
00
18
eb
f5
fb
eb
0b
07
07
f0
0d
1f
03
12
ed
09
11
ea
ec
05
15
e7
f4
f1
da
fa
28
1c
0a
f2
0a
02
15
f5
27
e5
fe
1a
0a
16
03
fa
20
0c
00
17
fb
0e
16
22
10
15
05
06
07
e0
ef
f9
01
f4
da
de
f6
f4
f5
f9
11
1a
ec
e7
22
e3
18
f6
05
06
01
08
f6
03
17
f8
01
fc
0f
1d
ee
20
ef
1a
ef
03
0a
07
0c
0c
09
10
0a
11
2e
e8
11
f8
15
06
ef
fc
f2
0d
09
00
1c
04
2a
06
2d
0d
fc
f8
0c
17
dc
f8
eb
04
ef
f1
ed
e7
fb
15
03
fb
19
03
0f
f7
22
10
f5
0b
01
26
00
12
e2
21
14
d6
13
0b
0e
0e
0c
ff
f4
d1
f7
fc
20
0f
ff
ef
e7
f2
23
07
e8
26
ec
05
18
0e
fd
15
cf
23
00
ee
e3
fd
ee
17
d8
3e
05
0a
0b
f9
0f
f2
04
19
f8
f3
24
06
12
ec
18
fa
0c
de
14
07
e5
ca
ef
fb
ea
f0
f3
05
f3
1a
25
ee
f3
14
0a
08
16
08
f7
f7
1b
ef
f8
0a
f1
ff
ec
04
eb
d0
ec
e9
1f
d0
e9
fa
17
fb
16
11
08
f3
02
0d
fd
d9
f2
e6
ed
0c
e5
f2
10
fd
fc
1f
0d
f8
0a
1f
1e
2b
0b
f6
10
de
ed
12
02
2d
f1
19
02
30
f1
fa
f1
0c
ee
14
f2
07
f9
ee
17
0a
e8
f3
09
d4
ef
04
19
09
19
04
19
09
f3
28
14
03
07
02
e2
1e
0e
03
fd
00
04
2e
fc
fe
fc
0e
eb
01
13
0f
1d
0d
09
ee
1d
e8
08
ee
08
12
07
14
f2
e3
e0
0d
01
00
f1
fc
fc
05
f7
0c
0d
10
03
ee
05
f8
d1
da
17
f4
00
f7
00
fa
f6
f9
f1
f3
fa
09
ff
e0
1c
f2
16
ee
fe
02
f5
0e
fe
1f
03
0e
0d
ec
45
e2
1e
0f
16
d8
ef
c1
13
21
f3
09
00
ef
d4
f5
fa
1d
2c
f3
04
f2
0a
04
0d
1d
f0
ff
04
fc
fb
04
19
ef
e4
f1
07
f8
04
d8
03
1f
ee
0d
e2
f0
e6
0a
eb
0b
f6
ea
0c
11
1c
00
01
fa
f7
00
2f
03
f5
e1
fa
10
1d
ff
0f
f7
0f
11
01
f8
20
f4
f9
07
19
f6
ed
06
fb
fd
26
02
20
ff
dd
e6
da
dc
ff
f9
f2
f6
f6
07
ec
10
f2
05
ef
f4
f4
0c
00
ec
eb
f0
e1
ee
f2
f5
04
eb
f1
03
0f
02
fb
f7
e4
e1
fa
0d
ec
e7
01
04
f0
04
fb
0c
fd
0f
fc
ec
ec
0b
ea
0b
ed
06
10
fb
ef
11
ef
ee
eb
e4
fc
ff
fe
f7
fb
f1
03
f5
06
fa
fc
f2
0a
ec
03
ec
fa
f3
f1
fc
ed
ec
e6
df
f9
08
04
0b
06
ef
10
f4
ef
f9
0b
ee
08
01
0c
fb
f7
01
eb
05
f2
f4
08
fd
ef
13
fe
f5
0b
f1
e0
12
ed
f3
e9
f2
fe
ed
ec
f5
0c
f9
00
e9
ee
00
0b
ee
f9
ec
09
eb
1a
0c
e2
ed
07
21
e8
ed
e7
ea
fc
e8
17
0d
e4
11
f0
f7
f6
0e
f9
eb
12
25
10
e1
1b
f0
07
05
f9
10
ee
f6
ef
12
04
fe
f7
f4
01
eb
f2
13
e9
fa
f6
e5
05
0d
d9
18
0f
1d
ea
ea
15
f3
f8
f2
f0
01
e6
00
00
02
11
f2
03
f3
0a
08
fd
f3
f5
e7
e0
f2
00
09
0a
fe
e8
02
f8
1a
f6
05
f5
10
07
f0
f5
11
ee
e5
e9
01
fa
ee
d9
e4
02
16
e7
fd
f8
f4
03
ee
e9
08
fc
04
03
0c
07
0a
ed
13
e3
07
f7
0a
27
14
0c
f7
eb
d8
0b
19
ca
17
0f
f3
1e
20
0f
fe
06
26
06
2a
0d
17
1e
f3
16
03
e1
03
c0
f0
02
fe
f1
f9
1b
07
f2
bd
20
1b
0d
15
f6
e2
1b
f1
0c
16
0f
0c
e3
0f
04
1a
f5
db
10
f8
12
02
0b
10
e9
06
fe
12
01
ee
de
02
04
f8
fd
f9
0f
13
01
04
fe
03
fe
1d
ea
0a
f6
f2
0d
0b
17
12
f6
17
19
02
ee
f1
24
1c
10
20
2d
10
12
0d
02
06
14
26
eb
1d
11
ed
fd
f4
f5
1e
03
f1
05
fc
f6
f4
fb
dc
ec
c6
05
f6
e3
11
19
14
e6
ea
15
07
05
0d
0e
07
ef
04
1f
f5
16
02
0b
11
cf
fb
f1
18
01
1b
09
fd
f2
ee
25
26
16
e5
0c
d0
17
05
02
e3
09
14
f2
e1
0c
de
d6
eb
1a
05
fc
fb
f3
fc
05
e6
f7
ed
e5
0e
ed
ea
00
e4
23
0a
ec
03
1b
e1
d3
f7
f7
e0
0d
06
12
fc
f4
0e
27
05
ed
de
12
d0
f5
09
dc
f4
11
18
08
2f
03
0c
07
eb
f4
08
16
db
ec
e4
fd
f9
15
02
ea
08
f2
e6
ec
f4
07
05
08
0f
02
ea
f5
f7
01
f9
08
18
f7
14
e9
f7
13
07
0d
e7
ef
15
ed
08
07
f5
ef
f6
0e
16
f1
eb
f2
0d
fb
f2
00
f2
f4
f8
ea
fc
06
ed
02
f4
0f
0e
10
02
fe
05
f1
01
04
04
fa
0f
f9
0f
e9
ee
fd
e0
0b
fc
ea
f0
f2
f8
f4
f8
14
f8
16
07
09
14
03
fc
0d
0f
15
fc
02
0e
f5
0a
02
03
ef
ed
0d
14
e1
ec
da
f8
0b
f3
fc
f9
14
08
f7
1a
06
09
e9
10
fd
fe
0b
f7
05
ff
dd
22
ed
05
01
15
e3
23
ed
01
f7
05
07
ea
fd
1f
0c
0e
0e
df
f2
fe
f4
e3
d6
02
11
e8
f0
de
3f
04
09
23
f5
f9
ef
f4
0b
e0
dd
19
03
fa
05
13
e5
0a
d6
ff
02
fd
d2
f1
09
e5
08
24
13
eb
eb
1a
10
ed
ed
0e
06
01
f5
fd
15
01
ee
02
1e
f9
00
f7
0a
e1
fd
0c
03
0b
45
10
0f
f9
04
fd
32
f9
00
ff
17
05
e0
0a
06
c2
0a
dc
f9
dd
14
18
00
08
d8
e2
ec
d1
f1
fb
0e
fa
0d
f4
23
09
0f
23
24
f4
db
0a
04
04
16
eb
16
e2
19
06
08
e3
0d
f8
19
15
09
03
0b
f1
f2
04
e3
08
20
ec
27
ef
12
f7
0e
ef
0c
09
0f
29
f3
fb
0f
0f
0b
00
0f
09
fb
2f
09
17
3b
fe
05
f6
f8
ee
e4
21
14
16
e8
fa
0e
06
f5
e4
ec
1a
f1
c5
f2
00
f0
fc
10
ec
f5
0a
0b
ef
11
fd
e3
ed
05
0a
09
fa
03
0a
ea
fc
05
ec
1a
02
ef
f4
e1
13
12
14
f0
11
e3
f1
01
04
10
ea
f9
ea
06
f3
f9
ff
fc
ed
01
21
15
04
fe
ff
ed
17
f9
00
c6
05
13
d4
1e
fb
0f
21
26
12
f0
e8
12
dc
ff
16
00
06
24
fe
01
00
05
0e
16
d6
20
f7
1b
17
1d
08
1b
11
2b
25
ec
f0
cb
3e
fc
04
1b
06
fc
1c
f8
12
fa
fb
03
02
01
13
0e
fc
ed
ed
f3
fc
e1
08
05
26
c5
f9
e9
f7
fd
f4
10
10
fd
12
24
fe
f8
13
03
ec
ff
05
f1
09
f8
13
0a
fd
f1
23
0e
d8
fb
19
f6
22
07
07
0a
19
10
25
0e
03
fb
f5
f5
ed
f0
fe
f9
f4
f4
fe
20
0f
f0
d1
f3
10
e1
13
f6
fe
e5
04
00
16
f2
0d
fc
ee
ff
dd
10
0b
1a
0c
fb
1b
08
f5
1f
e1
12
ec
07
f4
02
12
28
fe
14
f7
1c
11
00
ec
fe
04
03
e9
0b
e8
09
d7
ff
e5
42
f3
0b
0d
0f
0b
13
eb
f8
ea
04
21
19
23
13
12
17
eb
ff
f1
f5
0a
12
16
0a
0a
01
03
01
f8
eb
ea
fc
02
ee
12
0e
05
06
f6
0d
0c
02
03
f2
1b
0b
0f
eb
f8
13
f6
f4
f8
0c
f2
0f
0b
09
fe
f7
11
1d
16
c1
e2
16
ee
16
04
db
ce
f3
03
06
fc
f3
0c
02
fe
1b
e7
ec
e2
fa
03
e2
f1
01
f8
20
fc
25
15
f1
1c
07
eb
f9
fa
0f
0d
d8
f9
0e
07
f1
fc
03
0c
f4
e2
04
f8
e8
09
01
b9
f7
13
11
0a
f9
02
ed
0e
08
f0
f7
ef
0b
0b
0b
0d
11
f0
1c
0e
09
f0
fa
fe
16
0c
14
ee
49
07
08
12
04
f2
0e
f3
04
fe
16
14
1a
07
08
fc
fa
ea
ec
d8
25
f1
1f
fa
ed
03
09
e5
f9
09
f4
f5
06
fb
10
03
ef
dc
03
fe
cd
d0
06
07
19
f8
ef
e5
ea
12
ec
fc
01
fc
d6
0a
11
01
fe
f0
e1
09
f4
fd
f6
df
0b
f1
ed
0d
0d
ed
ff
ff
dd
e9
ea
0d
e5
fe
0b
ee
0f
f4
01
1c
ff
0d
cd
21
fe
f9
d9
f1
03
fc
da
f4
13
ff
01
0d
02
ee
ff
11
12
cf
f9
0c
e2
04
13
12
00
fb
fa
f5
eb
15
05
fb
07
08
f2
fb
fe
ef
02
e1
ff
fd
20
0e
cc
06
f2
00
03
bb
e4
e9
f6
14
f5
e4
ec
0e
12
e9
f0
fa
f4
f2
0c
f0
02
1e
f6
f4
e0
e4
02
20
0c
00
f7
12
04
df
f6
14
fb
f5
27
0d
14
f8
f1
e5
ef
fc
26
ea
06
f9
f1
fc
f4
f7
0d
08
00
15
0d
dc
fa
02
ea
ff
06
04
1e
0c
d6
1f
fa
09
fd
e2
fd
d8
f6
0c
eb
18
08
06
17
10
13
04
09
d2
fa
fd
1c
f8
14
1b
cd
f6
da
0d
eb
05
00
13
fd
22
14
08
f4
0f
fd
ee
0b
0e
11
eb
1e
01
ef
0c
ff
c2
02
f7
05
fd
ef
ff
18
fc
01
05
11
09
12
fd
15
2a
1b
08
1a
ec
f5
21
19
06
2e
07
05
df
1a
09
fb
df
01
09
ef
0d
03
ed
0a
ee
fe
db
12
d4
0c
04
f1
fa
01
04
0a
fb
03
ea
f8
07
08
13
0c
4c
0c
fb
fc
09
f7
e9
f0
0f
fa
0a
f5
de
fc
08
13
ed
2b
ed
17
f9
1c
0b
14
0b
e1
f3
17
de
33
fa
ec
ef
0f
08
e1
14
0b
f7
ef
ff
07
12
ed
1d
09
03
f6
0b
ec
ff
f2
f6
f3
ef
00
20
06
13
e4
02
11
0e
fc
15
03
ef
f8
ee
04
17
08
fc
ef
07
09
d7
fe
0e
ee
13
e3
fa
2a
16
dc
1f
12
0e
fe
eb
0e
11
07
0c
19
f8
ff
f8
f1
2b
0f
0f
13
18
f4
01
f3
0e
f0
eb
03
ee
0d
fd
00
16
e6
ec
14
e8
f9
20
1e
05
07
dc
f1
f7
06
12
f6
12
04
0b
e6
1c
0a
03
05
f0
f0
0d
16
08
fb
ec
0f
20
ea
0c
1e
f1
eb
fd
e0
e6
f0
0f
ed
ff
13
f6
02
f8
dd
2b
0e
0a
1a
ef
13
fb
ec
0e
fa
e9
02
07
f0
d2
de
dd
1e
e3
f5
08
ea
03
e5
2a
10
ec
15
06
f0
f9
ff
ea
12
09
ee
0d
f0
f3
ec
f3
1e
e9
11
0e
1f
ff
f3
05
f7
e3
11
e0
03
24
ef
22
f6
27
dc
f4
ea
fb
1f
10
08
09
f4
fb
12
0e
bb
f1
f9
f9
e5
f6
ff
0a
0c
f1
04
08
20
ff
0b
00
1b
fb
fc
18
eb
c0
db
ff
e4
fa
c6
f9
e6
ea
f5
fb
c1
03
14
1e
f4
b8
08
fa
e4
00
05
f4
2c
06
fa
fe
dd
01
f4
f9
f8
13
14
fa
ef
12
d7
e7
f6
fa
06
fd
b6
fc
0d
20
c1
f4
09
f7
22
0d
04
1c
ed
1f
0e
ff
ff
fb
06
f8
f6
0a
f2
1e
20
18
f2
fe
f3
ef
43
fa
f5
f2
06
0c
ec
e0
dc
fc
11
f9
0b
e3
e3
f1
11
f4
11
fd
12
f3
25
04
04
16
d6
15
eb
f5
1b
f8
15
f8
4a
34
ea
f1
0e
d2
fe
07
19
f1
07
08
10
19
f5
13
f3
18
f4
f7
20
ed
fc
19
c2
ea
f1
0e
09
e9
35
03
fa
fd
f9
0e
e5
fc
02
de
1b
04
04
02
0c
f5
f1
07
f9
fb
01
23
06
fa
f2
14
13
04
f1
18
f5
0c
ea
ff
f8
13
12
fb
12
06
13
0f
f5
eb
10
fd
fb
ef
0b
e7
f4
e9
f7
e7
ec
de
e5
ff
e0
dd
ef
f0
08
f2
f1
fb
ff
0d
0b
e2
08
10
e6
08
02
f1
e9
02
e8
ee
10
04
fd
ec
18
14
10
f8
f4
0d
f2
e2
ef
10
e8
03
13
df
ff
02
0d
e6
fe
df
06
14
f7
06
0a
06
07
f7
0e
e3
ea
f4
ef
f9
0a
d9
e6
f1
11
0c
0a
e0
0c
eb
0b
f0
f2
0a
0a
05
f2
ec
f9
0f
eb
fa
fd
f8
fd
07
ea
0b
df
03
df
fd
e6
12
1e
f9
d1
0b
0b
f9
ec
fc
ee
02
06
fc
14
0a
13
00
fc
f2
dd
1e
07
e6
f5
01
ec
23
07
f8
ff
17
fe
e9
10
e6
15
02
ed
fe
19
18
2f
17
18
1a
fd
f4
01
e1
0c
ea
17
13
13
05
ff
fb
0d
fe
e5
ed
e7
fb
09
db
f2
f3
e9
d5
f8
ce
05
17
19
15
ec
f1
02
f0
14
dc
12
fd
df
fd
1a
f1
13
fd
e2
06
05
0f
17
fd
18
ed
ed
0d
ee
e8
09
f1
00
09
d3
ee
09
0a
0d
00
18
0e
37
f4
fe
03
cd
ee
e7
04
0c
03
07
10
01
f9
04
12
f6
07
f9
e9
f6
13
09
0b
31
fb
24
0e
fa
f7
27
38
fd
00
12
e9
0f
1b
f9
26
f5
fc
ec
d5
f6
e3
ea
0b
f0
ff
dc
e8
04
0c
23
12
eb
0d
20
f6
23
0d
fb
f8
f0
07
07
fd
04
f7
0b
3d
f2
e6
e5
1a
0e
05
2d
00
04
e6
21
14
e8
0e
c1
09
e9
f8
19
dd
f7
f9
fc
21
c5
cf
02
0d
ff
f1
09
f6
07
0f
17
0b
09
f0
02
04
0d
06
f3
19
2a
fd
ca
16
d3
eb
cc
f7
1c
d1
01
fc
f4
06
f8
f0
0e
f1
03
fb
ea
02
fd
09
0d
10
03
ec
fc
03
ef
f3
f5
05
05
f9
06
f2
ec
ed
e3
02
ef
06
eb
f2
0d
ee
04
08
f7
f0
ef
e7
e9
ec
e9
ed
05
08
14
f7
ff
00
07
05
f7
01
f2
fd
f9
f6
10
0a
0b
f6
0a
f1
03
05
ec
ec
fa
00
e6
eb
e6
f6
f6
04
f4
09
08
ef
f2
ea
fb
ff
f6
e3
0e
ec
00
f0
f2
fa
f0
03
0d
04
10
ec
13
0b
13
04
ea
f3
f1
05
04
0c
e3
f4
f8
f0
f8
e5
fb
f1
07
0e
f7
00
f8
0f
fa
f1
0e
ec
f1
1e
f9
2c
01
0d
15
20
e3
e9
ec
d5
f5
19
de
f6
cf
f7
f7
eb
00
10
ec
22
1e
cc
05
11
03
ec
ff
ea
1b
f9
fd
03
19
fe
fd
1e
14
fb
fb
0c
1b
05
fe
07
05
fb
0f
1c
f8
ed
ff
f2
ea
16
06
e7
f7
01
fe
e3
fd
06
f5
f6
0d
ee
15
1c
03
fa
12
ff
dc
05
11
0b
f9
06
ec
fb
fa
18
19
0d
f8
0c
27
fd
08
0b
03
fe
11
f3
15
fa
1a
0b
26
f0
ff
0a
11
f4
f9
1e
1e
e4
db
fb
24
02
05
1b
ff
dc
15
e2
14
0e
14
ec
f0
10
e9
16
fe
17
f3
14
f2
04
dd
15
d8
0a
02
05
0a
16
e4
0c
ed
f6
ea
fd
0b
f4
e6
07
15
ed
07
ef
e2
15
f6
e7
e2
f3
fc
09
07
ff
ff
08
0c
f2
ea
ed
dc
2d
09
e8
1a
15
02
1a
01
01
27
09
19
df
fc
ed
e3
15
ef
03
f5
ec
f9
d6
ed
02
0d
db
e6
04
0b
13
21
06
07
f7
02
ec
15
02
03
06
f6
0a
08
e9
d3
09
e3
0c
dc
ec
ed
fb
e3
05
04
fe
db
0a
df
ff
0b
06
f7
01
13
1f
12
1b
0e
15
19
e3
f2
00
01
eb
fb
ee
fb
eb
f0
d6
e8
f0
08
12
fb
16
03
ed
07
1f
fd
00
1f
06
20
ed
01
f9
d9
0d
f7
15
0d
f7
05
10
ed
f0
f5
1b
dc
1a
2c
ed
01
fa
f3
ea
f7
15
1b
e7
15
de
05
0c
d1
0f
f8
18
0f
15
22
0d
07
09
ff
f7
f9
31
fe
f8
12
1b
e3
fc
18
1d
f0
fb
f6
1f
44
fe
fc
fa
10
01
09
f3
f0
ee
0c
12
14
f2
fb
e3
2d
14
f8
2d
fd
ed
0e
17
ed
25
0b
0c
09
f4
fd
01
ff
25
02
f5
fc
2f
f7
ed
0a
df
f3
0e
10
f1
c1
eb
f1
0f
e7
16
f9
10
1e
e6
05
0b
12
df
f3
0d
14
f0
1c
0c
ee
fb
0d
02
17
17
11
f9
08
eb
22
01
1b
01
30
e7
12
e4
ed
21
01
01
ff
f2
fb
fe
ec
e2
db
16
09
00
05
ec
10
ee
00
ec
11
1c
e3
0f
00
08
d8
ff
0b
ff
10
11
f7
f0
0f
13
13
e5
0c
09
10
00
1f
f8
03
f9
1f
ef
f5
f1
d8
f2
12
f2
01
1b
f3
18
02
03
f9
ed
08
22
f4
0e
f2
12
fa
f8
09
ee
e4
16
03
1e
f8
04
08
15
01
07
ea
e0
01
22
fa
f9
f2
10
e8
f7
f8
dc
f4
fa
1b
09
ee
0f
0b
ec
2a
12
fc
01
fc
e5
e8
05
07
32
23
fb
05
f1
06
1c
f4
fe
22
22
f2
09
15
1a
f1
10
09
08
12
02
f4
00
f8
ec
03
02
f7
04
f3
fc
07
d2
15
f2
14
09
fa
eb
10
06
07
f8
e9
e9
f2
ef
f6
fb
f3
09
0a
f0
f3
14
d1
ee
f3
11
e3
fc
ec
10
03
09
0d
fb
fd
16
30
e6
12
10
ee
12
07
f5
f4
df
f3
ff
e2
d7
ef
17
25
0c
09
c9
22
2b
08
17
0c
06
19
f2
f0
1a
b3
05
ee
ed
0b
08
ee
ef
e0
fb
f3
ed
09
f2
ff
05
0c
0a
11
0e
eb
e0
fd
f1
00
07
0d
fa
02
10
f1
25
ec
c7
f5
1b
1b
06
11
2c
0f
f5
17
13
11
0a
05
08
0e
00
26
ec
13
0a
04
17
18
09
f7
01
16
0b
ef
04
11
08
29
0f
ef
0a
eb
fe
f9
04
fc
0e
1d
0d
ea
05
f6
10
23
1c
f6
de
0f
f2
17
fa
db
1a
ea
cf
f7
1f
f1
14
f4
21
ff
ff
f8
fa
e8
1b
d9
12
19
17
08
ec
06
fa
13
f3
0a
0b
14
df
fd
fc
f9
13
ec
f5
de
fc
0f
1b
00
12
22
f9
04
fc
f0
18
dc
02
f3
e3
dc
04
e4
05
a4
06
10
16
18
cc
06
ff
f7
09
01
f2
ef
ee
f4
02
ec
d3
07
07
dc
0d
fe
13
e1
0e
07
00
04
f5
ef
1c
12
fb
09
1d
16
f0
09
02
1e
28
11
00
0c
f9
02
05
06
01
29
f3
0d
fa
2b
f4
d3
e6
04
ff
ed
f6
ea
17
d5
01
f0
df
eb
e6
fa
07
0d
0d
0d
ef
07
0f
15
06
d4
04
f3
02
fe
f8
b5
15
f9
d8
0f
1f
0d
ff
12
f4
0a
14
15
19
26
f1
1d
04
de
05
db
f1
0e
f5
f0
18
1c
f8
fa
e4
ed
1d
f3
f5
bc
d8
ee
f0
fa
12
09
fe
f3
ee
fe
00
0d
e0
0a
15
33
0f
26
15
e6
20
f2
0a
fb
ec
e5
d4
14
0b
bd
f1
0d
ee
03
05
16
14
06
22
f1
24
15
15
0a
fa
1c
e8
f9
0a
0f
db
00
f3
1e
ec
07
29
11
e9
e2
0a
dd
0b
28
22
ea
09
f6
d9
0b
e7
f9
f8
db
00
d1
0b
f4
06
1f
f2
04
f7
02
09
35
1b
0c
f4
06
16
03
f8
df
24
0c
0b
01
03
ef
f2
1b
f0
d3
1c
04
f9
12
e8
0c
12
f4
ff
e6
e4
dd
11
e6
17
1c
22
dc
f5
e3
1b
f0
0a
07
e9
e7
11
0d
2c
d6
fb
ea
1c
08
f3
ec
ee
13
1d
da
ea
d5
ec
0c
fa
05
0c
d5
03
08
f1
15
07
02
f8
01
21
05
0d
f0
f8
1e
0e
0b
20
2d
f5
d7
15
02
09
e6
fd
e8
15
d0
f8
e8
02
e9
f9
0d
f1
0a
02
fe
fb
f4
0d
f9
fc
f2
17
26
08
01
07
0c
05
03
04
d4
00
e7
06
f8
17
f2
f8
f8
fb
07
e6
fd
fb
19
f6
d6
eb
fd
dc
1a
0c
07
0e
ee
ed
00
05
02
03
fc
19
0e
1d
e7
bc
0b
ec
17
23
fc
f9
18
2a
f7
15
18
ea
07
16
25
27
ff
fa
fa
23
00
f8
12
02
fb
dc
16
f8
da
e5
12
ff
ee
de
1c
10
ef
0d
09
fb
11
05
fb
fb
1c
e9
10
10
ec
e8
d6
12
f3
f0
f5
0f
20
f0
02
06
09
f3
1c
01
03
07
09
02
05
db
ed
df
fc
fc
d5
dc
e7
fc
0e
ce
26
01
11
0c
f7
14
f8
07
20
e9
f3
0c
eb
ed
f8
f8
06
19
11
ed
07
fe
f0
fc
e9
fb
d9
01
f2
f1
f3
13
05
00
00
ef
01
f6
fa
06
07
0a
fe
43
02
e1
f1
e7
e4
f2
06
22
06
0a
28
10
1a
08
19
e9
f8
fb
0b
17
0f
fe
fe
f6
02
0e
e9
f5
01
05
07
f8
06
0c
e4
09
ee
0e
0c
02
df
fc
11
f8
ff
0d
f0
0e
08
17
18
1a
dc
14
02
e4
f7
0d
07
0c
04
e5
07
d6
f6
f7
fe
06
f7
fa
04
fa
06
12
e8
f8
ce
15
03
e1
de
ff
d9
de
f3
02
11
01
16
e7
f9
f1
12
01
01
03
0d
0d
13
05
e9
f7
fe
14
06
fc
01
f6
ee
cb
07
04
e1
0c
10
1e
f8
ed
ea
30
fc
f8
e7
21
00
ca
02
f3
d8
10
e5
f6
f0
13
fa
f5
f8
00
11
ee
11
df
10
02
c3
10
f7
ed
f2
ee
f4
f9
f0
0d
21
11
05
fd
04
14
2b
eb
f6
00
f5
05
f5
0e
d6
13
e9
10
06
e8
0c
ec
16
f5
e0
0e
07
f9
12
03
fe
20
00
26
14
fd
f2
eb
1d
13
12
fb
04
03
ea
00
f5
1e
0d
04
07
f9
ec
10
c6
ef
02
19
08
e2
24
00
fd
f2
cd
12
1e
f8
06
16
f0
04
ff
ef
06
19
f0
f8
22
15
c8
d2
fe
1b
1e
d8
f2
19
f5
1c
08
e7
12
e5
10
08
f6
f4
08
f5
d6
e8
13
00
ea
10
0c
02
0a
0d
02
ff
03
f3
fb
0e
fb
11
08
1b
14
0e
08
09
08
ef
f7
f3
12
1b
10
0e
14
11
1e
d0
fd
e0
16
d2
e6
1b
f3
06
ea
e8
0d
f1
ef
ec
00
1f
ef
fa
ec
f9
ec
ec
0f
0a
f6
0d
df
d5
ed
eb
05
10
00
ed
f3
07
07
f1
fd
e5
ec
14
0d
f9
0d
16
00
f6
f0
09
f5
fe
05
11
06
09
fd
11
f4
eb
e3
f9
f7
fd
e7
02
f3
fd
f0
01
10
0c
02
ee
f6
ec
03
07
09
e4
09
08
f2
ec
0c
f5
ed
f0
fe
08
f5
e9
ee
e9
fa
08
fd
ec
00
00
04
11
ff
19
f1
03
12
fa
f1
08
fd
06
0e
03
f3
e6
13
f4
06
eb
09
e6
f7
df
0c
0c
fa
ee
14
11
ef
f9
f2
e1
f8
f9
12
0c
bd
f2
e8
16
f8
08
0b
01
f7
02
0d
f4
ff
15
b3
07
09
f9
05
22
ea
05
fd
e6
fe
04
02
15
08
eb
d7
00
03
f7
12
f1
f4
dc
e7
09
ed
fc
c4
10
dd
0a
e9
c2
e8
1a
d6
d7
f7
fe
0c
f3
05
ee
16
0c
f2
f9
f4
f1
fd
13
cb
ee
0c
dd
e0
f7
c4
0c
01
f0
13
f2
e3
fd
00
09
05
fa
f7
f9
07
08
14
fe
f9
f0
18
f0
02
eb
f4
f9
13
12
1c
fd
d7
f5
f3
2c
ff
fd
e2
12
fb
06
11
07
0e
e3
03
e9
fe
11
eb
ed
ee
25
08
0d
f7
2e
13
0d
06
ff
eb
fd
e9
eb
15
0a
02
03
fd
fa
0a
f2
ff
0d
0f
10
16
ed
0d
13
27
0a
1a
0a
08
eb
f9
0e
ff
04
10
1a
2c
fc
1b
15
fb
05
14
11
fc
e1
1c
fe
f7
12
f8
09
41
05
d3
f9
f9
f4
01
df
04
1a
b7
e7
0a
1e
fb
f8
f9
d8
f9
05
10
20
f6
11
e9
fb
00
0e
ee
06
f6
fe
1d
04
fe
12
ed
f6
fa
ef
ef
fc
f0
cf
f0
e3
eb
ff
e1
fd
13
f9
f8
11
fe
0d
15
ef
f8
0f
14
0e
17
ec
eb
16
fd
eb
e3
fb
ed
fd
d9
1a
06
08
ec
f2
07
fa
40
1c
08
18
ee
0b
0e
f6
05
02
01
0c
d3
04
dd
02
08
0a
fb
fe
01
eb
f6
2a
10
f0
2f
ec
16
ef
03
01
08
27
16
b6
08
d9
fa
d7
fe
10
0c
fa
e8
11
35
fa
ed
0c
11
12
01
00
0c
12
20
08
0c
eb
ec
11
e0
f6
10
04
ee
e4
00
f0
13
f6
24
11
f6
05
d3
db
05
fc
26
03
37
e7
df
27
14
0c
15
04
20
00
0e
05
11
f7
ee
04
fd
f3
f2
0a
11
0e
e1
db
1a
d7
ee
e8
09
fb
19
fb
03
27
f7
f9
07
10
24
02
15
eb
eb
00
f4
05
2d
13
14
21
c8
06
f3
d0
01
ff
22
0a
ef
f7
0f
04
1b
00
f1
14
1c
f7
12
ff
0b
ed
f7
d6
05
ee
0d
f3
ea
0b
22
06
f2
0f
ee
15
fe
de
16
16
16
1f
0b
0b
f4
12
11
12
f1
15
ef
14
0b
21
f5
06
ff
03
f2
00
f2
f0
f3
0b
22
17
0a
04
26
13
f6
09
f6
30
fd
12
d6
0c
f7
12
f9
1e
fb
df
02
f3
13
18
12
fc
ee
e5
e8
fa
f6
01
de
e3
04
f7
e9
13
de
14
f5
03
03
20
f3
f8
03
bc
14
ff
11
11
09
de
e8
e9
14
fa
04
16
ed
c6
ee
ef
0f
11
22
1c
07
e8
bb
ca
e7
0e
f1
f5
13
03
0f
0c
22
e6
eb
2e
ff
eb
e0
06
f5
10
e6
df
0c
de
f3
01
cf
df
11
fb
19
e8
d9
04
f0
df
04
0b
fe
f4
1a
f2
12
eb
04
f6
1f
01
10
f7
12
fb
fd
f9
e5
02
fe
03
e2
26
f6
ed
ee
fc
ee
1e
f9
f1
f2
fe
00
ed
0d
f0
19
ff
e6
16
08
e9
04
0e
f9
f5
18
06
28
f4
14
03
e2
eb
ff
16
f2
f1
ec
fb
11
00
03
0f
e4
f8
05
ff
1f
fa
04
02
0b
fc
0d
07
ee
fd
f9
03
0e
1b
05
15
ec
f7
f5
54
fc
f5
f6
dc
1a
fc
f3
e0
e8
fa
21
f2
e1
fd
03
e2
f6
d9
16
ee
de
f3
04
f2
e8
03
e6
ed
fe
10
1d
f0
0d
00
fe
dd
f1
f8
f1
0f
f2
06
ea
0a
14
06
fc
09
06
fb
d2
01
01
cd
f5
eb
13
04
f9
f9
07
0c
fa
00
00
1e
10
1a
e6
f9
f6
ec
ed
de
07
fa
29
0b
06
06
2e
1b
13
f4
1a
00
f6
f6
e5
0f
10
18
f8
11
1e
0f
1f
0f
f6
06
25
f7
15
f5
f7
09
e2
0a
f7
15
e2
e0
1e
f3
d5
ea
06
e9
f0
c0
fc
21
f3
f2
03
04
f1
1f
27
15
f1
ed
13
f9
f3
ef
fb
20
da
ee
2a
09
f2
eb
07
17
05
04
1d
24
12
00
09
fb
f9
01
0f
f9
04
ed
c3
03
ec
00
05
f8
11
0c
37
03
df
ee
f4
c8
0b
fe
fd
fb
18
ed
07
00
0c
fd
06
08
06
f2
d5
fb
f7
16
11
02
29
f6
e2
cf
1e
2b
0e
ea
f5
08
18
03
ef
16
d4
24
01
fa
0a
f4
f3
f7
fb
0b
e0
f7
c6
ff
1b
d4
07
0d
f9
12
f9
fa
0f
04
08
1f
31
1c
21
f3
15
1c
f7
f7
fb
2a
e8
28
0d
eb
dc
e8
21
f1
fb
ee
f7
28
10
09
03
e7
01
21
13
20
fc
fe
01
ed
f1
d4
f2
f4
f3
22
10
ec
f4
0e
ea
15
17
04
00
10
0f
1f
e7
0f
fa
fb
e9
e8
2d
15
f2
e6
f0
10
06
f6
f1
ee
02
0b
f0
1e
fc
0c
20
fb
08
e1
15
18
06
ee
0b
1d
00
fc
12
ce
05
eb
08
f5
11
ed
ca
09
f1
1a
fe
25
06
0b
d5
0c
09
e3
17
f8
db
02
09
02
e7
06
d1
1c
09
f0
06
00
29
de
e7
00
f1
f4
14
19
1a
2b
eb
fd
ee
19
da
05
e9
05
fa
fd
0d
1c
03
1a
f8
11
f4
02
f4
f1
07
f2
13
13
f0
0a
0b
01
09
ec
bc
de
02
06
f8
f4
01
f8
ee
de
fa
fb
1a
15
f0
1f
d6
14
fe
07
0c
f2
f5
f2
d3
ef
18
f0
02
15
15
06
08
00
11
11
01
16
11
1d
f3
10
01
11
08
09
ea
02
14
fa
ef
f8
fe
07
e0
0b
03
0a
04
dd
0c
f6
cb
10
fc
d7
20
11
1f
0b
04
e2
05
13
f7
26
05
10
0a
f4
04
c8
0d
04
f6
15
ef
05
31
1b
05
21
0e
14
04
1e
18
16
22
16
e2
04
f0
09
1b
0c
dd
cb
fe
f0
ec
04
fa
f9
06
e2
18
fe
07
0f
e4
f7
f1
eb
ef
19
fd
f2
fe
f5
ef
f4
03
0a
e5
07
ed
06
ff
ec
1b
16
fd
f1
de
ff
ed
f9
10
12
ef
0f
12
12
2f
0b
fb
0a
06
09
e9
06
07
0e
08
21
cf
d5
fd
1f
11
22
f3
ed
11
1a
0f
19
13
f6
f0
04
00
14
25
e8
18
0d
1d
e2
07
f3
2f
04
12
23
29
09
ef
eb
28
2b
19
04
35
fa
ec
00
ff
00
fd
0e
0f
be
1b
05
e7
f0
e3
ec
ff
e7
0d
08
f8
03
fe
da
f5
0d
df
fb
03
12
15
f5
fc
fd
0d
fa
e0
dd
0b
f2
0c
14
e6
fa
f9
04
01
d2
fe
f4
06
14
05
11
1d
04
0d
f8
f9
00
fc
04
10
11
07
12
ee
d5
00
fb
1d
fa
fd
f2
fd
0c
fb
f8
21
db
f3
eb
ac
24
15
e7
1d
14
00
0c
fd
d9
fb
fb
10
ec
38
05
13
13
0a
03
ee
09
e1
0d
16
0c
18
0a
f2
fb
02
15
00
ef
d2
04
fe
1b
ff
0b
fd
ff
fe
cd
0c
e1
06
ff
2e
17
f0
f0
22
f3
f1
03
03
01
0b
1e
00
f3
f9
02
e3
f7
f0
10
fd
18
15
14
0b
1a
e2
fc
00
09
f3
0d
08
fb
eb
fd
dc
19
f8
f8
1d
fb
21
0f
04
e1
08
ff
10
f2
08
14
f2
08
04
03
fc
ef
0b
0a
d5
f0
c6
0c
f1
f3
21
0f
f0
ee
fc
01
1c
0a
ed
e6
0b
00
fc
24
d0
f4
0c
f3
04
e1
f2
05
ec
fd
ee
ee
1e
ef
1e
04
ff
eb
f8
f2
fc
13
f1
f3
0c
0d
22
1b
f2
04
e9
18
03
d7
d5
05
1d
05
0c
2b
31
ea
0e
f6
ee
f4
f2
da
ee
ff
cf
00
14
24
f8
fe
fc
05
04
0f
06
ee
fe
fc
f9
01
19
15
ed
12
ef
ff
12
f3
13
09
1e
08
08
f8
10
f0
f8
ee
f5
e0
fc
12
03
ff
f9
e9
02
e3
07
0c
f5
e3
f8
05
2d
eb
0b
f9
f9
fa
e8
17
fa
0f
fe
fb
0d
f3
03
f0
07
05
05
ff
35
e8
15
08
0e
dc
f9
fc
2a
19
03
0b
21
0e
ed
0f
08
eb
08
0b
1d
fa
f3
fc
26
fd
ee
1d
fb
11
fd
06
07
f5
2b
c4
f2
e5
11
15
2c
08
02
e9
07
ec
24
eb
09
c5
03
1b
27
de
fe
ea
e9
15
12
f8
10
1a
fe
f0
0d
21
28
05
fa
03
fa
07
01
0e
04
02
eb
10
06
05
22
d5
02
ef
f3
f3
14
f9
0b
f2
d4
0e
02
e0
16
17
06
fd
14
f4
17
fb
12
f5
06
04
16
f6
f2
13
26
fe
39
cc
21
1c
e9
e8
03
0a
09
11
10
f4
f3
f6
d1
f3
f3
f2
21
e5
13
fc
1f
dc
f0
0a
14
14
14
0c
f3
03
f0
06
11
11
1f
fc
1f
ed
f8
0d
01
29
19
16
13
ee
fe
09
1c
14
0a
fc
f0
f8
0b
e5
03
0c
ec
e3
10
00
02
fd
25
10
ee
f2
ee
06
17
12
c4
ea
f7
ff
0f
12
dc
13
f6
fc
ee
fe
0d
f4
e4
ed
e8
fb
0e
16
0a
ff
e7
ee
1d
0c
06
07
03
22
f2
d4
f6
ef
ea
f9
d7
0a
f2
10
10
0b
0d
f4
f7
0a
16
1a
e2
16
f9
01
00
1a
cc
f2
0f
ef
15
25
fe
f9
05
fb
dc
e8
11
f9
02
02
ff
03
0a
15
1a
c6
0e
08
f5
fd
20
03
12
f5
ed
37
fe
d6
e5
0d
06
10
e9
12
02
f1
fd
fa
14
04
22
12
0a
12
0f
f3
35
14
0b
fa
eb
db
e9
07
17
e0
f5
f6
18
05
1d
03
ec
07
0d
04
10
0a
13
05
04
07
f3
f4
04
db
0c
f0
07
e5
f3
09
17
0a
e8
ee
f4
03
ed
08
f0
1f
f5
f2
0f
0f
f9
fb
13
11
06
ed
09
f7
0d
16
1d
ef
15
10
fe
ea
f3
f5
0d
28
f4
00
08
22
eb
f9
d5
f7
05
08
e6
12
fe
be
05
1b
f7
f6
e3
e5
03
22
fe
09
e4
d1
fa
fd
03
fa
09
22
f1
18
fb
19
fa
e8
df
1d
2d
0f
24
10
f7
25
0c
14
2e
f1
0a
08
12
00
03
ef
13
f5
05
f4
17
f7
fc
22
cf
1f
f2
fb
06
0c
e9
06
07
02
f4
fc
fb
0a
08
11
eb
13
27
30
02
ef
04
f0
01
ed
03
21
f2
19
0d
f8
0f
0d
19
02
fa
e7
13
2e
fb
f0
17
f9
eb
f4
34
23
13
f9
11
02
ff
1b
dd
f4
14
3b
f4
3c
31
10
ec
10
cf
f9
1f
fe
09
2e
15
0a
ff
11
e5
10
e8
03
1f
04
e5
c9
fd
fc
f8
11
fa
18
fe
1f
01
1e
fd
05
15
06
07
1b
24
ec
04
20
fa
18
f9
23
26
f4
04
f3
2a
17
07
0a
f4
ff
07
10
ff
f6
f5
16
0e
12
00
07
12
f9
fc
15
d7
0f
1a
10
1c
f5
ea
f0
f6
dc
e7
20
0b
f6
05
fb
eb
e5
fa
12
f3
0c
08
0d
06
ea
1d
2e
01
e2
06
1a
f6
01
df
fd
fa
e3
23
1e
ed
fa
eb
f9
00
d1
ed
ff
0b
be
ca
0b
00
eb
13
d7
37
eb
f7
03
ec
1f
0c
13
0a
20
03
ef
11
e6
36
00
0e
01
f2
e0
0a
fa
19
0e
10
f5
13
f5
f0
21
0c
11
e6
ec
fd
ec
12
01
02
04
e7
fa
13
ed
05
f7
12
ff
0e
e6
01
0c
ef
f0
28
ec
0a
03
09
0c
fd
f1
0b
0a
0f
e6
f1
04
f6
d5
02
f3
ee
21
07
0b
0a
fa
0c
fe
0c
d9
f6
ef
0f
02
03
fe
ff
fb
14
f9
1d
0c
e5
09
e8
06
e8
00
a8
03
eb
f5
1e
16
f5
ec
0f
13
f4
0f
08
0a
07
ec
0f
f5
00
06
d3
e8
f9
fd
ee
f7
09
15
01
cc
23
1b
11
fe
09
1d
14
fc
1e
07
15
04
06
e5
e9
f5
07
e2
fa
03
06
04
0d
0e
13
e8
00
11
dd
f0
f9
fd
ed
f2
09
ee
13
06
13
0a
08
12
fa
19
ea
08
14
14
ff
f6
15
14
fb
0e
fe
db
00
ea
2b
22
14
0d
11
01
fa
0d
0d
09
f9
fa
0d
fb
00
1d
05
11
ff
ed
fd
ec
fb
d9
f8
10
11
06
ea
f8
13
10
42
ed
00
f8
01
eb
14
fa
f3
15
fe
39
f6
13
f2
fb
d6
0d
f2
ff
fd
fa
fc
e2
ec
22
f1
f2
f8
0f
f4
01
fd
03
0e
ec
fa
f1
0f
dd
05
1c
f2
1e
06
1e
fa
15
de
0f
11
fd
f9
fe
01
30
ff
1a
25
f8
ff
29
08
02
29
1f
1d
ee
00
ff
f6
f2
09
17
da
f5
09
ee
f8
f3
03
f0
eb
05
01
0b
17
06
1a
15
ff
00
30
f6
07
fa
d9
fb
e9
d8
12
0d
ef
f0
06
1c
11
05
21
09
20
0e
e1
eb
e8
f1
02
0c
fa
04
fd
c6
2d
ff
fd
c9
fb
df
20
15
f6
de
08
17
26
f0
ed
11
1d
ee
ea
14
ff
0d
ef
dc
da
07
20
05
09
f0
f8
02
24
fe
17
f5
fb
1f
09
03
07
e5
07
0b
e5
0d
fc
16
fd
e5
0f
13
3a
0a
f7
df
1a
ff
0b
2f
ee
ee
0c
15
19
eb
0a
f5
0d
05
fc
e5
23
d9
15
eb
f1
09
d0
02
fc
c9
ef
15
25
f2
cf
e8
2b
e7
ea
2e
19
e2
15
0d
2b
f7
f9
1f
04
1d
ea
fa
ee
ed
0b
10
ea
e7
cd
11
17
20
1d
01
ed
cf
40
f1
fa
26
f8
ed
f9
d3
0e
fb
03
f8
f0
ee
17
0a
14
17
01
1b
23
0e
22
e1
0d
0d
de
11
17
2d
f4
dc
17
e7
e3
08
f6
fd
0c
f9
0d
f6
02
f5
07
00
0b
20
f5
f2
fc
e4
14
13
26
f3
15
0f
fe
fa
10
09
15
fa
1a
ec
06
f6
06
1b
df
ec
fa
e3
23
e1
fd
f5
13
0b
e5
ec
00
0a
15
15
15
0d
de
03
e2
1a
fc
d0
e4
15
19
0e
11
0f
f4
05
14
0d
f8
0f
07
eb
1c
fc
0e
f3
f6
f1
22
0f
07
df
25
f9
1b
f5
1d
3b
f8
0f
f1
01
06
1d
02
15
06
ee
f2
09
f3
fa
08
14
e2
fd
08
c3
0e
0c
f8
11
1a
f4
1e
f6
07
e9
22
1a
02
1d
08
f1
ed
fa
09
09
db
0d
0d
f5
28
1a
07
13
06
0b
fe
f4
fe
0d
ee
1e
17
03
f2
f8
14
ff
f9
00
13
1b
05
f0
15
f6
f7
11
f2
14
ed
10
fa
09
05
13
fd
0b
fd
00
fe
10
d8
04
f3
23
11
10
d7
f7
fa
04
fd
0b
f7
f5
f0
f5
ef
01
e3
09
06
22
0b
02
f0
e8
03
15
0a
09
b8
24
04
d1
16
00
0b
1c
0e
ff
0a
f6
02
06
14
ee
09
15
e6
eb
e9
f6
f3
31
0f
06
1f
05
de
07
05
1b
f1
e4
da
ce
ed
0b
07
10
06
12
20
ed
0b
05
ee
0d
ee
04
0b
f9
0a
ff
13
19
ee
f9
07
04
f5
e8
10
18
d5
01
07
f8
15
17
18
10
0d
1e
01
14
03
f3
fe
f8
1c
0f
f9
01
10
f7
e7
f8
1e
f8
28
12
ea
f2
ff
06
29
fe
df
1c
11
0a
03
11
07
04
0e
15
fd
11
01
f3
f7
21
f4
07
0f
10
eb
e9
1a
12
01
09
1a
ec
f5
f6
0e
1e
0e
22
03
15
ec
11
0d
15
ef
06
f1
ea
e8
e0
0f
05
fb
07
f0
e4
f0
fe
00
f8
c6
f7
00
05
09
ff
ef
14
d5
01
ed
02
fa
f0
f6
11
0b
ec
14
f4
02
f3
f7
10
f3
1a
1a
0a
ef
e6
f9
18
09
0b
f9
ed
ff
f9
08
0b
b8
1b
f1
fc
f9
f0
04
03
ed
1a
f5
ee
0b
00
f1
e5
d4
06
07
f1
e1
fd
ee
fd
27
fc
f1
1c
13
13
13
d2
0a
e7
ee
ea
dc
fc
ef
19
09
e3
05
ec
0e
ff
d3
0c
e8
16
0b
f9
f5
f2
c9
14
ff
02
0d
09
fd
00
04
f4
ea
03
df
12
fe
1a
06
11
f5
0d
ff
02
07
f8
1b
fd
29
fb
22
f8
f3
2f
f5
d8
0e
2b
ec
24
e5
0a
04
09
1c
12
0f
07
1d
2b
f4
0e
14
15
24
02
03
1a
ec
f7
f7
04
fb
d5
f0
fe
10
ee
1c
f8
eb
0b
f5
04
00
01
f2
eb
d7
08
09
ec
db
e2
12
03
09
fb
f2
e3
e4
fb
07
0c
ee
ff
0e
e8
f0
11
06
2f
06
02
09
0c
f2
19
e2
f7
ec
25
dd
17
e2
06
03
ee
ff
14
f8
fd
09
08
16
26
ec
f9
fe
fa
1a
fd
fd
05
0e
ff
e1
37
0b
f5
ec
00
f3
05
fa
1c
14
07
07
fa
0c
f1
de
f3
f1
27
17
11
13
e9
cf
ec
f1
ff
e8
e4
03
f4
12
12
f7
0f
f8
14
d2
17
fd
0b
28
ef
0e
07
05
0c
01
fc
08
0b
2e
fd
0b
fc
0a
06
14
ee
08
f5
fa
04
0e
fc
f2
f5
09
00
14
f3
f9
ee
d0
03
25
16
0a
1c
eb
03
f8
db
11
20
ef
08
ea
19
d3
06
f6
fd
d7
f0
f3
e6
ea
22
cd
e4
ed
f6
ed
1d
db
1c
fc
fb
f9
df
00
03
fb
dc
e8
fd
01
01
ed
f1
13
0b
da
01
c5
07
e8
11
ca
12
1f
bd
f5
0f
de
a2
11
1c
10
f4
06
e3
fb
0c
06
e1
f2
fc
f5
05
e9
fd
07
f5
d1
e9
d7
20
06
f4
21
bc
d3
fe
e6
0e
f2
fa
04
fa
14
1e
f0
ec
07
f8
1b
12
fd
e9
f0
1a
ef
13
03
00
03
cc
e7
16
09
1d
f5
00
1c
1a
0c
ec
ec
0f
02
fd
11
21
08
fc
17
fd
ef
ff
e9
1d
05
2f
f8
e7
47
f8
10
ce
fb
ee
f9
e6
f7
1d
f7
07
f0
f9
e3
fc
14
13
21
15
20
01
10
1d
11
02
d7
f6
17
ff
e7
08
f2
fd
1b
27
f5
f4
f3
eb
ec
2c
f0
11
0a
0d
e0
21
d3
f8
bd
eb
e4
ee
06
05
eb
15
02
fe
13
2b
14
f9
28
fc
fe
fc
09
0e
fc
f5
0d
fa
29
0e
f9
ee
06
e4
f6
0c
fb
f9
1d
25
fa
f9
fc
14
d2
dd
19
0f
02
f7
0c
f4
ec
f2
07
0c
eb
fe
ea
f8
f0
fa
ed
0e
c0
04
d5
02
fa
1b
0e
d3
d1
b7
30
f1
04
e2
fd
14
ea
d1
cf
c3
0c
2d
fa
ce
d6
0c
0a
06
e9
1d
2b
f2
1b
1d
10
f6
e8
ef
0e
d0
db
07
18
13
cb
e4
e5
f1
f4
1e
0f
0c
e0
fe
15
df
f5
01
0d
db
fb
fe
ec
02
e2
06
0c
0a
d8
13
ef
19
06
c9
10
f6
03
ed
f7
1b
ed
16
f6
00
41
fa
09
16
f4
10
06
f6
f5
f7
09
16
1d
05
0b
e8
e6
05
e6
de
eb
1a
0a
14
06
04
03
f6
f2
f3
0b
f8
12
e7
0b
ea
f3
fc
ec
0f
1f
fe
07
13
ec
d8
c4
f4
fd
05
e3
20
f6
ed
ee
f2
f3
d0
00
cd
1b
0c
01
0e
f5
00
25
0b
f6
0a
0f
f2
0d
f4
eb
1b
0f
d3
1a
0c
05
14
cc
e1
f7
0c
f6
02
e5
05
1a
c5
0c
e2
2d
ed
ec
0e
0d
f5
0e
e6
ee
f9
12
fb
fe
ea
01
fc
0f
00
f7
08
f1
24
1e
01
f2
ef
de
e3
0c
0c
02
f8
e4
17
16
fe
db
1f
fd
0f
28
1d
0d
e8
ec
2a
1c
0c
09
0b
29
28
fc
f3
ff
1e
0a
f1
10
10
22
ee
02
da
f8
f5
0b
16
18
22
01
de
1d
d6
0f
05
07
d7
08
c4
fb
2f
01
ed
0e
16
03
ff
e7
1d
1f
fe
0a
0a
11
f0
f8
18
c7
0a
05
ef
16
10
18
0d
eb
ef
fd
f3
0c
e2
f1
27
f0
f7
e5
0f
cb
1b
fd
f4
04
0d
0c
eb
1b
02
12
04
0c
16
15
00
09
e7
0a
0f
04
15
f7
22
e1
fb
00
c3
d7
07
f5
04
03
10
f3
0e
01
f7
23
1a
0e
00
ff
e6
ce
ff
16
fd
ea
eb
e3
15
26
ed
0e
0f
08
fb
ff
d8
02
d6
fc
10
fd
16
fd
05
1d
fb
01
e5
21
1b
dc
21
e4
06
06
f2
ff
17
0b
17
13
f9
f7
f5
08
ef
0c
f8
12
08
ea
fb
07
0e
f3
13
f5
f3
02
e1
f4
ec
05
00
4c
33
21
0a
d6
47
ea
c6
1d
23
f1
28
14
1d
01
e6
fb
1d
e1
f6
fa
f8
f4
11
ed
f2
0e
0c
0e
12
e3
e1
df
10
1b
ff
f6
0c
0c
12
fd
16
e9
0b
eb
03
11
06
03
06
03
1c
d0
0e
06
ec
03
e2
0c
11
fc
ef
03
05
0e
09
0c
0b
14
db
fd
e5
fe
00
db
f4
01
20
0c
fb
ec
e1
e8
f6
ec
01
04
f4
e4
f1
e0
fe
f5
e8
e3
fa
03
15
0a
04
0f
03
fd
cf
d6
03
dd
ec
e6
f9
0f
eb
f8
0e
f0
ea
e4
eb
fb
0a
0b
e9
04
07
dd
0d
04
01
02
04
ee
e9
ed
02
f5
fa
ea
f4
02
fa
10
ea
fe
f3
f6
fc
d7
11
0a
e3
03
f2
fe
f1
0c
f9
ea
0c
02
ee
16
04
f6
f2
f8
ed
ea
04
04
df
0b
0e
03
ec
00
f0
0a
f6
00
0a
ff
dd
04
13
0c
2b
f4
12
f1
e6
ee
d8
f8
ff
15
f0
1c
1b
dd
f6
27
f3
f7
e8
08
0e
eb
0a
f4
dc
f5
e7
fc
fa
f7
18
ee
05
14
db
c9
05
0a
e4
f6
f3
eb
f7
12
fb
03
04
03
ef
1e
19
00
1b
18
08
37
21
fe
fc
01
fb
fb
02
ee
d8
ff
e5
ea
d5
35
f4
e2
fa
d2
10
26
e6
0b
f3
02
13
df
15
fa
fc
02
fd
f2
06
f0
01
ec
05
14
ef
f9
fa
0c
f4
09
0d
05
fb
f2
0f
1e
0d
00
13
f6
e4
eb
db
0f
2b
1d
10
07
f4
15
e7
ee
10
07
1b
ff
23
0a
d0
04
fc
12
dc
e2
e9
07
d9
f1
e1
17
fa
00
09
fa
06
fd
0f
08
ee
f0
f9
04
f4
fd
fd
eb
02
e2
f3
0d
20
c2
f8
07
ce
eb
0d
16
f8
05
ee
0b
d7
02
03
26
0e
15
0c
f8
e8
ee
e1
f6
12
ee
fc
26
00
f6
dd
03
06
04
0b
20
f8
06
fd
27
f5
02
06
14
0e
1b
22
0a
f6
16
02
dc
f3
f6
f8
02
ea
0e
08
f7
fb
e3
fd
01
1e
1f
27
0f
15
0b
07
0c
17
0e
28
1c
e8
0a
f6
f0
20
0c
fb
f3
fb
ff
df
01
ff
1b
fe
f7
ee
36
0d
e8
13
fe
01
08
18
cd
1c
10
16
1c
08
09
09
ed
32
ea
1e
02
28
fa
13
03
0a
01
f5
dc
10
e5
fc
0a
1a
08
fd
1e
d6
10
02
1b
16
0d
f8
ee
11
1a
0f
0c
ff
05
f6
03
23
fd
e4
da
1f
f2
05
ff
fc
01
fb
05
0e
e9
17
02
ed
ef
01
0f
fa
09
12
0e
f3
16
05
0e
f6
c1
fc
ff
16
0d
02
ef
08
08
11
e6
04
f5
ed
13
22
e0
1e
18
2f
ee
13
da
0e
eb
1d
fc
d4
f5
12
05
06
ff
24
f5
05
1e
09
05
00
f5
16
08
e0
fe
12
f3
00
13
f3
16
0e
fc
ee
fb
23
f7
1d
f8
f5
f4
05
17
fa
08
1e
e1
12
1a
d6
f9
e6
0d
f4
f2
f8
20
14
ea
00
e1
f9
15
01
2f
c9
f4
f7
1c
fb
26
08
e9
ba
19
ef
24
0a
ec
fa
04
f1
07
02
fe
fc
f1
18
02
f2
08
0e
28
08
f8
f0
01
f5
f7
02
ea
e5
f1
02
f5
f6
12
fd
16
14
0e
e9
fa
f7
1d
12
f7
27
1c
27
04
eb
ff
fe
f5
1e
10
0d
fe
0f
ef
06
f8
12
ec
ef
ff
05
e6
1a
e7
0a
04
21
f5
eb
49
f4
fb
e7
05
ff
f4
f6
f9
14
11
21
0e
0a
cd
f9
14
16
16
06
2a
ed
f9
22
f9
2f
fb
f5
1a
d9
e4
13
e7
16
e2
03
01
02
0c
08
12
01
f2
fa
07
f2
11
fb
05
fa
07
06
e7
04
f3
fb
11
20
f3
f4
1d
11
f1
02
0f
eb
df
03
e8
06
14
ee
0c
08
18
22
17
ea
fd
e4
26
e9
f1
0f
08
0d
ff
09
fd
e3
d2
e7
07
bb
d7
02
f4
13
ef
fe
ff
0c
0e
f0
fb
06
0b
00
f2
f5
e8
04
fb
e9
04
f9
03
f7
06
e7
ee
f2
fb
ee
e9
09
05
eb
ef
fb
0a
02
10
04
f9
0c
f2
ee
f1
f7
f9
f9
0c
f4
12
f0
ef
05
ea
01
00
eb
e5
08
10
0b
01
10
00
0c
ed
eb
f6
f8
e7
f8
07
e7
f9
02
f1
f7
ec
03
eb
08
fe
e8
f3
02
08
ef
09
f1
fe
0a
fb
09
03
e2
ec
0a
f9
f6
f6
f7
fe
16
15
fa
ef
fa
0c
ff
ea
eb
01
ee
ea
f1
08
e3
ee
06
e3
f9
12
fc
e8
dd
0c
19
f0
05
fb
f9
fb
1f
f9
0f
0d
1f
ff
09
0b
0a
06
02
1f
1c
ad
ec
f5
2c
17
11
ef
fd
e6
f1
10
ca
0c
e1
10
f8
e9
0a
fa
f4
1d
0d
0a
1e
ea
f5
fd
ef
0f
3f
19
ea
f9
ef
05
f6
e4
0b
21
01
07
e7
15
23
24
14
1d
0f
2a
19
f0
1b
1c
09
02
13
06
04
f7
03
f6
ce
ee
1e
07
f0
05
09
09
0a
0d
e7
ff
fd
01
e5
f8
ee
09
17
16
f2
07
0a
ec
1e
eb
f0
ce
0f
29
12
0a
f0
20
16
