020ff605
04f9fdd5
160df7e8
def9230f
09e6df24
0723220c
ebf50afa
c10a0cc7
cffa20ea
f32a1602
de3724ed
18de0d35
02e312fe
fef3e905
1204eaff
2c0fd5d9
f1edc0f6
eaeb1a18
fe1018f7
f6f51112
f5ef0227
0acad9f1
0cf9e70e
2c2b1cf0
01040be1
f5fef3dc
fef6fcf6
12de03f6
0216cde0
fd0802cf
031507e0
d6f9fc0b
0ff00f13
06bcfb1c
f0d2bef4
f1fcbcd6
f116d0ca
0016e2c6
c7f9fffa
100a182b
22271b1e
fb1f05fc
06d511fb
00f6eae2
0f28fadb
0928e9f3
1826eb1a
280df112
1dfcda0d
f3eb220d
01130e0f
08d4f829
1532cf00
1117fabe
cfe30823
dd0e2e3b
0d20e0cb
dbe52036
14e6d1e7
f906292b
f8e1da00
16f8d0c8
f70cda0f
1f00f4d4
dffffaf1
bbac050d
f2b3d5d8
1317e8c4
e91a17ec
f11aed0c
f9e30bd2
12e7dced
e3deeee4
e8f1fb13
f1edf3f7
1d220515
210ceefd
150cf3dc
fb1d1eea
cebf001b
fdf0fee7
faf404ec
080cf1e6
dcddce1a
102c2402
0c112823
12fef325
0a1aee0d
1703f531
1416fe21
0716dd9b
af3201e3
e30407da
f4f6fafe
def5d3f3
19340900
22f20104
f7d41719
04f217dd
0d1f09fb
ee1d1d07
1ce61e24
de16d400
14b7eadf
ea0bb7cc
1af123f9
d4f90afe
e4e31f04
e41edf2e
ff0206d8
05f5befe
f8fef1e4
ffc708e2
edf0c80f
08ea19ea
f4f2f01e
e6fafaf7
1301d604
eafbf2f7
10d9fdee
0008f2f0
e310fbe2
f4160ced
def7110b
ec0702fa
0bdae5ef
030ae7ea
262617cc
f926211b
f0161d1e
fb060f13
2efa0efb
fbd60211
0f0ff4f9
ff2de505
fa112fd9
0f0b1fff
d2181915
25070e0e
f8fef000
e901f6f6
02eaf6f4
f002e9fd
050c0913
072205fa
1ff905dd
130ce9f4
ff05fee4
eff0e2f1
ff15f5f0
d5cf0c14
f9e8d001
16f7dbbd
eefd04f0
d8d5f1f0
eae7e4f8
07f00021
3c24b8df
14130fcc
d4e5edec
05efefe6
f20a211a
08ebe213
21080e0e
1c002815
0918f50a
0df701f7
dcdef808
06e4d7f7
cc131eee
0de92a08
e00ae92b
ffe9ee0e
1afae825
11180a00
f80007fd
fefaeb00
f7e30601
f5e3ef06
0101d9d2
08000ad4
84e3f401
f7f0e806
fbfbfee9
fbeeebfe
e4daf3fa
ffeaeced
f6ecf7fc
f917cce0
e8f91197
dc1006ed
14fc0f03
f9172822
d307f527
04131408
f2e10bff
08e2c7e4
02f5ee02
0b22da16
150eeacb
f804fd15
0b0ef1e9
f5e709ec
001f0513
1cef0010
f3f5ede8
f5e2161b
e2f00202
d9f014d7
e8150c04
082d21eb
f5f8f3d0
ee050c07
0a1602ec
1413fe06
1c1c03e5
fc0ed8d3
e1dbd408
f9faf207
0c09080d
09022023
18f2f8db
f0deffe3
cfcde5fc
faec03eb
250501e8
060b03ce
ee0e0e08
f500ff07
f1fdfbf7
f50a1010
f6e50706
17060512
110deb1e
05e9e5f3
0bdd00ef
f9d6f410
140bdbd4
cdbfb6f9
f7f0f70e
000a0d09
1a000cf4
f6fbfb0f
0712ffdd
f71403e1
101b0ad7
dc01d4d5
ff08dff0
03f3f80e
fb0d1012
fd1a2005
f00dfc0c
1717f50a
ee08fbf2
22ebb2c3
c5d704ed
08dec7dd
030c1a0e
debddb26
1c1a00e2
03061010
0715fa14
101f1e11
e6d616f4
0b13c704
020410fc
fafbfc18
0bf2050c
101c180e
f0dbf9f6
02f1d6e8
ff1109dd
0116fd08
f7060cdf
070b09fe
f50e02fb
0f0af8fd
1512dc0c
03ffe5e4
f605160a
e0f3ff0e
00eb0f27
221dc5c5
ecf70405
fbffe0d8
091414ff
01060601
f909df06
f3f91512
1c100621
fbee0307
f9d2eef5
eea107e6
e9ede1fb
dedceed7
08fef112
1c0b1103
fb02c2d0
f0d8e3e3
04f10903
e9fff8da
00f3100e
ecfffd04
fbdfd416
dd0816e0
fd1d1b23
f5df0ce2
eb03f7f9
d008f8e6
f6100bf8
dbf5fded
16080e0a
09f3ffff
ff10d001
041adee4
1004d603
f201ebeb
f50ffcff
eef906eb
0eeafef0
10f3e0c6
e5140a08
25240107
0902fcec
e0eaf4ea
fef4e5f4
0bf1f5fa
082ad5df
f31c17e5
e7fe1d0b
f4040f1b
0de80cfd
ede5fe15
05fcdb03
ff07f800
18f51be5
eb1d0517
04cd12d7
dc0301f8
ece7eff9
e3fdd3f9
fc17ffff
192cf8fc
100d1701
13320df2
f20ef3ea
f7f8dd00
0afb01f6
0bfa0aff
fe0c0905
0ff9eb11
fa14f116
150c13c4
e9ede0fc
dfd10e0a
061f1603
05efe2d6
0a03c6c7
db1113e7
eec3f60f
26280cea
e40cfc0b
0610ffe2
04f8070d
efe2e21e
f007effc
f7f207f1
e1effffc
02150a02
f3fcfbf1
0bfb101d
e70fe20f
1bfaf4cd
f61d1713
1dff11f8
13020ee7
e6f30805
f0021e21
01e3fbfb
ffffe2dd
f2012806
e30ceff8
f3e9091f
0f011df7
fa171614
dbfbf2f0
e5eee8ee
f412fdf9
f707f4f3
cded02b5
e41221e4
15251d1b
f5ff0600
f3c2df07
d711fc07
f4d501fd
21f3dcef
f0f90c30
16fd1ad1
fcf1f5e8
f4e4dfd3
0802e3e5
ec0d1df9
1b1fc104
15f9160e
d21803fd
fee9eedd
f8fcf4f2
eb0df1e3
fefcf3eb
f906f8fa
070c0727
162219f7
0b0910f6
f6fce6f8
f7e7f114
10f9ec29
2c070b23
0602fcf4
dcd8e9fb
07061319
0eff241b
0817010d
070fe6e5
e9ebd8ce
e713250c
fde90f13
f9040504
e0fbfe03
effadff9
e8f1080e
120f19f3
d200f8fe
fff60cfc
e3e7f6fb
eafefdfe
f8091203
0b093e31
00f50315
fbcfed0e
ddced9f7
d7f918fa
fe01f9f5
10fb03f0
fbede2e6
dbe9ee1b
1cfff814
2c030e18
f5ea0000
0101d5e0
03f6ef0b
eff6d20a
070222ec
faf8f71c
250b03fb
001e1104
e3ee0710
0afbe9c2
fc11051b
2de7cdd0
12281f0d
f60f06fe
05120ed6
c4020e15
f2c9f60c
030606fb
aff91123
05e80cff
f8101b10
0403f6e1
0eebeb1f
060419ec
1a1bfb14
fc02070c
01c7e5e8
fdebf6bb
f103e7e1
d700061a
00f6f4f4
0a2a10ff
e8d61d21
eb161bfc
da07f607
202424e6
f7eef712
f6f1dfea
f1f410fa
061705d9
d7fad5fb
eccecbeb
0b1413f8
111503ef
040ccae9
f604e8e1
d5fe11e7
e5d40101
f11b2df2
e901f522
241b1aca
d3e1fd0d
0dfe13f8
e91ae70c
18eaf80d
eb0c0cf1
f8e1ea0d
fd060601
10121906
08090d0b
1e020a04
3113d9ee
ff16edf6
13f20305
00ef01e8
e2050ee1
e4ff1919
d6f01412
f6d90234
21f5f215
f9fcf40f
f7140814
dce00804
03e702ed
1726040a
00eff00d
faf0d6d8
090b01de
e11f0efc
c9db060a
f4bb0412
0004d520
1205ebed
11edebdb
def8e1d2
eafd0cd3
eb0010ff
d0150a22
fcf71905
29162c08
f2f31406
faf1f404
dbfff6fd
e6f3eb03
0aedf201
1de7fbfa
edf8fa14
f8dcde10
11e30b15
0cfe0712
e4d3deef
e2e002f3
060400f3
00fc020b
ee040b0e
0002fce7
04fa180b
faf511fb
d9f80de8
fc0c0212
e8d8fdf4
f8f5d7cd
05031909
faf3fa13
1f1819ff
edf1ee06
1d01f2f3
f3131b13
e8e70e18
f704e305
130cfaed
e5f9f711
0500e8f4
f9002df9
e017171d
e6e30f02
1cf2ed0b
0514f70a
01ff03f5
20dff402
0f190fe2
cff70b0c
bde4f5f0
1105f4ef
e805f0dc
f1f60ed6
d1c7ecf5
eae1e8d4
05dbf1f6
eb15190c
ef0c0f13
f3d40e08
e5dbf0fc
f605ebe5
02f4f7fe
0d0df1fe
0c0518f2
222ff625
00e8eee6
05f202e7
0bfcf70a
f6fff5f0
