0dd8fe0f
101ed3f5
02decc11
fa09170f
cc0fcfd6
0be3c813
d6e4bfe4
1e1a2604
1cf4c8d6
150711f5
dbf00f05
19b72422
07f6271e
09ea03ee
fee8f81e
f8b6122b
ddc418de
0e1d350e
ea1cbd0b
dfc209f9
d9dafd1d
e4d603cb
f5d31ce8
0b04150b
e701d21b
1fd5ea12
c905092a
fced1ee1
07f72316
f005e0db
1ee0e3d5
d3ef2124
18f700e6
c028e9ce
26cc25dc
f618e5d8
f40efef1
f815e9c0
02053d12
dcf8e12b
2f1e0d13
0bf7f1e7
fde10ec0
d92913ef
00c002d0
f726110a
0ad6de13
0d1f07dc
ea0b2409
e521d111
150de211
071c0fff
04e8f828
d7c4c411
0102ea1c
f005151e
db22ea1f
06e7efde
08fd17fc
2ef0d6be
33fce620
dcf4d404
bc131326
1916df16
c712f2e1
20e815c8
efbb1501
05cc0ee7
25f9caf7
06d72efa
03e1ec12
0afe0512
c815e216
13f7cdeb
bdffd2c8
d223051d
23e4f7bf
1df618f4
13f912b2
da17f807
dff8dac0
c821d2e2
09e41210
13e60126
e7c317fd
23f8f317
e317e900
fe30c7c0
1324f006
f701f125
d706fc1a
08d10ff6
fb0724e6
10f2faee
27f2bc0f
e4eadfd8
2af8e7d5
ccf12407
f10cc816
0edb11e3
2b09d4fd
d11fc320
3f1e0acd
fe00f0cf
07261703
141d1b13
f9d8c80a
0008ef19
da0d1107
16fff70f
23d2f929
fe1ad2e1
111bf210
13e9f7ec
dee81dec
c80ad913
2518c9e9
fdcbf0f4
2a09f528
12aff2b2
16fedd09
2020de01
cee9f7d0
0144ed01
072016fd
0ed1fc1c
ea0afa1a
1d2beb29
efe0ddf4
f5211022
d413e42c
07cf04ea
f9042417
26ea1e21
cbd8f50c
fa06e40a
d1fcee06
1e04e608
dd03d5f5
f0e4f123
00f1fcce
08eedd1f
ecd723f5
eb1dd30d
02ff0711
f7faefb6
df000ed1
19d728b9
0fd21e0c
f5e60bf1
f6d9cbcc
0b0cced7
0302a801
fbdc061c
baeb32e4
e31bd5f5
1fe926db
e0effdd8
13181cf2
0520f3e3
dcf608d4
f8191c0f
a4ed2833
1413ff0d
0fc2c7fe
fbe70a0f
09d82e05
d90113d9
f5190a0d
1dfbfbbf
f126273e
01d9f8f5
0aeee805
fcf6cad4
2318cafc
1bee1316
f7db1329
cb101406
1608ef06
21fcfc03
26f4ea01
0f0fe4f8
d1f40b1d
e01608bf
c1031d08
e61df4eb
f214cacd
050fda1b
24e2f9f5
0b09fe0f
f3dd171f
fc04f9e9
020124d5
f2ddfc1a
e7234210
24fcb71c
d904c1c8
0ed00ffe
32fffdf2
f4f8e80c
08efdde0
18f0180d
0dd5ceff
17081a19
e9f722f8
1213e020
ea041316
e4f22fcb
07b9e916
0a16f4d4
