100112ef
f502f105
1316f6d5
0df1f0ea
dbf414db
1aed1d10
19f81216
fd0812e7
09010507
ebf904f0
defc0a03
00f2f0df
07f9f2ef
f8fee9f4
ec15fcc2
fc111713
15061119
eafb0d02
cd0b0919
0804eb03
eb0643f2
070b1409
0cf9eef3
0ef115ee
1502c1e6
1cfcfdef
e20a0c07
00201e04
e813ef18
03191cf4
fe0fc115
05e20f18
05ececff
03121311
00fdf512
f3da2d0a
d205f919
02fcf9f3
17110fe8
edf7e910
06eb060c
f60becf4
08042404
120b23f8
02f6d9ec
241418c1
0d0e16f8
05ee05d0
01ee0d05
f3eb08d8
0ed30008
e2e01603
dde90e13
f2fffe15
12f9ea06
0af60a03
0def0d0b
f7e0f011
1ef72a07
1010ef13
fd111ce8
f909eaff
16e4edf1
090bf5d5
d6071acc
0fcafafd
fd151016
f900eae8
16e408f6
ebf40202
1403f8f8
eafdeddf
09180f0b
f70302de
18f1ed11
141a0717
12ddf3ef
17f1021b
0405080f
11ed220d
09fe1815
2118f912
0fefe7f9
f90e02f3
edf31bf3
fc0afbe6
f6f60f06
170c11e7
0afc0c0a
db0703ee
ef0fd109
0ae30313
0320ec1a
200b270e
ff22f1cf
0204eef4
05e317d5
041214fa
25ea08fe
fcf6f2f1
0414ffdf
26eff30e
03f410fc
ff16eef4
1215e504
1bff08f7
0d3e0217
f1fc00e7
f5140107
1111082c
fde22027
d9de07f3
fc0d17fe
041810ff
f600e30a
f3020808
0a15edd9
f3f90ef1
1ef8fefc
ff320018
ebf5fbeb
0b0707f0
0d1f0312
ed0911ea
ec0515e7
f4f1dafa
281c0af2
0a0215f5
27e5fe1a
0a1603fa
200c0017
fb0e1622
10150506
07e0eff9
01f4dade
f6f4f5f9
111aece7
22e318f6
05060108
f60317f8
01fc0f1d
ee20ef1a
ef030a07
0c0c0910
0a112ee8
11f81506
effcf20d
09001c04
2a062d0d
fcf80c17
dcf8eb04
eff1ede7
fb1503fb
19030ff7
2210f50b
01260012
e22114d6
130b0e0e
0cfff4d1
f7fc200f
ffefe7f2
2307e826
ec05180e
fd15cf23
00eee3fd
ee17d83e
050a0bf9
0ff20419
f8f32406
12ec18fa
0cde1407
e5caeffb
eaf0f305
f31a25ee
f3140a08
1608f7f7
1beff80a
f1ffec04
ebd0ece9
1fd0e9fa
17fb1611
08f3020d
fdd9f2e6
ed0ce5f2
10fdfc1f
0df80a1f
1e2b0bf6
10deed12
022df119
0230f1fa
f10cee14
f207f9ee
170ae8f3
09d4ef04
19091904
1909f328
14030702
e21e0e03
fd00042e
fcfefc0e
eb01130f
1d0d09ee
1de808ee
08120714
f2e3e00d
0100f1fc
fc05f70c
0d1003ee
05f8d1da
17f400f7
00faf6f9
f1f3fa09
ffe01cf2
16eefe02
f50efe1f
030e0dec
45e21e0f
16d8efc1
1321f309
00efd4f5
fa1d2cf3
04f20a04
0d1df0ff
04fcfb04
19efe4f1
07f804d8
031fee0d
e2f0e60a
eb0bf6ea
0c111c00
01faf700
2f03f5e1
fa101dff
0ff70f11
01f820f4
f90719f6
ed06fbfd
260220ff
dde6dadc
fff9f2f6
f607ec10
f205eff4
f40c00ec
ebf0e1ee
f2f504eb
f1030f02
fbf7e4e1
fa0dece7
0104f004
fb0cfd0f
fcecec0b
ea0bed06
10fbef11
efeeebe4
fcfffef7
fbf103f5
06fafcf2
0aec03ec
faf3f1fc
edece6df
f908040b
06ef10f4
eff90bee
08010cfb
f701eb05
f2f408fd
ef13fef5
0bf1e012
edf3e9f2
feedecf5
0cf900e9
ee000bee
f9ec09eb
1a0ce2ed
0721e8ed
e7eafce8
170de411
f0f7f60e
f9eb1225
10e11bf0
0705f910
eef6ef12
04fef7f4
01ebf213
e9faf6e5
050dd918
0f1deaea
15f3f8f2
f001e600
000211f2
03f30a08
fdf3f5e7
e0f20009
0afee802
f81af605
f51007f0
f511eee5
e901faee
d9e40216
e7fdf8f4
03eee908
fc04030c
070aed13
e307f70a
27140cf7
ebd80b19
ca170ff3
1e200ffe
0626062a
0d171ef3
1603e103
c0f002fe
f1f91b07
f2bd201b
0d15f6e2
1bf10c16
0f0ce30f
041af5db
10f81202
0b10e906
fe1201ee
de0204f8
fdf90f13
0104fe03
fe1dea0a
f6f20d0b
1712f617
1902eef1
241c1020
2d10120d
02061426
eb1d11ed
fdf4f51e
03f105fc
f6f4fbdc
ecc605f6
e3111914
e6ea1507
050d0e07
ef041ff5
16020b11
cffbf118
011b09fd
f2ee2526
16e50cd0
170502e3
0914f2e1
0cded6eb
1a05fcfb
f3fc05e6
f7ede50e
edea00e4
230aec03
1be1d3f7
f7e00d06
12fcf40e
2705edde
12d0f509
dcf41118
082f030c
07ebf408
16dbece4
fdf91502
ea08f2e6
ecf40705
080f02ea
f5f701f9
0818f714
e9f71307
0de7ef15
ed0807f5
eff60e16
f1ebf20d
fbf200f2
f4f8eafc
06ed02f4
0f0e1002
fe05f101
0404fa0f
f90fe9ee
fde00bfc
eaf0f2f8
f4f814f8
16070914
03fc0d0f
15fc020e
f50a0203
efed0d14
e1ecdaf8
0bf3fcf9
1408f71a
0609e910
fdfe0bf7
05ffdd22
ed050115
e323ed01
f70507ea
fd1f0c0e
0edff2fe
f4e3d602
11e8f0de
3f040923
f5f9eff4
0be0dd19
03fa0513
e50ad6ff
02fdd2f1
09e50824
13ebeb1a
10eded0e
0601f5fd
1501ee02
1ef900f7
0ae1fd0c
030b4510
0ff904fd
32f900ff
1705e00a
06c20adc
f9dd1418
0008d8e2
ecd1f1fb
0efa0df4
23090f23
24f4db0a
040416eb
16e21906
08e30df8
19150903
0bf1f204
e30820ec
27ef12f7
0eef0c09
0f29f3fb
0f0f0b00
0f09fb2f
09173bfe
05f6f8ee
e4211416
e8fa0e06
f5e4ec1a
f1c5f200
f0fc10ec
f50a0bef
11fde3ed
050a09fa
030aeafc
05ec1a02
eff4e113
1214f011
e3f10104
10eaf9ea
06f3f9ff
fced0121
1504feff
ed17f900
c60513d4
1efb0f21
2612f0e8
12dcff16
000624fe
0100050e
16d620f7
1b171d08
1b112b25
ecf0cb3e
fc041b06
fc1cf812
fafb0302
01130efc
ededf3fc
e1080526
c5f9e9f7
fdf41010
fd1224fe
f81303ec
ff05f109
f8130afd
f1230ed8
fb19f622
07070a19
10250e03
fbf5f5ed
f0fef9f4
f4fe200f
f0d1f310
e113f6fe
e5040016
f20dfcee
ffdd100b
1a0cfb1b
08f51fe1
12ec07f4
021228fe
14f71c11
00ecfe04
03e90be8
09d7ffe5
42f30b0d
0f0b13eb
f8ea0421
19231312
17ebfff1
f50a1216
0a0a0103
01f8ebea
fc02ee12
0e0506f6
0d0c0203
f21b0b0f
ebf813f6
f4f80cf2
0f0b09fe
f7111d16
c1e216ee
1604dbce
f30306fc
f30c02fe
1be7ece2
fa03e2f1
01f820fc
2515f11c
07ebf9fa
0f0dd8f9
0e07f1fc
030cf4e2
04f8e809
01b9f713
110af902
ed0e08f0
f7ef0b0b
0b0d11f0
1c0e09f0
fafe160c
14ee4907
081204f2
0ef304fe
16141a07
08fcfaea
ecd825f1
1ffaed03
09e5f909
f4f506fb
1003efdc
03fecdd0
060719f8
efe5ea12
ecfc01fc
d60a1101
fef0e109
f4fdf6df
0bf1ed0d
0dedffff
dde9ea0d
e5fe0bee
0ff4011c
ff0dcd21
fef9d9f1
03fcdaf4
13ff010d
02eeff11
12cff90c
e2041312
00fbfaf5
eb1505fb
0708f2fb
feef02e1
fffd200e
cc06f200
03bbe4e9
f614f5e4
ec0e12e9
f0faf4f2
0cf0021e
f6f4e0e4
02200c00
f71204df
f614fbf5
270d14f8
f1e5effc
26ea06f9
f1fcf4f7
0d080015
0ddcfa02
eaff0604
1e0cd61f
fa09fde2
fdd8f60c
eb180806
17101304
09d2fafd
1cf8141b
cdf6da0d
eb050013
fd221408
f40ffdee
0b0e11eb
1e01ef0c
ffc202f7
05fdefff
18fc0105
110912fd
152a1b08
1aecf521
19062e07
05df1a09
fbdf0109
ef0d03ed
0aeefedb
12d40c04
f1fa0104
0afb03ea
f8070813
0c4c0cfb
fc09f7e9
f00ffa0a
f5defc08
13ed2bed
17f91c0b
140be1f3
17de33fa
ecef0f08
e1140bf7
efff0712
ed1d0903
f60becff
f2f6f3ef
00200613
e402110e
fc1503ef
f8ee0417
08fcef07
09d7fe0e
ee13e3fa
2a16dc1f
120efeeb
0e11070c
19f8fff8
f12b0f0f
1318f401
f30ef0eb
03ee0dfd
0016e6ec
14e8f920
1e0507dc
f1f70612
f612040b
e61c0a03
05f0f00d
1608fbec
0f20ea0c
1ef1ebfd
e0e6f00f
edff13f6
02f8dd2b
0e0a1aef
13fbec0e
fae90207
f0d2dedd
1ee3f508
ea03e52a
10ec1506
f0f9ffea
1209ee0d
f0f3ecf3
1ee9110e
1ffff305
f7e311e0
0324ef22
f627dcf4
eafb1f10
0809f4fb
120ebbf1
f9f9e5f6
ff0a0cf1
040820ff
0b001bfb
fc18ebc0
dbffe4fa
c6f9e6ea
f5fbc103
141ef4b8
08fae400
05f42c06
fafedd01
f4f9f813
14faef12
d7e7f6fa
06fdb6fc
0d20c1f4
09f7220d
041ced1f
0efffffb
06f8f60a
f21e2018
f2fef3ef
43faf5f2
060cece0
dcfc11f9
0be3e3f1
11f411fd
12f32504
0416d615
ebf51bf8
15f84a34
eaf10ed2
fe0719f1
07081019
f513f318
f4f720ed
fc19c2ea
f10e09e9
3503fafd
f90ee5fc
02de1b04
04020cf5
f107f9fb
012306fa
f2141304
f118f50c
eafff813
12fb1206
130ff5eb
10fdfbef
0be7f4e9
f7e7ecde
e5ffe0dd
eff008f2
f1fbff0d
0be20810
e60802f1
e902e8ee
1004fdec
181410f8
f40df2e2
ef10e803
13dfff02
0de6fedf
0614f706
0a0607f7
0ee3eaf4
eff90ad9
e6f1110c
0ae00ceb
0bf0f20a
0a05f2ec
f90febfa
fdf8fd07
ea0bdf03
dffde612
1ef9d10b
0bf9ecfc
ee0206fc
140a1300
fcf2dd1e
07e6f501
ec2307f8
ff17fee9
10e61502
edfe1918
2f17181a
fdf401e1
0cea1713
1305fffb
0dfee5ed
e7fb09db
f2f3e9d5
f8ce0517
1915ecf1
02f014dc
12fddffd
1af113fd
e206050f
17fd18ed
ed0deee8
09f10009
d3ee090a
0d00180e
37f4fe03
cdeee704
0c030710
01f90412
f607f9e9
f613090b
31fb240e
faf72738
fd0012e9
0f1bf926
f5fcecd5
f6e3ea0b
f0ffdce8
040c2312
eb0d20f6
230dfbf8
f00707fd
04f70b3d
f2e6e51a
0e052d00
04e62114
e80ec109
e9f819dd
f7f9fc21
c5cf020d
fff109f6
070f170b
09f00204
0d06f319
2afdca16
d3ebccf7
1cd101fc
f406f8f0
0ef103fb
ea02fd09
0d1003ec
fc03eff3
f50505f9
06f2eced
e302ef06
ebf20dee
0408f7f0
efe7e9ec
e9ed0508
14f7ff00
0705f701
f2fdf9f6
100a0bf6
0af10305
ececfa00
e6ebe6f6
f604f409
08eff2ea
fbfff6e3
0eec00f0
f2faf003
0d0410ec
130b1304
eaf3f105
040ce3f4
f8f0f8e5
fbf1070e
f700f80f
faf10eec
f11ef92c
010d1520
e3e9ecd5
f519def6
cff7f7eb
0010ec22
1ecc0511
03ecffea
1bf9fd03
19fefd1e
14fbfb0c
1b05fe07
05fb0f1c
f8edfff2
ea1606e7
f701fee3
fd06f5f6
0dee151c
03fa12ff
dc05110b
f906ecfb
fa18190d
f80c27fd
080b03fe
11f315fa
1a0b26f0
ff0a11f4
f91e1ee4
dbfb2402
051bffdc
15e2140e
14ecf010
e916fe17
f314f204
dd15d80a
02050a16
e40cedf6
eafd0bf4
e60715ed
07efe215
f6e7e2f3
fc0907ff
ff080cf2
eaeddc2d
09e81a15
021a0101
270919df
fcede315
ef03f5ec
f9d6ed02
0ddbe604
0b132106
07f702ec
15020306
f60a08e9
d309e30c
dcecedfb
e30504fe
db0adfff
0b06f701
131f121b
0e1519e3
f20001eb
fbeefbeb
f0d6e8f0
0812fb16
03ed071f
fd001f06
20ed01f9
d90df715
0df70510
edf0f51b
dc1a2ced
01faf3ea
f7151be7
15de050c
d10ff818
0f15220d
0709fff7
f931fef8
121be3fc
181df0fb
f61f44fe
fcfa1001
09f3f0ee
0c1214f2
fbe32d14
f82dfded
0e17ed25
0b0c09f4
fd01ff25
02f5fc2f
f7ed0adf
f30e10f1
c1ebf10f
e716f910
1ee6050b
12dff30d
14f01c0c
eefb0d02
171711f9
08eb2201
1b0130e7
12e4ed21
0101fff2
fbfeece2
db160900
05ec10ee
00ec111c
e30f0008
d8ff0bff
1011f7f0
0f1313e5
0c091000
1ff803f9
1feff5f1
d8f212f2
011bf318
0203f9ed
0822f40e
f212faf8
09eee416
031ef804
08150107
eae00122
faf9f210
e8f7f8dc
f4fa1b09
ee0f0bec
2a12fc01
fce5e805
073223fb
05f1061c
f4fe2222
f209151a
f1100908
1202f400
f8ec0302
f704f3fc
07d215f2
1409faeb
100607f8
e9e9f2ef
f6fbf309
0af0f314
d1eef311
e3fcec10
03090dfb
fd1630e6
1210ee12
07f5f4df
f3ffe2d7
ef17250c
09c9222b
08170c06
19f2f01a
b305eeed
0b08eeef
e0fbf3ed
09f2ff05
0c0a110e
ebe0fdf1
00070dfa
0210f125
ecc7f51b
1b06112c
0ff51713
110a0508
0e0026ec
130a0417
1809f701
160bef04
1108290f
ef0aebfe
f904fc0e
1d0dea05
f610231c
f6de0ff2
17fadb1a
eacff71f
f114f421
fffff8fa
e81bd912
191708ec
06fa13f3
0a0b14df
fdfcf913
ecf5defc
0f1b0012
22f904fc
f018dc02
f3e3dc04
e405a406
101618cc
06fff709
01f2efee
f402ecd3
0707dc0d
fe13e10e
070004f5
ef1c12fb
091d16f0
09021e28
11000cf9
02050601
29f30dfa
2bf4d3e6
04ffedf6
ea17d501
f0dfebe6
fa070d0d
0def070f
1506d404
f302fef8
b515f9d8
0f1f0dff
12f40a14
151926f1
1d04de05
dbf10ef5
f0181cf8
fae4ed1d
f3f5bcd8
eef0fa12
09fef3ee
fe000de0
0a15330f
2615e620
f20afbec
e5d4140b
bdf10dee
03051614
0622f124
15150afa
1ce8f90a
0fdb00f3
1eec0729
11e9e20a
dd0b2822
ea09f6d9
0be7f9f8
db00d10b
f4061ff2
04f70209
351b0cf4
061603f8
df240c0b
0103eff2
1bf0d31c
04f912e8
0c12f4ff
e6e4dd11
e6171c22
dcf5e31b
f00a07e9
e7110d2c
d6fbea1c
08f3ecee
131ddaea
d5ec0cfa
050cd503
08f11507
02f80121
050df0f8
1e0e0b20
2df5d715
0209e6fd
e815d0f8
e802e9f9
0df10a02
fefbf40d
f9fcf217
26080107
0c050304
d400e706
f817f2f8
f8fb07e6
fdfb19f6
d6ebfddc
1a0c070e
eeed0005
0203fc19
0e1de7bc
0bec1723
fcf9182a
f71518ea
07162527
fffafa23
00f81202
fbdc16f8
dae512ff
eede1c10
ef0d09fb
1105fbfb
1ce91010
ece8d612
f3f0f50f
20f00206
09f31c01
03070902
05dbeddf
fcfcd5dc
e7fc0ece
2601110c
f714f807
20e9f30c
ebedf8f8
061911ed
07fef0fc
e9fbd901
f2f1f313
050000ef
01f6fa06
070afe43
02e1f1e7
e4f20622
060a2810
1a0819e9
f8fb0b17
0ffefef6
020ee9f5
010507f8
060ce409
ee0e0c02
dffc11f8
ff0df00e
0817181a
dc1402e4
f70d070c
04e507d6
f6f7fe06
f7fa04fa
0612e8f8
ce1503e1
deffd9de
f3021101
16e7f9f1
12010103
0d0d1305
e9f7fe14
06fc01f6
eecb0704
e10c101e
f8edea30
fcf8e721
00ca02f3
d810e5f6
f013faf5
f80011ee
11df1002
c310f7ed
f2eef4f9
f00d2111
05fd0414
2bebf600
f505f50e
d613e910
06e80cec
16f5e00e
07f91203
fe200026
14fdf2eb
1d1312fb
0403ea00
f51e0d04
07f9ec10
c6ef0219
08e22400
fdf2cd12
1ef80616
f004ffef
0619f0f8
2215c8d2
fe1b1ed8
f219f51c
08e712e5
1008f6f4
08f5d6e8
1300ea10
0c020a0d
02ff03f3
fb0efb11
081b140e
080908ef
f7f3121b
100e1411
1ed0fde0
16d2e61b
f306eae8
0df1efec
001feffa
ecf9ecec
0f0af60d
dfd5edeb
051000ed
f30707f1
fde5ec14
0df90d16
00f6f009
f5fe0511
0609fd11
f4ebe3f9
f7fde702
f3fdf001
100c02ee
f6ec0307
09e40908
f2ec0cf5
edf0fe08
f5e9eee9
fa08fdec
00000411
ff19f103
12faf108
fd060e03
f3e613f4
06eb09e6
f7df0c0c
faee1411
eff9f2e1
f8f9120c
bdf2e816
f8080b01
f7020df4
ff15b307
09f90522
ea05fde6
fe040215
08ebd700
03f712f1
f4dce709
edfcc410
dd0ae9c2
e81ad6d7
f7fe0cf3
05ee160c
f2f9f4f1
fd13cbee
0cdde0f7
c40c01f0
13f2e3fd
000905fa
f7f90708
14fef9f0
18f002eb
f4f91312
1cfdd7f5
f32cfffd
e212fb06
11070ee3
03e9fe11
ebedee25
080df72e
130d06ff
ebfde9eb
150a0203
fdfa0af2
ff0d0f10
16ed0d13
270a1a0a
08ebf90e
ff04101a
2cfc1b15
fb051411
fce11cfe
f712f809
4105d3f9
f9f401df
041ab7e7
0a1efbf8
f9d8f905
1020f611
e9fb000e
ee06f6fe
1d04fe12
edf6faef
effcf0cf
f0e3ebff
e1fd13f9
f811fe0d
15eff80f
140e17ec
eb16fdeb
e3fbedfd
d91a0608
ecf207fa
401c0818
ee0b0ef6
0502010c
d304dd02
080afbfe
01ebf62a
10f02fec
16ef0301
082716b6
08d9fad7
fe100cfa
e81135fa
ed0c1112
01000c12
20080ceb
ec11e0f6
1004eee4
00f013f6
2411f605
d3db05fc
260337e7
df27140c
15042000
0e0511f7
ee04fdf3
f20a110e
e1db1ad7
eee809fb
19fb0327
f7f90710
240215eb
eb00f405
2d131421
c806f3d0
01ff220a
eff70f04
1b00f114
1cf712ff
0bedf7d6
05ee0df3
ea0b2206
f20fee15
fede1616
161f0b0b
f4121112
f115ef14
0b21f506
ff03f200
f2f0f30b
22170a04
2613f609
f630fd12
d60cf712
f91efbdf
02f31318
12fceee5
e8faf601
dee304f7
e913de14
f5030320
f3f803bc
14ff1111
09dee8e9
14fa0416
edc6eeef
0f11221c
07e8bbca
e70ef1f5
13030f0c
22e6eb2e
ffebe006
f510e6df
0cdef301
cfdf11fb
19e8d904
f0df040b
fef41af2
12eb04f6
1f0110f7
12fbfdf9
e502fe03
e226f6ed
eefcee1e
f9f1f2fe
00ed0df0
19ffe616
08e9040e
f9f51806
28f41403
e2ebff16
f2f1ecfb
1100030f
e4f805ff
1ffa0402
0bfc0d07
eefdf903
0e1b0515
ecf7f554
fcf5f6dc
1afcf3e0
e8fa21f2
e1fd03e2
f6d916ee
def304f2
e803e6ed
fe101df0
0d00fedd
f1f8f10f
f206ea0a
1406fc09
06fbd201
01cdf5eb
1304f9f9
070cfa00
001e101a
e6f9f6ec
edde07fa
290b0606
2e1b13f4
1a00f6f6
e50f1018
f8111e0f
1f0ff606
25f715f5
f709e20a
f715e2e0
1ef3d5ea
06e9f0c0
fc21f3f2
0304f11f
2715f1ed
13f9f3ef
fb20daee
2a09f2eb
07170504
1d241200
09fbf901
0ff904ed
c303ec00
05f8110c
3703dfee
f4c80bfe
fdfb18ed
07000cfd
060806f2
d5fbf716
110229f6
e2cf1e2b
0eeaf508
1803ef16
d42401fa
0af4f3f7
fb0be0f7
c6ff1bd4
070df912
f9fa0f04
081f311c
21f3151c
f7f7fb2a
e8280deb
dce821f1
fbeef728
100903e7
01211320
fcfe01ed
f1d4f2f4
f32210ec
f40eea15
17040010
0f1fe70f
fafbe9e8
2d15f2e6
f01006f6
f1ee020b
f01efc0c
20fb08e1
151806ee
0b1d00fc
12ce05eb
08f511ed
ca09f11a
fe25060b
d50c09e3
17f8db02
0902e706
d11c09f0
060029de
e700f1f4
14191a2b
ebfdee19
da05e905
fafd0d1c
031af811
f402f4f1
07f21313
f00a0b01
09ecbcde
0206f8f4
01f8eede
fafb1a15
f01fd614
fe070cf2
f5f2d3ef
18f00215
15060800
11110116
111df310
01110809
ea0214fa
eff8fe07
e00b030a
04dd0cf6
cb10fcd7
20111f0b
04e20513
f7260510
0af404c8
0d04f615
ef05311b
05210e14
041e1816
2216e204
f0091b0c
ddcbfef0
ec04faf9
06e218fe
070fe4f7
f1ebef19
fdf2fef5
eff4030a
e507ed06
ffec1b16
fdf1deff
edf91012
ef0f1212
2f0bfb0a
0609e906
070e0821
cfd5fd1f
1122f3ed
111a0f19
13f6f004
001425e8
180d1de2
07f32f04
12232909
efeb282b
190435fa
ec00ff00
fd0e0fbe
1b05e7f0
e3ecffe7
0d08f803
fedaf50d
dffb0312
15f5fcfd
0dfae0dd
0bf20c14
e6faf904
01d2fef4
06140511
1d040df8
f900fc04
10110712
eed500fb
1dfafdf2
fd0cfbf8
21dbf3eb
ac2415e7
1d14000c
fdd9fbfb
10ec3805
13130a03
ee09e10d
160c180a
f2fb0215
00efd204
fe1bff0b
fdfffecd
0ce106ff
2e17f0f0
22f3f103
03010b1e
00f3f902
e3f7f010
fd181514
0b1ae2fc
0009f30d
08fbebfd
dc19f8f8
1dfb210f
04e108ff
10f20814
f2080403
fcef0b0a
d5f0c60c
f1f3210f
f0eefc01
1c0aede6
0b00fc24
d0f40cf3
04e1f205
ecfdeeee
1eef1e04
ffebf8f2
fc13f1f3
0c0d221b
f204e918
03d7d505
1d050c2b
31ea0ef6
eef4f2da
eeffcf00
1424f8fe
fc05040f
06eefefc
f9011915
ed12efff
12f31309
1e0808f8
10f0f8ee
f5e0fc12
03fff9e9
02e3070c
f5e3f805
2deb0bf9
f9fae817
fa0ffefb
0df303f0
070505ff
35e81508
0edcf9fc
2a19030b
210eed0f
08eb080b
1dfaf3fc
26fdee1d
fb11fd06
07f52bc4
f2e51115
2c0802e9
07ec24eb
09c5031b
27defeea
e91512f8
101afef0
0d212805
fa03fa07
010e0402
eb100605
22d502ef
f3f314f9
0bf2d40e
02e01617
06fd14f4
17fb12f5
060416f6
f21326fe
39cc211c
e9e8030a
091110f4
f3f6d1f3
f3f221e5
13fc1fdc
f00a1414
140cf303
f0061111
1ffc1fed
f80d0129
191613ee
fe091c14
0afcf0f8
0be5030c
ece31000
02fd2510
eef2ee06
1712c4ea
f7ff0f12
dc13f6fc
eefe0df4
e4ede8fb
0e160aff
e7ee1d0c
06070322
f2d4f6ef
eaf9d70a
f210100b
0df4f70a
161ae216
f901001a
ccf20fef
1525fef9
05fbdce8
11f90202
ff030a15
1ac60e08
f5fd2003
12f5ed37
fed6e50d
0610e912
02f1fdfa
14042212
0a120ff3
35140bfa
ebdbe907
17e0f5f6
18051d03
ec070d04
100a1305
0407f3f4
04db0cf0
07e5f309
170ae8ee
f403ed08
f01ff5f2
0f0ff9fb
131106ed
09f70d16
1def1510
feeaf3f5
0d28f400
0822ebf9
d5f70508
e612febe
051bf7f6
e3e50322
fe09e4d1
fafd03fa
0922f118
fb19fae8
df1d2d0f
2410f725
0c142ef1
0a081200
03ef13f5
05f417f7
fc22cf1f
f2fb060c
e9060702
f4fcfb0a
0811eb13
273002ef
04f001ed
0321f219
0df80f0d
1902fae7
132efbf0
17f9ebf4
342313f9
1102ff1b
ddf4143b
f43c3110
ec10cff9
1ffe092e
150aff11
e510e803
1f04e5c9
fdfcf811
fa18fe1f
011efd05
1506071b
24ec0420
fa18f923
26f404f3
2a17070a
f4ff0710
fff6f516
0e120007
12f9fc15
d70f1a10
1cf5eaf0
f6dce720
0bf605fb
ebe5fa12
f30c080d
06ea1d2e
01e2061a
f601dffd
fae3231e
edfaebf9
00d1edff
0bbeca0b
00eb13d7
37ebf703
ec1f0c13
0a2003ef
11e63600
0e01f2e0
0afa190e
10f513f5
f0210c11
e6ecfdec
12010204
e7fa13ed
05f712ff
0ee6010c
eff028ec
0a03090c
fdf10b0a
0fe6f104
f6d502f3
ee21070b
0afa0cfe
0cd9f6ef
0f0203fe
fffb14f9
1d0ce509
e806e800
a803ebf5
1e16f5ec
0f13f40f
080a07ec
0ff50006
d3e8f9fd
eef70915
01cc231b
11fe091d
14fc1e07
150406e5
e9f507e2
fa030604
0d0e13e8
0011ddf0
f9fdedf2
09ee1306
130a0812
fa19ea08
1414fff6
1514fb0e
fedb00ea
2b22140d
1101fa0d
0d09f9fa
0dfb001d
0511ffed
fdecfbd9
f8101106
eaf81310
42ed00f8
01eb14fa
f315fe39
f613f2fb
d60df2ff
fdfafce2
ec22f1f2
f80ff401
fd030eec
faf10fdd
051cf21e
061efa15
de0f11fd
f9fe0130
ff1a25f8
ff290802
291f1dee
00fff6f2
0917daf5
09eef8f3
03f0eb05
010b1706
1a15ff00
30f607fa
d9fbe9d8
120deff0
061c1105
2109200e
e1ebe8f1
020cfa04
fdc62dff
fdc9fbdf
2015f6de
081726f0
ed111dee
ea14ff0d
efdcda07
200509f0
f80224fe
17f5fb1f
090307e5
070be50d
fc16fde5
0f133a0a
f7df1aff
0b2feeee
0c1519eb
0af50d05
fce523d9
15ebf109
d002fcc9
ef1525f2
cfe82be7
ea2e19e2
150d2bf7
f91f041d
eafaeeed
0b10eae7
cd111720
1d01edcf
40f1fa26
f8edf9d3
0efb03f8
f0ee170a
1417011b
230e22e1
0d0dde11
172df4dc
17e7e308
f6fd0cf9
0df602f5
07000b20
f5f2fce4
141326f3
150ffefa
100915fa
1aec06f6
061bdfec
fae323e1
fdf5130b
e5ec000a
1515150d
de03e21a
fcd0e415
190e110f
f405140d
f80f07eb
1cfc0ef3
f6f1220f
07df25f9
1bf51d3b
f80ff101
061d0215
06eef209
f3fa0814
e2fd08c3
0e0cf811
1af41ef6
07e9221a
021d08f1
edfa0909
db0d0df5
281a0713
060bfef4
fe0dee1e
1703f2f8
14fff900
131b05f0
15f6f711
f214ed10
fa090513
fd0bfd00
fe10d804
f3231110
d7f7fa04
fd0bf7f5
f0f5ef01
e3090622
0b02f0e8
03150a09
b82404d1
16000b1c
0eff0af6
020614ee
0915e6eb
e9f6f331
0f061f05
de07051b
f1e4dace
ed0b0710
061220ed
0b05ee0d
ee040bf9
0aff1319
eef90704
f5e81018
d50107f8
15171810
0d1e0114
03f3fef8
1c0ff901
10f7e7f8
1ef82812
eaf2ff06
29fedf1c
110a0311
07040e15
fd1101f3
f721f407
0f10ebe9
1a120109
1aecf5f6
0e1e0e22
0315ec11
0d15ef06
f1eae8e0
0f05fb07
f0e4f0fe
00f8c6f7
000509ff
ef14d501
ed02faf0
f6110bec
14f402f3
f710f31a
1a0aefe6
f918090b
f9edfff9
080bb81b
f1fcf9f0
0403ed1a
f5ee0b00
f1e5d406
07f1e1fd
eefd27fc
f11c1313
13d20ae7
eeeadcfc
ef1909e3
05ec0eff
d30ce816
0bf9f5f2
c914ff02
0d09fd00
04f4ea03
df12fe1a
0611f50d
ff0207f8
1bfd29fb
22f8f32f
f5d80e2b
ec24e50a
04091c12
0f071d2b
f40e1415
2402031a
ecf7f704
fbd5f0fe
10ee1cf8
eb0bf504
0001f2eb
d70809ec
dbe21203
09fbf2e3
e4fb070c
eeff0ee8
f011062f
0602090c
f219e2f7
ec25dd17
e20603ee
ff14f8fd
09081626
ecf9fefa
1afdfd05
0effe137
0bf5ec00
f305fa1c
140707fa
0cf1def3
f1271711
13e9cfec
f1ffe8e4
03f41212
f70ff814
d217fd0b
28ef0e07
050c01fc
080b2efd
0bfc0a06
14ee08f5
fa040efc
f2f50900
14f3f9ee
d0032516
0a1ceb03
f8db1120
ef08ea19
d306f6fd
d7f0f3e6
ea22cde4
edf6ed1d
db1cfcfb
f9df0003
fbdce8fd
0101edf1
130bda01
c507e811
ca121fbd
f50fdea2
111c10f4
06e3fb0c
06e1f2fc
f505e9fd
07f5d1e9
d72006f4
21bcd3fe
e60ef2fa
04fa141e
f0ec07f8
1b12fde9
f01aef13
030003cc
e716091d
f5001c1a
0cecec0f
02fd1121
08fc17fd
efffe91d
052ff8e7
47f810ce
fbeef9e6
f71df707
f0f9e3fc
14132115
2001101d
1102d7f6
17ffe708
f2fd1b27
f5f4f3eb
ec2cf011
0a0de021
d3f8bdeb
e4ee0605
eb1502fe
132b14f9
28fcfefc
090efcf5
0dfa290e
f9ee06e4
f60cfbf9
1d25faf9
fc14d2dd
190f02f7
0cf4ecf2
070cebfe
eaf8f0fa
ed0ec004
d502fa1b
0ed3d1b7
30f104e2
fd14ead1
cfc30c2d
faced60c
0a06e91d
2bf21b1d
10f6e8ef
0ed0db07
1813cbe4
e5f1f41e
0f0ce0fe
15dff501
0ddbfbfe
ec02e206
0c0ad813
ef1906c9
10f603ed
f71bed16
f60041fa
0916f410
06f6f5f7
09161d05
0be8e605
e6deeb1a
0a140604
03f6f2f3
0bf812e7
0beaf3fc
ec0f1ffe
0713ecd8
c4f4fd05
e320f6ed
eef2f3d0
00cd1b0c
010ef500
250bf60a
0ff20df4
eb1b0fd3
1a0c0514
cce1f70c
f602e505
1ac50ce2
2dedec0e
0df50ee6
eef912fb
feea01fc
0f00f708
f1241e01
f2efdee3
0c0c02f8
e41716fe
db1ffd0f
281d0de8
ec2a1c0c
090b2928
fcf3ff1e
0af11010
22ee02da
f8f50b16
182201de
1dd60f05
07d708c4
fb2f01ed
0e1603ff
e71d1ffe
0a0a11f0
f818c70a
05ef1610
180debef
fdf30ce2
f127f0f7
e50fcb1b
fdf4040d
0ceb1b02
12040c16
150009e7
0a0f0415
f722e1fb
00c3d707
f5040310
f30e01f7
231a0e00
ffe6ceff
16fdeaeb
e31526ed
0e0f08fb
ffd802d6
fc10fd16
fd051dfb
01e5211b
dc21e406
06f2ff17
0b1713f9
f7f508ef
0cf81208
eafb070e
f313f5f3
02e1f4ec
05004c33
210ad647
eac61d23
f128141d
01e6fb1d
e1f6faf8
f411edf2
0e0c0e12
e3e1df10
1bfff60c
0c12fd16
e90beb03
11060306
031cd00e
06ec03e2
0c11fcef
03050e09
0c0b14db
fde5fe00
dbf40120
0cfbece1
e8f6ec01
04f4e4f1
e0fef5e8
e3fa0315
0a040f03
fdcfd603
ddece6f9
0febf80e
f0eae4eb
fb0a0be9
0407dd0d
04010204
eee9ed02
f5faeaf4
02fa10ea
fef3f6fc
d7110ae3
03f2fef1
0cf9ea0c
02ee1604
f6f2f8ed
ea0404df
0b0e03ec
00f00af6
000affdd
04130c2b
f412f1e6
eed8f8ff
15f01c1b
ddf627f3
f7e8080e
eb0af4dc
f5e7fcfa
f718ee05
14dbc905
0ae4f6f3
ebf712fb
030403ef
1e19001b
18083721
fefc01fb
fb02eed8
ffe5ead5
35f4e2fa
d21026e6
0bf30213
df15fafc
02fdf206
f001ec05
14eff9fa
0cf4090d
05fbf20f
1e0d0013
f6e4ebdb
0f2b1d10
07f415e7
ee10071b
ff230ad0
04fc12dc
e2e907d9
f1e117fa
0009fa06
fd0f08ee
f0f904f4
fdfdeb02
e2f30d20
c2f807ce
eb0d16f8
05ee0bd7
0203260e
150cf8e8
eee1f612
eefc2600
f6dd0306
040b20f8
06fd27f5
0206140e
1b220af6
1602dcf3
f6f802ea
0e08f7fb
e3fd011e
1f270f15
0b070c17
0e281ce8
0af6f020
0cfbf3fb
ffdf01ff
1bfef7ee
360de813
fe010818
cd1c1016
1c080909
ed32ea1e
0228fa13
030a01f5
dc10e5fc
0a1a08fd
1ed61002
1b160df8
ee111a0f
0cff05f6
0323fde4
da1ff205
fffc01fb
050ee917
02edef01
0ffa0912
0ef31605
0ef6c1fc
ff160d02
ef080811
e604f5ed
1322e01e
182fee13
da0eeb1d
fcd4f512
0506ff24
f5051e09
0500f516
08e0fe12
f30013f3
160efcee
fb23f71d
f8f5f405
17fa081e
e1121ad6
f9e60df4
f2f82014
ea00e1f9
15012fc9
f4f71cfb
2608e9ba
19ef240a
ecfa04f1
0702fefc
f11802f2
080e2808
f8f001f5
f702eae5
f102f5f6
12fd1614
0ee9faf7
1d12f727
1c2704eb
fffef51e
100dfe0f
ef06f812
ecefff05
e61ae70a
0421f5eb
49f4fbe7
05fff4f6
f9141121
0e0acdf9
14161606
2aedf922
f92ffbf5
1ad9e413
e716e203
01020c08
1201f2fa
07f211fb
05fa0706
e704f3fb
1120f3f4
1d11f102
0febdf03
e80614ee
0c081822
17eafde4
26e9f10f
080dff09
fde3d2e7
07bbd702
f413effe
ff0c0ef0
fb060b00
f2f5e804
fbe904f9
03f706e7
eef2fbee
e90905eb
effb0a02
1004f90c
f2eef1f7
f9f90cf4
12f0ef05
ea0100eb
e508100b
0110000c
edebf6f8
e7f807e7
f902f1f7
ec03eb08
fee8f302
08ef09f1
fe0afb09
03e2ec0a
f9f6f6f7
fe1615fa
effa0cff
eaeb01ee
eaf108e3
ee06e3f9
12fce8dd
0c19f005
fbf9fb1f
f90f0d1f
ff090b0a
06021f1c
adecf52c
1711effd
e6f110ca
0ce110f8
e90afaf4
1d0d0a1e
eaf5fdef
0f3f19ea
f9ef05f6
e40b2101
07e71523
24141d0f
2a19f01b
1c090213
0604f703
f6ceee1e
07f00509
090a0de7
fffd01e5
f8ee0917
16f2070a
ec1eebf0
ce0f2912
0af02016
