fe
1d
2b
2f
fa
df
eb
ed
d0
d3
ff
c5
b6
c9
f7
06
ea
ec
19
2d
2a
19
3a
19
09
1a
08
c8
01
25
27
c0
c5
ec
27
f6
b4
ec
09
18
cf
fc
e1
04
2b
00
e7
f9
03
1d
03
ef
e4
f0
ee
0d
0e
cc
dc
ed
0f
29
f6
13
1a
ec
08
2e
2b
1e
0c
1a
1e
0e
f3
08
1a
30
29
15
f6
ff
10
0d
f2
e6
d8
e2
0c
0a
e5
e3
e4
2b
f3
ca
02
20
1c
00
1e
0b
28
e1
fa
2c
06
32
ec
ca
e8
0f
3a
18
fe
cf
db
14
20
f3
da
da
df
f6
05
fc
27
1e
e2
e1
1f
0f
11
f1
c9
fe
05
0e
ca
d5
1a
0f
e7
e6
11
0d
f3
23
17
09
