f2
14
0a
d9
df
07
05
17
06
cd
22
f2
26
01
bf
f8
f9
44
1e
fa
0c
d7
29
0b
f4
01
f2
04
19
17
f5
c7
f8
36
0d
e5
a6
fe
16
2e
de
d8
ec
29
10
f6
e0
10
1a
01
24
34
37
03
ef
03
02
13
2e
0f
e5
c6
c3
f1
eb
c3
c4
c0
f7
07
27
27
32
0d
f2
e8
07
f0
1b
01
0d
0a
0c
12
ea
09
ee
0c
09
f2
02
06
0a
1e
0c
14
fe
f6
22
f8
f5
09
1c
1a
f3
f6
13
33
46
13
03
d6
ec
39
0e
d7
be
d7
14
02
ea
d6
06
1f
e9
d5
b7
f0
ff
07
cc
f3
1f
32
fb
f4
3b
46
21
fe
0e
3a
1e
e9
db
1c
09
ee
d3
e9
