ef
e6
c9
fe
e8
f7
07
e4
db
04
f0
d7
0c
f6
e1
e9
e4
fb
ef
d7
02
d4
da
fe
f8
de
ed
f5
a4
de
e7
ff
cc
19
12
b2
f7
e0
0e
dd
01
ef
f2
02
dd
de
ec
ea
fc
ea
e9
f8
e1
d4
eb
f9
db
9d
fa
02
18
d8
0a
13
e3
ec
fd
03
fd
d8
ba
df
e7
d2
0f
f7
0f
01
d5
f1
f7
e7
e6
13
2c
23
29
e9
12
09
ff
f9
0c
df
21
11
2e
2a
26
34
0f
be
e4
dc
4c
ab
0b
04
11
22
f5
40
e1
0c
07
d9
d7
16
f4
21
0d
bc
ab
f1
4a
15
1b
e4
1a
e5
dd
1a
f3
7e
e2
36
0e
f9
b6
f5
ff
e7
ff
e6
02
f7
07
8f
1a
fa
27
b9
09
ca
02
07
03
f4
fe
da
07
ae
dd
21
bc
0c
d9
b8
d1
a7
db
23
f9
1b
00
18
e6
e5
1b
b9
10
80
e6
d9
f0
04
bb
f1
cf
fe
2f
cc
19
03
09
c4
ef
a9
f6
e3
29
bb
fa
d0
1c
20
db
ff
23
1a
01
04
04
99
e7
20
17
c9
04
0f
39
fc
fd
0b
ed
c3
e2
23
e9
ee
fe
36
1a
21
dd
db
0f
20
b1
0d
03
09
cc
2c
f5
ae
0c
09
21
12
cf
8f
14
d8
f0
14
fe
d7
f9
24
ff
fe
13
06
19
f5
fb
0a
11
ca
17
0f
d2
93
1e
f3
08
00
b7
02
39
0a
fd
10
00
ed
e9
84
12
bd
12
0a
bd
11
f0
c8
0a
4c
15
17
d6
ee
21
ac
cb
f9
bf
e5
1f
f7
f0
18
18
ff
e4
b7
95
19
21
2a
f6
02
e1
bd
1f
e6
23
e8
fb
12
cd
0b
15
ec
cf
11
1a
28
f2
d7
06
d6
c7
e6
26
e2
23
b5
be
95
ce
eb
c2
20
e6
e8
aa
3b
f6
36
f8
1e
26
ee
2d
b3
e2
bf
1b
06
f0
ca
f6
f7
cf
11
c3
e5
f7
c8
16
d2
e8
eb
ed
96
2b
e8
2b
23
b6
14
03
ce
23
09
f0
02
ef
f6
09
d3
ea
81
02
03
07
ec
1a
32
1a
25
eb
17
0e
0e
b8
ee
19
99
b7
a9
fc
05
fd
b1
b6
14
0b
ef
08
fc
d5
ff
ec
f1
3d
1a
ec
d3
f2
c3
16
bd
d2
da
95
24
e8
f3
24
15
cb
f6
ed
e1
01
f4
1e
19
b0
fa
f5
16
21
17
d5
15
0e
f9
f8
f5
16
07
3e
c8
c5
ba
f5
9c
05
ea
13
ad
f2
02
2f
15
eb
d1
14
5c
0e
1a
a5
24
08
0c
02
02
1b
cf
33
d6
03
11
1e
01
f6
16
ca
02
f3
c4
01
28
fc
2f
1f
fd
9b
ea
f2
07
c1
d5
0a
ee
d8
c0
f7
38
fd
cc
fe
1e
f2
ef
ea
34
0b
09
bb
f1
f1
1a
c6
fb
df
e8
26
f1
f7
ab
ea
35
da
40
27
1c
e8
bc
dd
12
d0
9a
ff
ef
27
ea
b8
0d
07
e3
12
17
04
1a
c6
1a
2c
24
13
ac
d8
d5
99
be
bc
17
0e
f6
0b
05
2a
bb
1e
e1
1a
2b
ff
bd
a1
25
ed
0a
b3
c0
a4
f9
d2
ec
ec
12
ca
02
ae
f7
29
16
ff
28
ea
e5
0c
05
01
f4
21
eb
03
30
13
e7
21
de
fb
f7
2f
fe
f9
15
dd
fe
e1
1b
fb
c2
d1
fd
e2
89
ff
2e
fd
d3
a7
e4
0f
04
ff
d1
1e
e0
17
ea
0f
f4
10
1e
41
d8
bb
d2
10
19
f4
2a
08
fc
03
3b
19
da
99
d1
26
f3
08
00
e5
bb
ac
b6
df
21
1d
1e
1b
08
d1
1b
a7
db
dd
f8
11
d4
f8
00
db
fd
e5
a8
06
14
08
07
2a
16
db
ee
ab
1c
f7
07
e9
32
21
c1
ce
fb
a9
fb
0a
e4
03
10
db
d2
3c
fd
e3
93
08
fe
2e
13
b6
ea
2a
d5
1f
d1
11
bb
00
df
08
16
15
e4
e6
fd
29
1c
ca
f7
52
a0
f8
0f
e6
00
15
19
c6
e8
f5
d0
de
e8
10
bc
cd
01
f0
25
0b
1a
12
df
1a
0f
a3
ea
77
2a
cd
f5
1b
dd
0c
8b
8f
aa
e3
c4
e4
f3
38
fe
08
12
f2
e6
f1
1a
41
cb
0d
07
16
c8
c3
15
04
e0
f8
08
17
11
e3
06
0e
29
0a
e8
fb
08
12
01
1a
da
ec
e4
16
ff
1a
d8
ea
07
17
a8
16
fa
0d
13
02
16
6d
08
88
d6
f9
d5
1e
d3
12
e6
ca
1d
17
ea
ec
24
fe
d6
ed
f3
30
07
20
0f
ce
a9
0b
0f
c5
c7
25
0d
08
fe
34
f9
26
e8
13
da
01
0c
d4
30
db
f3
e6
ef
fa
d2
05
f8
d2
c9
d5
e5
17
91
26
31
d2
11
fe
c9
a1
e9
dc
d7
12
df
50
31
be
dd
c5
12
de
1d
1e
d1
f3
14
0d
d2
c9
0d
0e
20
27
e2
ee
1c
0b
f7
aa
fc
06
2f
e3
aa
1c
14
24
a8
ee
a5
1a
22
1a
fc
19
3a
0e
f1
d3
ce
ed
01
e4
ae
08
23
05
36
c7
f9
24
c8
e3
f8
ea
92
cc
da
d6
3a
05
d5
d3
f4
d6
0d
17
da
1c
14
06
cd
f3
c5
09
17
e9
0e
d5
fc
2d
1b
fe
f7
59
e2
fb
17
03
f3
1a
12
b9
15
03
e4
b4
e5
1c
ee
b9
ff
f9
e0
0b
3a
fa
d5
29
0f
13
dd
be
05
19
b5
1c
f4
fa
25
e3
1e
ef
e6
e4
fd
cf
e4
f3
16
02
f4
ab
16
d6
c7
13
0a
bd
c1
8d
05
15
ea
fb
f5
a6
0f
d4
08
0f
29
0e
e5
05
0e
08
d8
f6
c4
f0
fb
0b
c8
bc
f6
2d
27
4e
70
f2
d4
28
19
e2
d9
04
15
c1
e0
25
27
1d
eb
27
03
f8
1f
cb
e9
fe
d9
ab
14
c1
18
ed
25
d3
ee
0a
28
ca
1b
f6
c6
b5
e7
e6
d9
22
1d
d2
2c
df
1f
23
b4
1b
d5
cb
dd
dc
d2
20
c0
bf
17
09
df
0e
fa
a3
f7
8c
d7
0a
0f
22
ed
1c
da
1b
a7
0a
02
33
13
11
e6
19
e3
c9
8b
15
bb
18
f0
25
f8
ed
ce
33
01
f7
20
04
ec
31
19
d0
ee
ca
f7
d5
ee
cf
1b
38
0f
bf
18
dd
1a
d0
f7
cb
ce
f2
ff
1c
fb
0a
9b
be
e9
de
ed
e3
13
da
20
17
fe
1b
e3
d5
9d
1e
08
0b
bb
ec
0f
b6
ab
ac
da
01
c9
14
15
28
f2
14
07
0b
e2
03
c5
f2
de
fa
10
f2
e3
f2
7b
d4
ef
20
e7
e7
0c
a6
1b
01
ae
fa
2d
cf
98
a8
ea
09
cc
00
eb
10
f9
09
95
e5
28
f2
1b
d6
dc
39
ff
f9
6f
f0
ce
21
e0
1d
fe
e1
18
e4
e1
1b
ec
87
17
9e
11
e2
0e
10
b5
ea
ef
c0
42
36
27
c6
ed
0c
f8
e7
06
f6
17
ce
97
d4
1b
1e
1b
f6
23
ef
09
d7
40
f0
e9
c5
d7
20
d5
b9
0d
f6
0c
d2
1a
03
9b
c5
e1
08
e6
c4
f6
16
f7
ad
ff
18
2c
0a
0e
e4
31
0e
f5
b0
cf
f5
ca
42
fd
ed
38
19
cc
ff
14
f1
14
c8
f9
25
ff
f4
99
ea
b9
00
fb
e9
56
2c
18
fe
0e
ed
23
23
fb
e4
1d
06
cf
f4
1f
eb
db
18
27
d9
18
10
17
30
af
0b
02
11
dc
8f
02
99
08
ed
0d
2b
da
25
f1
c9
0d
21
21
c2
ee
dd
11
27
21
d4
9a
db
2a
fb
09
2f
dd
01
ff
eb
e7
fc
01
25
0e
25
e5
fc
09
0e
ff
15
fe
94
13
24
e5
40
de
e6
cf
10
e5
03
ee
1f
19
16
d9
21
be
c1
ff
03
da
fe
c9
be
e7
eb
ff
1f
f3
10
da
e9
f6
f3
13
c3
27
17
f0
fe
fd
1b
a0
b8
02
06
28
e3
ae
d1
11
f3
e5
c7
15
1c
01
05
f5
17
04
09
cb
e4
19
07
04
e0
e5
22
05
fd
23
06
08
1c
09
cd
e4
06
d0
e3
88
08
d1
d7
11
31
0b
fb
b6
ea
1e
14
a4
0d
03
14
b1
19
19
36
0c
09
27
00
e1
ed
41
e7
d3
0e
ca
14
17
12
09
03
cc
cf
de
09
0a
1d
ea
f1
18
0f
e2
2b
1d
b9
d8
b6
20
33
e4
b6
cc
02
ec
0b
19
e8
a3
03
e2
12
d7
b2
ce
b6
b3
c5
be
de
10
1f
fc
bf
82
22
e5
26
24
06
12
f7
f2
c1
e3
d8
a5
f9
0c
dd
09
0e
c0
25
f2
2c
b5
fd
1e
fe
cf
38
fb
18
1d
1d
24
47
ad
fb
f0
ff
21
12
1e
09
11
05
eb
ad
0d
bd
f1
07
be
10
f1
a4
17
fc
00
11
e0
2d
b3
1b
25
f9
e8
da
fd
14
d5
f6
e5
d9
08
3e
2d
e1
0e
c9
05
11
3c
09
22
1b
07
e2
e1
ae
16
26
e1
02
c5
1a
cb
f0
0a
cf
a1
1c
a7
f7
9b
e8
0c
dd
da
01
f8
b2
34
04
16
f4
14
dd
cb
c2
bf
f8
f5
8f
c7
e5
05
c5
1b
d8
02
02
1d
f0
e4
88
08
14
da
22
f6
c9
22
1e
23
06
12
18
f9
bc
ea
cd
ff
1f
e7
ed
28
cc
e7
f4
08
91
07
07
ef
0f
f4
cb
1f
10
19
0e
a7
d4
f6
6d
0d
1a
fa
f7
0c
f3
0e
f3
bb
dc
16
0f
31
0a
ff
12
e1
07
f4
cc
ef
f5
c5
07
10
0b
1b
1a
e2
f2
24
d7
dd
0f
11
84
ce
fb
0f
c3
14
1a
b9
0f
e4
f6
1c
1f
f0
a1
19
17
e3
7d
cf
16
ce
fe
09
d4
9a
25
e1
ef
1e
be
0a
0b
0a
44
e4
21
c9
9f
ee
ff
ee
f6
1b
0a
73
ec
0e
d8
00
2a
ea
13
24
d4
19
fa
e5
0b
2b
00
e1
fd
0a
15
35
0f
fe
07
c9
0b
e0
e8
e5
0b
fd
1f
18
13
33
ca
cc
f6
19
f8
ba
e6
e4
00
1c
f9
70
0e
2c
10
2e
10
26
b2
d0
cf
16
e3
f3
1c
b1
f4
e5
e6
f7
a2
90
d3
24
16
19
4c
cd
12
d6
a1
2b
9a
ea
96
2b
31
10
e0
ea
27
ef
eb
1e
be
01
26
07
dc
04
24
f6
eb
e9
f2
e8
35
d9
eb
35
94
0f
e5
d4
e7
9a
e6
2e
06
ee
1a
60
28
15
cf
d5
f9
bb
04
28
f5
05
ee
d8
a9
12
0f
ea
dd
00
e0
7a
b4
99
d9
2d
f1
a0
27
0a
36
1a
b0
e1
ff
ce
04
b7
04
13
1a
ae
00
36
d6
fc
2d
e9
0e
16
01
aa
14
c0
0a
e5
23
17
29
32
cc
1e
b3
cd
17
da
0c
e8
f7
a5
a5
1b
29
e9
d2
ca
ed
c6
19
da
e7
63
32
24
16
e1
f8
1d
d8
00
eb
f9
d4
1a
12
1b
b0
d2
7e
3f
05
25
02
05
ca
c1
2f
f8
0f
df
0f
1a
0b
d4
d7
08
fb
fe
2a
e7
f4
28
cd
11
cd
17
e4
e2
38
0e
fc
2e
27
35
eb
05
01
dc
04
e7
c1
21
0b
07
03
1b
b2
1b
d2
c7
fa
a8
e1
df
e7
e1
1d
c3
e3
16
68
c0
25
09
fc
bc
14
d7
ec
27
c2
f0
eb
1d
16
16
ed
1e
03
02
06
e0
ee
ad
a6
06
d8
c6
9f
de
a0
c7
bc
fc
dc
d1
09
c9
18
08
12
31
c9
f5
00
b5
1e
d2
38
35
9d
14
12
2f
09
d1
f5
d0
1e
fa
cf
4b
04
2b
f4
f9
fe
14
df
ba
ce
18
29
73
03
eb
d9
ba
a4
11
00
c5
99
ca
9a
cc
0f
f8
f8
f3
e0
ee
4b
f7
