b9c316df
dbc7eb31
0f28dcd7
120b0615
e00dece6
f10cc9fb
fd000113
efc02544
fcc4b1fc
f3f3e9f7
041c4113
03191609
e8c5fdfc
01f9fb01
fffcfff9
fdfffb00
fb02fffc
ff0200ff
fe05fe00
010202fb
00ffff06
0102fbf6
f701f900
fe00fef5
00f6fffe
ec01d41e
05effe43
11dafd58
0d2220e1
04f6eb00
ea012012
dd290013
15202817
03d00706
15f708eb
f50c36c7
19cc1f1a
c1e30612
0f0ee002
2c0b0502
191c16e9
25fe3117
f6124912
e5df0802
3bff12fb
f11be5f6
1dd119e5
03ee06e8
dcfd16c0
cb00e7e9
f9f9ffca
df110df6
dfe02305
2308f50a
211aea01
084df3f5
e9fefb05
0001fbfc
00fefff9
00fbfafe
fd02fefd
fbfafd02
fefbff01
03f124eb
fad7fd3a
0a18edde
d913fefb
deaa0d20
0b39e51a
1f2004f4
19efeef1
e1fa0b13
261eecf8
db0019f4
014706c8
02f4f40c
0bdffe0b
01fc17f9
f5f5daef
27321a1e
fb1714c5
0404fbfb
fc00fd00
02fc04fe
fcfa0001
04fcfefd
feff0302
01fe19fe
12f3f9ef
0feeeee6
ddfc47f7
e9200402
f9042122
2d05f31b
d6ddee08
f616fa04
13f7e5fc
19fdd5cd
0edce0da
12d7ecf5
f9f11f1b
35cd24f9
04430fb9
1df309fa
e40b0522
1e071a27
1bfafbff
00fefd01
ff0100fe
03f802f9
01fe0200
fbfefcfe
fb00e00e
f80638da
fd0931e1
eb0e17de
a2060e10
fbd9070e
eff5c6fe
df08e7f8
d415fa07
15eff4f4
e5d8eddc
def315f3
f41b31f6
11facf17
22d8e607
f913eefa
1b0a03d9
1831ff0c
4535fb0b
24f9e8eb
1fff2a01
c5f7eb09
fb1ef313
03120ce3
1712e2e5
ca1b21ee
fdeaec16
2e01ef17
012ffbf3
f7221703
0e052bfc
fb0bf701
0302fffc
0101fc03
00000002
000202fc
000402fe
03fffa03
110d02cf
ed14d9e8
dc19f1f4
2b16eae3
fe1aea01
ccbaeb28
15ccc9e1
1211e500
15ff0dff
0fe30209
f3ff15d8
05f81f03
f0ffeff2
2af626c5
f6230cfc
1a11e81d
19fd04f0
fcbce6ee
f802fdee
edee0309
e109fb35
31daf5f9
d726e530
02192bf5
03fbfe1d
0a01211b
0be0fbf9
f819f90b
29f8dcf6
f1ecf7dc
2ff005fa
fdfbfbfe
ff0b1df8
041e0121
12dd020a
fed81518
f2051ddc
6fe0350b
eadc082c
e2f6d8ca
edd6e1c7
cbebd72e
d8c91ae0
3f130007
f205160d
f2ea29fb
f02bf826
00d404f9
d70de821
dc011b12
c91110f8
39dfc9bc
fd27e4e3
0b0d0f10
e0f7f7f7
2526ea03
ebff2cff
e7f01513
1310f220
461f00fc
2c2b1dfe
f7fef0ff
33072509
f2fcf5fe
170900f0
fbfde90b
e01a1315
06faf020
fd040c22
ecececf0
d3f719d5
21e2d211
1a2103f2
2afc1cf4
0b17000c
182f1e1f
09fd00ea
09fe0206
f3f30cf8
1a08052f
1f161df2
f22af223
05fdfef1
2a261b08
0000e801
ffebc7d9
f8e80906
fc1cfd02
fb010700
fdf9fe03
fefc00f9
fcfffffc
faf9fcfa
fbfcfde3
e1192cf9
0c1ffd1e
cb0dd90c
02f5fef0
1c16dc0a
29f520fa
f9e0122f
2d1df5e2
160e17f7
df03c6f4
dce70304
1bfe3b13
330af1f4
0c120f07
06eb18ed
f4fdcf18
0a1125eb
eb0228ed
e91f0001
00fafc01
fe04fbfb
04fb01fd
fb000202
fbfffafe
04fcfae1
f9c2ea1a
01ebf6fa
1e181b0c
e624160a
fd101306
f212fa0f
ec1ff5e9
ff04db1d
fbe317f3
2b013500
cc002622
19ff14e6
09ff00fa
fffdfcfc
fff7fcfd
fdf9fa00
fdfcfdff
f7f7fa00
0303dfe0
07f6f7f8
eaefd4f4
1ee308ef
f60805f8
0b18d7d5
0314ffe6
e90612fd
290bee06
0ccd1615
2e130706
d7320bf5
e0051211
f8eb1508
f224eded
24f9edfe
281a213e
013f0f18
151edd12
d8fb01f0
0a10fff8
10edff11
2ae2ddd3
1d260f98
aaf30b0c
e3ce0109
e3ead1f3
130ffd02
2829ebe6
ea0a29d8
07204c04
cf12f3f4
dcfe0023
e7fa211b
16dc0306
e818ca0e
f20206ec
2e562524
fafefdfa
fd0200ff
00fefcfe
fd0100fc
fcfcfcfe
fb02fff9
fd050013
1a1ded07
f6e2b71d
2322f2be
e207f1f4
c2ccf733
0911032c
2affd739
cbfafb0f
cff3c424
3ce2f7de
c9f929e2
05f227ff
fcfbfb01
f90403fd
0400fc01
02030402
00fb0201
fafe0501
3933ea00
f013efdf
0dbbf5d7
1bf016df
c7d9eb0b
ebef32e8
f5130321
1409ee1d
41f207eb
20e7f003
fef1c009
b81bd911
19990af8
f807e805
08e107f2
e81a2b08
da06f3ea
0aea080c
30ecd7ff
0bddb5d6
19ec29f4
05f517fb
fb1ee63e
0420013a
f5f922fb
e1ce1618
07f107fd
eaf2dc04
e7b0c308
06eff005
e9102610
19f8262e
0d051e00
f7d6d7fb
f2fabcd8
f3f92ce9
bfea313d
0618faf9
fa01fcfa
fffd02ff
fd01feff
0402fdfe
ffff0203
0201fc02
f8f901fe
fffefefd
f1fd0202
ff08fe02
05fd0602
fcf5f603
1ee91530
fcf9d1f4
1d0035ea
fce3dade
05ef0bfb
fa193ad5
2112cdef
cae92b02
d2db0061
fde14d0e
fff00b2d
36f2c9fb
0905ef31
f5eff13c
24eff1ff
f7e022f8
f7d4fe10
0deff721
301517d9
c3001c1c
fae6db15
0a2b01bc
da2cfadb
cef82718
fcf11d15
36240eec
1e24dde6
3e0c1301
bbe9fdc7
f5dfa222
10f1fc05
00fafdff
f700fbf7
fdf700ff
01fb0200
fdfbfbff
fbffff00
fa02f8f9
01fcfbfa
02fff9ff
fdfcfdfb
fd06ff04
f9fffdfd
02fbf8eb
fbdf1816
c2c0f8d8
e42213e5
f204061b
171cf634
f702f337
fef7eff5
cefc21d4
09f61316
07d6d8d6
fc213bf1
f0400c20
190304fb
f0ebfafb
f9f6f7fc
fa040a09
05fdf0fc
fdfb0005
03f9de13
f4f8bb16
211a01ab
fd1c21e3
073bff12
d7dd0fb3
fff2c5f5
e73df2d0
e433fee9
b608eedc
dff009f2
df16e4d1
092d1cf7
f6fffc0f
f2efd918
ff0df3fd
e6ffdfec
cea902fa
17d6ec33
302ef605
0a20f900
0d000af2
f3d1e015
d6eee403
15dff33c
0b09dd05
b6f6d51d
19dbe61e
281ad0f6
15f71a1f
ea141216
ff120df7
3bf40de9
c609f7f1
10cd0fcc
fb0f00fa
dcf5d8f4
00f6afde
d7c71301
00fb1720
ed1402f0
dfd8d9fc
03f1e9c1
0a151b22
2206eb02
0f141df0
e30c1100
db1aca05
f30e1b04
1a0c010e
fbebe6ed
14e51dac
a1ec3125
e3efeced
090816ec
e10829fb
ed160ae1
121a2125
e5051715
15ff1700
fef0f424
ba2a2cef
d9d70004
fd1d0617
25cfe515
e62efcdf
001f1ece
f3e30cfd
d31ce14e
35fbf7fe
f4fe0204
fff7edfa
f9fbf5f3
faf8fbf7
f5f8f0ff
fef5e7ff
1545e7f3
0b19d192
050aee34
e51700de
0318f6ea
06cfeb1e
0efc1917
021b0201
f70ff600
04033c0e
10faf620
37fe2407
3b1f1ef8
f5080bf0
ff0413df
fb0f0af1
d30922f2
0018f221
10eefe37
ff08cd08
02eb0df7
f805f1f9
0b241d00
cc0d412b
f738f3eb
050cf811
00180df6
c0dd1107
1ffdade7
a4f227dd
08d7f8fd
fd03fe01
fdff00fd
0201faff
0200fe03
ff0100fc
fe02fdfc
040a0618
f33a13fe
07d5d513
cfebf2fe
f615d0ca
f44f21de
f62bfd1f
1df83af4
10ecf9ff
f0f50ceb
f71afdf2
da0a340f
f0fb06f8
0203ff00
ff01fe03
fefdff03
fcfbfcff
fbfffefc
00fcfffc
0103fcfd
fdfbfdf9
f9f300f9
07fd0001
f70800f7
faf7f6f8
fd080e04
ff17e9f4
f3eacd15
f4e6f011
c3fceffc
0edbcc32
0302fffe
fcfbfafc
02fd00fc
fffafef9
0300ff03
0001fbff
fe06fbfb
04fcfdf7
fcf8fefa
fafcfef8
00fbfe03
02f80001
fa04fe0e
f4f80b2b
e7f7f60b
0f02e419
f9fa21f9
0a07ec20
37ffd700
f8f909fc
1a2b09eb
f904060b
24ffec12
03e4f8e5
fce228be
fcfefafd
00fe02fe
04fafffd
fffc01fa
fdfd0300
fffffe01
fefed3f2
df0314ee
ceefe915
14fce707
19fc07ed
e20c1300
3cc5defc
2b01f9fc
f6260df8
06e1cbf9
eaf5fae9
040bffe9
0e07d514
12f9e7cb
02171a04
f0ec1b0a
f3fe01f0
e61b2517
fbf8163e
eefd00f9
fcfdfdf9
fcfbfc00
fdfdfd00
03f9f903
fc00ffff
01020610
e508fcf7
d41d1812
08fb1208
0f09ecc4
0ddfc910
0215e9f0
0b1b1204
fcd9ba12
f019f202
e30bf1fd
13e5f1f7
ee0eeb08
e105def8
e616fdfb
111e249c
b90f22e8
0ee6edff
1ee1c0d5
defe27e8
382e0bcb
f324fbf1
9e0b1000
0ee035dc
2c10f501
def7fbf8
ee03ef05
fd8bd0e4
1007fad9
f20ee3f1
d9f4a4a3
e2dfe52a
1ffdfeee
dd08f708
042de82a
e309cc0f
d7e111e8
f8f1b2c3
fdfbfafa
fbfa00fc
fefbfffa
fb01fbfd
000400fa
fdfffffd
fdf31d19
051efecc
f2f30013
ffcfe4ec
dfdfe8da
d83a0e44
00fc07f5
f8003302
ffec1cd6
01ef051b
b6120d30
3e31e7f3
220c10ed
f20301eb
f6421cef
e4f7ff0c
ebe7fbfd
e1c722f2
d4f0c008
e421fd1d
1814d3d6
c1fecbef
fafafbeb
f0d50cf3
caf1fd06
2ff7fbfb
0204fbff
fdf6f704
fdfbfffa
fcfaf9fa
0300fffd
fff9e9fe
f12fd7f9
1e07f6f1
eb1713e9
f03122ca
00d22bc2
d2250c3d
2f0b07e1
4918ffc3
c5152706
f5e526f4
10edf219
2d29fe1f
d2cbd9ed
fe03fef0
0e011c00
09e6d236
1e08f8ee
0a1104fd
c11119f8
c1e02e1d
d5c3db28
f80adada
1e022af7
e9f2d8fa
0e04fbff
0201fe03
00fcfdfc
fffefefe
fc0101fc
fb00fbff
fdfbfcfd
fbfe0002
faf90203
f701fbfe
fefef9fc
f8f6f9f9
00f7f7fe
fbefeafd
f31a1bfd
06070604
f1112130
230acf0e
24fa08f3
39d9f612
0c2afb09
001bf4fb
140fe0cf
09f2efef
f7e4dff6
fbf001fd
f9f312f2
07ea1e26
2c0d0700
1add1b18
faedde09
fcf4f30c
11020c59
0e13220b
02f92f0f
fcf43811
fa04f8e2
fb27021a
eee002f1
fcff1b07
07012316
0efe08f6
e63d2cf1
e80b09f1
da0101fe
fffd0001
02fe02ff
fb000300
00faf9ff
fe0403fa
fdfe210a
eef63feb
ea0ef92e
41dd0f02
022301e6
dacd341b
16cae10d
08f0f70a
221401f3
fa25f7bb
ef0ce420
1c120834
1e0111e7
d4faf5fa
f4eff1ef
0417eff4
fff219a6
b32e3010
bcc2040d
0ffdfe02
01ff00fc
fc03fefc
fbff0505
fe020100
03ffffff
fb0202fc
170a06fc
02fc06f9
f2f6f516
071705fa
16290ee7
ee12feff
1bf0071a
12040820
1f12f5f9
f80200f1
061400e9
e316efd5
1214fbfa
021d1308
020cded6
f70f1af8
081a17fa
29f6f0f7
ff0301fb
01ff0100
00fdf9f9
02fafb01
03ff0000
0201fd03
fcff171d
f3070dda
000f1108
063c10f6
e3eb3c32
dfbd200b
03e1a904
f8fcf5e9
ee0e0d35
f2d80d19
1a220e17
fe06fbf1
3e33efd2
f4230001
130bf7d0
0efee81f
fefd1cfe
e1070eec
cdcb0e1d
07d2efea
0f40ed15
ca0f4003
05ff161a
321c0d05
2b10ff04
262401ed
eff5f1e1
171be125
ff1412e6
040701e8
f607f2f5
fa15cbfe
04f9fd02
fefdff03
03fd0300
03000300
0203fafa
fd00fafc
2807faff
1104fcfd
0a23e6fa
f710e6c7
e7f2f410
dbdf0719
f6e0c8ce
eb13a3ab
e4fd11ee
f7e90302
e9140e1d
f9f6fef5
eab90412
faf310fb
f622f5d9
211c0307
e2f9080f
19f7eaee
09f2d9fc
f6f11123
ebecfc42
45e805ec
f12a0d1d
12f70d04
271f0a12
07f3080c
2911efdf
13130b01
07f6080b
020a2b02
2af10800
19e2cee4
d0100e1b
f6040d1e
1ae2eb02
f50e14e8
01111f18
100327f0
f316fa14
350ff7f0
2c0aded2
eb06d3d8
f0e0dcef
00e2a900
0b1a13fb
1508f80b
f822ea0d
fecaf41e
ece2d62c
fbf9e0b3
e10c0b0a
29fefe0e
06190413
0a1b3539
f0172e32
e602fbd8
c7f3fa14
e6f003e8
06fabdfa
f2f4d8e1
ffd1d0f9
010de6f6
07f60b0e
e502fa05
fbfaecd5
ddf705fd
05e72b0e
f8fef2f6
13fceff8
f0f529f7
e9f40bf7
14fdf005
f10506f4
f7291f00
f7010a06
29fefc0a
19e91426
0d1d0208
090019f7
f4122026
2cf8f2df
f7fd011d
fad631e0
e9f6cf22
01f40811
fa231f22
1405f6ec
1cf9fe00
01f6feff
fdfdfbff
f901fa03
fafcf701
02f7faf6
f9fbffe6
e41217f6
0e04df01
f9c60402
170ef616
1d07f41f
08e0220e
fe02f4ff
1e1304f6
e8031f14
010e111d
fef2fff5
08130d0d
0df8b9d8
f6260b0a
ff220b16
0c0bfbfa
1c1509ff
1f03200a
00ff0200
00fd05fd
02fcfafd
0002fa02
0004fbfa
01fa0303
ff00fadd
d8de3041
09dfee12
1e330ae7
f81b00fe
f91223f5
0c223712
1d010cff
131a1905
160b2bf0
10132cea
e40400e8
04faddf1
ea01fbf9
fbfff801
fffaf8fa
fe00f8f9
fff8fafc
f6fcf7fe
f9fc14eb
f4e4ba13
fa030a0c
f905131f
2702f619
1a25eff8
ebf2fae3
1dfef5e7
f0f90225
05ca0a0f
05f8ed07
16f9fa43
f6fefbef
f6f2020e
ff1df8fd
ff080bf6
f9163a0d
2f04e9fb
e6e2e317
eecff0e8
f1ff2ef9
07ef20f2
e8ed1209
04f1cefb
fd071b12
e92ef900
ebf8e6e2
dc0ddbe1
e1f11d0c
dd0cf426
08d1d4e9
ec262402
fef61e34
e4e82b24
2bb5070f
f223f014
0f18010b
2d220c29
fcfc03fa
f603fefa
f8fdfdfd
01fcfffb
04fcfcfb
f8fe00fa
0119200b
07d90507
0905d218
0006f1e0
17efd40f
d2bbede6
f9a5fe12
02f20110
dd1cf8f6
16fc0d11
12e4defa
1231f0e5
05f0edfb
04fbfbff
fe0002fa
01fffa01
03fafa00
02f9fbfc
01fefcfe
240ff61c
1e390c08
fd26151c
10fd0ae5
2b0fe700
e821d8bb
f5f51b0d
022ae9ff
0bfde604
f10afcc4
df023ae2
1d0dc4d8
9ecb04f8
e50300e5
28e80df3
04141502
dd06fafb
1802fedd
010801fa
080ef1d2
0afe01e0
d1fd00ec
f203c701
20feedfb
24e704f9
e00af8f6
29190807
02f612f8
111af8ec
030607e9
eee204ec
f531270a
f9061038
0301ecc1
e1e8d3d0
c4c9d0be
cc95b0dd
b6900100
03fafe00
fe02fefb
fdfbfdfe
fb01faff
fe03fa02
fe00fcf8
f8f5f7f9
f7f9f8f6
f8fbfcfe
f7fdfaf9
fdfbfbfe
fbf6f1fc
d90af204
0817ecda
0b3019e2
05030103
2ae9d2e9
1c05e9eb
0cf1e0c7
eafd23fd
af050425
fe0005ca
f914f5fb
18efe804
211b220c
fce1fffb
1b05f4de
18ffdbea
0a100e00
0aebf620
25fc1816
04191e24
2b0d0def
fbfab9c9
b9f40eed
c20b0de1
f9f80dff
10021c12
16070a14
141cc317
2e04f4de
e5dccdf5
0cf1fa07
3700fb00
fff9fdf7
fbfff7fc
fcfc0000
f9fdf9fd
f7f700fb
000000fa
f9f8faff
00fdfff6
fbfdf7f6
fcf70200
f8fa03fb
02fffc32
09f2060d
2313d8dc
dbf9bac6
e1d10a02
d1d3cbf7
090d0402
dfdedcf4
1228e8cc
c3204f37
bad20351
14fdd4e0
0e27030a
f903f3f4
eef0fff9
eff2fafc
fafffaf8
f4fafa06
fffcfbf8
f8f9bafe
17ced9ba
f3090787
f2f2f9fe
9dedff12
e0bb05d3
1306c0f8
ea1404ec
0a2010f2
ebe014e9
fef0d4f1
0a010b38
2d163632
21230919
2a0a0a05
120608f9
f6fd08f6
f70d0001
e3f05715
1615f60a
2519f208
d4163bec
fc1f0908
d7102af8
28f11c21
162bf603
031ff90d
1516f417
1102ebc9
1d120ff2
ec1c39e9
03dd06ef
fa2d12c4
d425fbec
fadf1209
ead4edf0
f8c6b015
0cf5dacc
dff511f7
1f11030d
ff07e924
04220f11
f9f30427
0ce0fce4
07f4e3ee
f6f1eef6
08190907
07f6120d
0df8f21a
00d5fb0e
f2d1fde4
120a0a11
ede4f21a
06e2e821
1600fefe
fb06efec
f4d9cdfc
d6181217
fb04e021
0afe1ce3
f01defd9
250d11e1
e2d9dffa
ff04381d
fb1e18fa
dbd6c9ee
dbe7cb3f
d7f207f9
f5f7f0f8
01f8fcf7
faf20401
fdf7f902
01fdf9fc
f6fd00fc
f5fefdfc
f7ffcbc9
102beae2
ece4f6ef
a8e4e712
d4e30dfd
051a11f1
d2dbe811
1913fa10
000f24f5
cb1310e9
10fe4410
f4e3dbf8
f5ee0ff3
fbb3010a
00162bef
dc200810
25fe08f5
030f0c29
25010316
07f72a2c
f0f1e2fa
231918d3
ec100d04
effdf513
16fe3326
3addf5dd
0a09ff0c
f0f41f28
130a05f9
21f3d4ef
deecf9d4
dbc5e7fe
fefcfafb
0203fafb
fffdfbfe
fbfd01fc
0000fcfb
020201fa
d409330f
f004ffe1
fdcf0dfc
f7fbd927
181603d0
1a27f01b
de10f806
08f61ffc
09032b38
101604f5
2e262316
e51f02fd
091a00f6
fc0100ff
fffbfefc
03fd01fb
fbfffcfe
fdf700f8
fafefcfa
faf4f9f2
fd02f7f6
f4f5effa
f8fd00f8
fafbf4f7
fdfdfa02
1500dfef
2e150f0e
fdff0c0e
f1fe181d
0e0b230b
dced1b13
0f010201
fbfe0001
fcfcfbfd
f9fa01fe
feff02f9
0300ffff
00ff0103
fdfc00fb
fefbf7fe
f8fbfffb
fe00fbfb
faf7faf7
fffcf8eb
f3e61302
2b06db07
fa28fdf3
03070e04
ec19ef23
01e7dde3
c20b1b15
f4fa12e2
ea06242a
3319fc16
161708df
d80be8e7
e101ff02
fafffb04
00fafffc
fefdfefa
fd03f9fe
fffdfdfb
01faf32b
fa0a1105
f10df6ed
dc0528f5
fe1e1117
00114803
def4eefa
fb090b05
0d05f8e3
0c0c1516
13e1bbf6
0f141019
f0010322
0e00eeed
2527fd28
eef42c18
0d0f1526
09f8263e
d7e4fe22
19fcfc04
fdfbfffe
fffffdfe
fdfdfc01
fcfe03fa
f9fe0303
fffcf30b
08f9c3dd
0002fbe2
de0ef6ea
15fc16e9
030e2bdb
e8e8effe
113d300f
d3e00812
04f4e503
f806fc17
0df41004
0bf4fcea
05d5f3ee
19e9f703
e90dd320
0bf5ff03
1b02edca
000aefdf
bce0dbd2
1315ced7
06141ae2
f3f91607
04edfa14
07f6eb08
251108f8
ebf60fcd
06f4d1d8
01d5af03
d9d61614
10d7e7da
f1effb05
0111f114
00fd06f4
fbd61c10
00f3ad16
1a02e1bb
f4e5e7bc
faf8fcf8
f7fbfbf9
fefcfffd
f8fb0000
fd00fcfb
fbfc00fc
01faf10b
f3fd0914
01edd9c7
e1fefc01
0807e2dd
ccdade05
fc33e0f9
f40efeeb
d7e50511
edd4f6fa
10d70a16
2320d40a
0c0ad910
0a1afafd
19120efc
01f70ef5
001afb09
08072cec
eb1e1331
ff0d16fd
f5e1df0d
f020c20a
dde901b8
d4f3f1ea
15fc1d1c
18f5fcfe
fdfafe00
fffbf6fa
f7fefef9
fefefdf7
00fbfffb
f7f89cec
0229fec7
f9161714
ebfa23f1
12fef206
03f1ef11
f111eb02
f8ed35fc
fdf118f6
eafbf913
e7b7e0ef
1210fbff
fa1d1515
1f27e9f7
eb0d1eeb
e7f1f710
e2fafef7
f7f50bfc
cad616ed
e528233c
16161a24
cf011822
d4ebd5df
1f1927f2
e61b0714
02e70201
0201f900
0204fef9
0101f900
fefbfffc
01f800fd
faf8f802
fa0003fb
02fcf804
f9f9f7f9
0003fdfa
f702fffc
fdf6f6ff
f9f8e1ff
1c06afe4
15070ff8
0101fd2f
0a0e0efb
14222221
03d89ca8
f201e830
f8f7f209
08080ef8
1e23ee34
f22ff4fc
0c05051d
18b10725
0ec006fd
f806eefe
058ed307
0b25b9dd
272016fd
e3eeff01
e9fad8f5
0100ebf9
f6f10308
0107b801
f604ffd8
0609ee38
20ccabac
1908f100
b8f70e03
09220411
0c363c12
ebfcfefe
fff801fb
fd03fcfe
fffeff00
fefcfffb
fa00fafc
ff02fcdd
b8e4111f
f5e71408
0a0f0d28
050aed0e
230f10fe
faeb031e
1b14f005
3715e802
1b4028d5
0805ddfc
ebd60dd5
d3c3e3d7
331a2022
0113ee00
08f911d5
f6c9e41a
ef0115f8
0d23e10b
d90301fe
fefffd02
fafb00fa
fd03fe03
fcfdf901
fd01fd03
04031418
03eb03fe
09fbfff2
01ea0af3
fcf5ec13
13fd2410
1f030dee
1f22ede1
f92428f4
014127e5
15070928
f8e0e40a
0407edef
05a4cdec
1a04c608
101fddda
07170b08
0ae2faee
ea1cfce5
e5fcf9ff
fefcfaf8
fbfdfdff
00fbfefa
fbfd0100
ffff0102
fffbdeaa
fcbff9e7
09e3b50a
190314ef
0413f908
fde61afb
1529eb04
06c80119
052ad134
33f6fe1a
150ad60d
eefd04b6
f4fcee0a
93ec2504
e3140afd
e4fdca2d
f3ff2fa9
c116e90d
e2023218
da16e7f7
04dbe905
0001eed7
2cdce7ee
d2cef2da
0329f92c
de04acff
e0e8f4e9
ed15e4e6
181f1503
ff0e29f7
f2130d32
28dc0efb
0203fffb
fbfa05fc
0100fd00
01fcfafb
fefcf902
02fdfcfd
ec0b160a
10cefef9
031604e5
dafed9fb
f21f08d7
d50aef15
e8f7f410
f7d8d7cc
140308f5
e0d52019
f523df11
0709efed
0d122709
e7220dee
2b2d36ec
0dee1e06
eb03dbf0
df13e4f5
d12b4d4f
0af1f20e
ef18ea0d
0517e90d
1905f408
0b0d2eec
f927fc0b
f643c6db
0de915ce
df0eed09
e5dd0db6
d4e1e704
b086f3eb
04ea12ff
fb3023d1
14d71b3a
43f5dc01
24da12d9
040508ec
c1f8c0cb
07fcefa8
d910fbfa
040f1a22
fc09f3ea
0f032003
1b16029c
200dfe14
d8d7d8ff
f9eafccb
17ccd6e4
eed2ccda
04bdae8c
f7cbfbf0
01bafb0f
04f4fbfc
effdf2f6
14032aed
aa8cef13
f92c2de5
14e123f4
e813f924
07fdf422
310ff115
13252a20
1319c9c3
1c3bfd19
05fa1d06
050f1dda
08ee1f1f
bffe091b
e8e210f3
03e5e902
d71bf516
feb24917
f0fff409
fd0d2fb4
e7d5011a
c90fd6ea
f2ea4501
12d4d837
fa1d0dfe
f407050d
cad80430
15f5f10a
15f9dafb
eb1000df
0be2d2ef
23291611
d31c1443
01e8fdfc
f7fff901
fcfdf9fb
0100fbfe
fc030202
fffc0b05
0005fd1e
01d9da10
1e13eddd
231df4d1
df1709a8
ced1fa28
c8c4bdf2
2107badf
07adcfa7
96feedd1
f7c7f6f3
bb180d0c
7dde09bf
151bf9f3
070b2dfb
d50df309
10060df5
1e310d07
fa1af005
07e3fb01
01fdfd01
fafafbfc
00fdf900
03fefd02
fffbf805
fcfd0521
ece2da03
cc0c0efe
fdbad40f
08f0f8de
e7faf917
ec0f0122
f005f1f2
f21007dc
e1e71bf9
0002af06
071b1704
f70a11e3
e9ff0109
f7010200
07fcf9fe
030001fa
01f702fa
000000fb
f8f7fb24
1608fd0d
1d1b2b09
f709130a
f9fa0814
08e5e308
eebde0f6
042d16e9
06f3ddf7
031511c9
3d311f14
04f71903
232200ff
b735d208
1eadbce9
dffc0de5
dafe0b18
2902fe0e
3bf1fff4
0f020afc
0bfd1a00
fe1613ea
b1d8f6f3
06c0fe0d
f7fda512
401a2a0b
2aedf82b
0b0a0fff
4addf613
1d4515b9
ecf22930
e0b8d40d
0cff13ef
0c112828
0a0c25ed
1b1007ff
a7f9f7e7
d0b93114
0100fbfe
fcfff800
02fcff03
05fb00ff
fbfd01fe
f80102fe
f6daeb0a
e01306f7
d7d20bfd
1d012203
db0df2d7
06de0bed
acd9d1e3
cff91e24
07151916
08f216fc
0514fb13
220f1101
f601e3fe
fef9faff
fefafefd
fbfaff00
01fff9fb
03fdfbfc
fcff0103
fe19ebc5
ef1401f5
f70a2324
d7fd0b26
0ff21efe
3539011d
c41dd8ab
caf5ea02
fe01ed0f
233b2ff2
3c0ef5fd
e91832ff
02bf19ef
05e3f233
0bf1f601
0ef5f821
ff0c1003
051b0ee6
06191f25
1f2f22c2
1e052d0b
01c8ea20
09cb35e7
c815a9e6
0be2f1e2
f724bdbc
1630def3
ed0aeac2
db0204d2
032a0c0b
1df6101e
343fe398
f8193b2b
15f7042d
1af8d102
27e5df00
e9202522
1fea0300
0200fd03
fefdff02
fbfefe02
03f8fffc
ff020007
01fbfcfe
00f2f5ff
fa02fcff
f8f500ff
f301fb0c
01f70307
02fff9fd
c0cfe5c8
05c70efc
e7def710
e40a021c
09fcd3e9
331b0a07
dfeaff1e
f70b1df6
1cfffaeb
0cf51a1f
e9d612b4
08422dfb
e71c0713
2120edff
122004e5
090c0b0d
fe15bde4
1416f3a3
c5141003
f3fbe025
e71f05fd
10fc0203
edcf1306
de0105f8
fffcef19
b0c6fbfb
0a1d1a14
0ff8060a
f0ed1609
faf1f4f3
29fbd81c
e5ff02fd
02fa00fb
0003fb01
030401fb
0301ff05
fffffffb
fef90402
01fa00fe
03fffffc
f802fdf9
fbfcf8fd
fefffaf6
f7f8022d
1300ccf2
dc2fec0a
f9e7070c
0deffb00
2cec0cf3
f934111a
f42833e8
f6f43e2a
ebd11933
26e60c1f
25140113
e606d1f9
ed070302
02f2fff9
01fcedfe
f3f3f7fb
04f6f2fa
fa03feee
f6f92adc
192c17f4
00042ef8
dbfbeb21
ffeff5f3
222b0ced
e7f0201e
07c41a1c
06e9d537
0123f0d1
e506f7f4
bbf80ac4
cae0071c
29fdfeeb
d5071509
e4ba290f
1d24e4e5
0c0cf201
e727fa01
280628de
0219fa1d
06fb02b7
cee3faf5
e9eddc10
06fdc501
0717b3c6
16edffad
1018ebf3
f8fefc12
ed150823
eeeef408
12eee56c
97152500
e2081e46
f60c0ef0
0a0101e5
e8e6f20c
04170c03
080b1314
e114140e
f8ca0110
1216e2ef
eb0eede3
d81521ec
fa2a05d6
05e3e5c6
0fdb2a0e
fcefd7f7
d006110c
0b300601
e0fe0dc7
d3ed0808
fb09f4fb
09ee03e1
14040bf5
c72ccce2
37f9052a
0ce4fef4
ffe3c21b
0ba8c505
f913d1f7
0efa04d5
01e4080a
e0030cec
fa1b1230
ec0d2f1e
1df002f1
15021df5
b5fb0816
11f9f3fd
f4f301f6
fffcfbf9
f107fdf8
faf2f8fc
fb02f804
00f7402c
f1f21e0b
f8eb04f6
f6ea14f7
0713ec11
1ced3502
1bfbff51
e616f3e3
f30be00d
f7e30e29
00dff6be
f3d3ccab
c4fe99d2
d9dff20d
e6c20bfe
ffe5b71c
12eaf5e7
f319f705
24ff3f37
f4ebf90c
050e15fa
070828da
e4af0405
aefce2fc
fd04d4e8
ad0bd5f5
f6f2f70a
0d10f40b
f2081e14
001d020a
f306131b
e70505ff
04fefaf8
fcfa0203
01f8f800
000203fa
02fc0000
fa0100fe
fcf7fe17
2633cf0d
120124f7
1a0e0737
3304fa08
2040f6ef
16db2017
f40e2321
1df90018
39f516fa
313d100a
c63f0227
faf2fbf7
fafbfa04
fcfaff04
fef90301
f9f9f900
fe0000fc
05fdfc03
f5fb04f7
fcf8f705
f702f3f2
01fbfdf4
fffcfcfd
fbfffffa
2506e4ca
d8071c1c
0ef4f3f8
3311dbe8
0ad401ca
d8be02fa
1dfd02f8
f901ff02
ff000300
fc01fe00
f9fa01fe
0201fdfd
fb0003fa
0305fdfa
fe02ff00
00fefefa
fffb0404
05fc00fe
03fd03e0
040ff6fa
bb20de00
eaa80e0a
060f92f4
061f00ab
e723e00f
11f9ecce
041e2815
fc03e414
2308fdf3
20fc32f5
1b2103b7
bf00fbfe
fbfb00fe
ff03fffe
fe0100fe
fb01fafb
01fc0103
fefa32fa
0b28ee1b
181cf8e4
f508fe20
05101bef
070ebff6
ebf8e23e
04f5e7ff
55225106
ded32717
f3fb2a4f
18edf4f0
394e20e7
e0a6a80d
fbe0ce04
2920f120
1c201f14
25120410
1c34c8e6
0c03fa02
ff02fefb
f9fdfdfd
00000000
000300f9
f9fbfbff
fa010413
17240226
2bf4110d
f012de09
00ea07fe
13c902fd
d803f29b
ad160d1c
defff6f6
053805df
ff00240b
e2ebeed1
fafa03d6
3ecde910
1b5ced0a
0125fce6
ed19fc08
e60dd502
23fb09ed
ed1908e1
c8ed2f21
b3ca1a2f
3ea3f9f3
3432e8f7
ee630c34
18f903ff
30e70629
2b08e4ed
3446ce01
f83b41e0
06061e2d
070a0523
e1c82306
e7acbe01
21fbf5ec
120f08f8
1bfe0d07
e3ef15e4
f800fa01
fd01fffb
fafb00fb
04fe0000
fe01fdff
fefcfefe
fd38e8ee
e6032c2a
19051b0f
2cfceef9
cc1703eb
ebb61405
edf52509
e2fff413
f3d30aeb
c8c2f9e1
fd0bb3ba
bced40eb
c6300476
12d8f5f1
31f4ffc3
03f0eff5
f205f3de
1f09f9e1
27fd3230
20261b16
f403d8ea
070d03be
dd16070e
ca16f2f4
cc020ff1
0501fc00
faf90300
fe01f602
fcf70200
0301f905
00fcfcfb
04fc271d
bfc1d9e5
e016ea06
fef903fc
16070702
e00005f9
de04efc2
81d124fd
e3e3e9f3
ecfef3d1
0f07fd37
f319f5d0
201205f6
d6d8d7b8
e5eaaf21
1ff82020
3904100e
ff010614
11220eed
02d80a0e
1afc120a
16152df8
21280713
03efe9e9
16e7f018
00070201
fffd01f9
fefcfdff
0105fefa
04fdfafc
fbff0303
0305feff
f6fdfd00
faf800fd
fb060803
fe02f9fd
fffefeff
f6f7fcf8
19d20d04
f5ecf6e2
cc19be0d
d6f90be0
effff610
d8c6d0ea
1be84f5b
130713fe
1604f714
140501b8
290610ed
bf070215
f0d82ef1
f91b1a32
2b2d0cda
24fcfefd
0626fefd
e8f7ff13
180ffbba
07223132
0e0e0b14
fc190904
1afdf8fe
f0fe0af5
0df8010b
14f502ba
c35bc2eb
01f31cfd
ef03f2e6
eaf519f1
03d7d0e1
0604f9fc
0100fef9
fffafbff
fdfd02f8
fffcfd01
02fe0202
f9010d27
07220a3d
150f2a19
12abdedf
e131fa0e
edf9fe15
16f3ebfa
0a04d806
20fffb10
1f0df60e
e6fd0023
eb181b05
0c1117f7
16090bec
fd8df91b
2513dae8
fa02220f
0d090d36
e602080d
2f02fe04
02fcff04
0303feff
fcfafdfc
03fafb03
05fb02fe
03fbdb3d
00294320
f3e404d7
12ffceeb
f6161015
15fc320c
030002a6
cd0fd716
ed17e3eb
23212627
f316fff7
ef15f9af
b6cc0410
22ee1d24
13f802e7
dddce7ea
f5030ef5
f6eefbf4
000313fe
f80304fb
fef80200
00050102
fc040203
fef901f8
0003ff02
00fb9ce8
f80d22dc
140f0d1c
f1170204
f7f73c24
fdfef00a
fd130ee6
e2e8ee12
0ab7f1ff
dcb3fddd
d1d5cde7
e907f0d3
08080c01
162c124e
cdebf8df
df14091c
2000fd04
2c31f1e1
f40505ef
079daf27
facea68e
e0f72e08
0c02ec11
36100df1
04fd01f6
0c1abb41
3810f326
0022f6e0
0d0f1d13
ec02f6e9
f404f6f2
cdd5f500
05010004
fe020500
fc030005
fefe0000
fb030304
03f902ff
d2b9db0b
1bf1131c
1517eff5
2801000f
d5e61801
fbfb1313
1128d6ff
3c02fcf9
ee0c35f4
11060e14
480cfdf8
1224180e
05e1fbe0
f3fc13ec
ecfe07b4
e702fbea
d4fbe2ff
eaf2d6da
e504dccc
b512004c
eff5fb17
fdcb1200
1204c5dd
f708f10c
0602292b
271f0e2e
0dfb0dd1
e4e7e4f0
c7191801
e901f5f7
122bfc0f
e50fdaff
02103003
ecf4fafc
05e4f1c5
1fe3f8ed
0d160b1e
1426dbef
0eecc105
13f2bce2
e521d8cf
f6f521d3
dc05fbed
2828254f
f41cfc1a
ece5f40b
27f63013
f9031935
0820ed0e
091414e8
dd303a0e
21bcfff1
2b292013
100632cb
e8eff817
20f7ed0e
02cfd6f5
e4da1d04
09f004ff
481dfecf
e223f4f2
01f30703
ff113411
29e1c520
2e3301f9
241f04f1
feec0df8
0d06f31f
f3f1f50e
ece2f709
0801e6de
23fc12f3
f5092ae9
03020d17
08f714f6
104a29f4
0cef0a07
31f6e5f8
0504f527
0bf6010c
1fdddeeb
0233211f
f51b0b21
f6062c1c
f9100000
1df4e4f6
f5e8faea
ead40701
fbffff03
f9fa0301
00feff05
fefe00ff
fb04fe05
fcfeff0e
022712f0
08dce3f3
1ff200ee
fafa120d
f91f2ffe
0a1113ea
1a07df1d
283602f3
e309120f
052d03fe
e2ec180e
f4f8fc08
129fbfd1
e7d92cbf
bdc3fe10
1c16e22d
c4fd01ed
111d0bf6
0df504fd
fefffefe
03030100
010504fe
00fc04fc
04fdfd00
fffb04dd
20f30d0c
e8e5fccb
a72fee04
fada1500
13190c19
04020103
160fa3e1
50e2e9e6
fa2bf41d
0d0621ee
0b09ffe8
00ff0ee5
f3fe0409
0a030104
0005f9fd
fdfff8fb
fd03faf9
fcfafdfd
faf60b14
07fc6107
fe04aaae
fde60415
f72407f7
2218210b
070509b7
0b07fc10
2618f9f9
09d3fc0b
f107e2fd
081607e6
e5f80b09
1b3f1d0e
2cc0faf8
242af5e2
ed040b1f
ecf30d04
e80d0b06
e3c40011
f409f515
0bf3f5ef
0af8f10d
eefe0dd2
f900fef3
f0e2fce0
ca05b346
d9ddb6cb
0eedc4c3
d60c02ff
092911db
1b1a1a26
2afe06d2
df02fafa
f1f2e7f2
0b15d6cb
ccd6eef2
d5d7e9fd
030200fc
fdfefffe
fb000504
fafa02ff
0103f9f9
fe02f7fa
f8e5dace
fb47ef20
030ced0f
dcfbdffe
d0d1dcf2
f802fafa
0224f436
ff1a02f2
0607ef17
2e14dff8
2e244109
fe14bc00
ece8e302
0405ff02
0501fbfd
fefe0003
01000101
fdfd05f8
fcfbf700
1245381d
2817ee1f
e607edf6
d929ecfa
fe0b1933
01091a11
fd21f927
0e66f6ef
1d293afb
11f711f7
d7e7dbf5
ad1f06f7
e69ad561
f2050eb6
ece1fb19
9ee3dd0d
14221500
02e00c06
effffbf9
2cfef3c5
1607e9fd
17e20814
18ed1215
160e1b05
01eef6f0
fcf42708
3eecfc1d
06f4031a
22efeb25
0f0afdd0
f2e3d0e5
c33b3e09
08fb0a40
1f0b02f6
0bf6f1de
0e1de7e9
fbbdbee4
c406fefe
fe06ff03
ff000303
06fbfa05
fc04fd05
fcfa00f9
0102fbf7
f1060107
01fd0204
f9f80306
fe060607
fbfdfb01
fcf2fc02
b6d8a21d
0ae50303
15fae6fb
0a0b0aee
2209051c
d4f6d1ff
e584ed0b
c53a3203
bcd803e0
cfe1fcd8
d6f90929
04ceec0f
10fe38d4
c5c206f1
1e020411
d4efe9f9
00141b02
13fe020c
2b100502
2923313c
f3edff00
fcbacec1
fe09faef
eac59d11
ffe705d5
b93b22f6
dfd6cfcb
e614c7cc
bcec162f
0f0402fe
f61a11e3
fffbfefd
fffefffa
fb0304ff
fbfe00fe
01fffe01
f8030601
f9fd00fa
00fa03f5
fcf801fe
fcfcf6f8
fb020205
fffffeff
f702fb07
1e293008
14311efc
eb1c15a8
bbf2eb11
e9bac104
2e0bfa1a
0bc0b4ce
f100cacb
c5ec13e3
04d31c1f
3cecff17
f910f714
26f4f4fa
edfb03ff
fdf50bfd
07faf7f1
f0fc070a
030601fb
faf80206
1925effe
f51e00eb
f511ffd5
b2032715
0be5ed1e
1ce5ebe9
0bfe06d8
14020314
1008f416
18cbc4e3
faf70101
efee0e2b
21f7f1ff
1d24e228
06ee41e0
f00403f4
07e4f1b7
eaf8e714
2f0be310
f015e5e4
13172810
1110f6ee
f2fcdffc
ded819ff
ffff0d11
4a08f30c
f7000108
11e4e1fb
1f08e1e5
1348f8fd
ed0f1402
eef60c00
c30b09ee
eacc14e4
07d5e4f1
f2a7bffe
fa0dd3f4
bcf818d4
f3be0906
0811201b
f9d80319
f001f311
1211e5e8
e80b0d33
fbfcf71d
1cfd0518
fafae1fc
13f10313
1103111a
fe04e6ee
15201cff
0f041be7
0517ebdf
04cff7f8
1512d8ff
1c0dea1f
dd1bdeb9
010813ff
030721f0
e81907fa
09091ee8
faf20321
1b261238
ed2735ec
163722fb
0aec1be9
9c7fc3e0
b4a0c1e4
fff7fcf9
f6f8fe00
04fdfdfe
fafcfafd
eef803fd
fafff7ff
00ffd9d7
123313ea
0edf070b
e024e8e4
c4ecf3fe
00f8d911
0feedfc2
0c30f9e5
0805ecf1
143f1321
f0f4f113
f2fe1bf3
13130921
28eed208
0ee10ada
01e79c07
fd11f9eb
f5050f09
1300f618
2725331f
090d050e
2135d22e
f9f8ee06
f005eae9
ec02f9f8
1606dda0
ecea0d15
1606fff6
1de302e6
e4f40e17
16f53ff9
dffe0205
fefd0201
fafcf9fc
fafcfc03
01fffbfd
03fafdff
fffcfeff
1b3109f9
faecf3cf
e7e4fdfe
f0cfe9c7
dff8e50d
f906effa
dadf220a
22120d22
071f0eee
f6270be8
d8d5eafa
02e5ede6
fb14f7fd
00fb01fd
0601fc04
04fc0001
fc040103
02fdfefc
f905fdfc
fbfbf1fd
fffdfbff
fafb03fc
f5fbfefa
f1fbf5fd
fafe0601
37320fd6
07c8eee4
f214d6ee
dad0eb10
0bf2e500
0c0c0df2
f50202fa
fd00fa00
00faf9f8
01ff03fe
02fefefd
fefafc02
fdfd0102
fcfafe04
feff0403
020001ff
fef8fe00
f9fd0204
fffd0014
06f70c2c
f5d3e5e6
f52cfaef
08f240fe
0510111b
eb13fbf3
bb03fbfb
48df0527
e102fb07
fb06fef6
0c08ddea
efe9fff5
fefcfffb
fc02fdfd
01fe05ff
fefd0405
fe00fdfc
fc02fefe
fd011302
020223d3
cbecfd25
e7131805
1f26faf2
fbfb0724
12122902
01ee3a0a
2eeffae5
e100d50a
0bedee08
f6180c2d
0e011a1d
01e8ee01
20d8ebfb
f8d92ef4
17e3dc21
e8fce1ee
ebe82515
0c00fdff
fefe0300
fefbfefb
0202fc00
fbfe0105
0303fe00
01001106
c1cb36d7
dc06e81a
27270d08
181a1003
04e22217
0dfaf819
1733fad0
e5dbd4fb
0bbaf3ea
1ff5f008
072e2615
0d110ef3
14c290f7
172c2af4
3c01fc01
06faf7e1
ecdded25
09e8e6d0
14343914
0f3422d9
f00d48c9
d2e11e18
c6ec0222
0d02070b
0df7e2a8
eef5ec0a
dcbced15
d9e2b4d5
e2071a18
fcd2fef2
04f8fb25
d702f6b0
1c1aebf3
0729160e
010d0f12
0e2404e4
dbf8e0d9
04fb0000
ff020304
fbfefcfd
00fcfcfb
fafd00f7
fafcfefb
00162de0
222c1d1a
ecfa0a64
e5d106ec
3008e1ed
da09fb11
d8031234
220b25f1
c905ff11
24cef1e4
b2d40515
1a171011
120b010b
2734eaef
2e15ebfb
09240be9
04e9041e
edf1dde1
fef61201
003209fd
fc2e04de
e2bc3f1d
e9e7e9ef
08e3da12
0f0ffb02
0f0101fc
04030102
fcfafbfb
f903fcfe
f5ffff00
fe03f8fe
fcff3d22
f51ba226
1a17f2fc
e91109f7
b1e8e3e2
cefefad1
d3ddfef5
53ec24d6
fbfced02
012e04fa
f6b30e09
d7091d02
06e92002
010c36c6
ecd60b16
fd02d9fc
f6f21bd9
0ff40902
fe13f8ff
00fa1be3
0e150012
f40df414
eee4fdf0
1fed08ed
fbf514ef
1022fa01
0200fffc
03040101
03fafbfe
fdfcfd05
fafaff03
fe01f8fd
fbff00fb
f4f80201
fefcfdfc
fd01faf7
ff01fdf3
fcfcfff8
18fe07f6
eb11e416
24e809fe
1824dc16
f02b0ce1
190009ee
fb0ada11
e81d3806
d7e9dbf8
f0d4f0ea
f5a1effc
0ddde3e4
0715f037
f9fe060c
0afbf424
e6dedffe
20dccb11
f513ea10
1512105d
08e0f402
17fcee06
3811f906
f3e2efe7
1ee813f6
13213104
e918e004
29eed3e8
1207caf5
e9100de1
b9a1d81a
f3b00902
190001ff
faf9fdf9
0102fb02
fbfd02f9
03fdfefa
fafafffd
03fbd003
e80de104
210ce6f0
fef4e117
0bebf1da
08221209
1208fb18
b711c83a
f6ea142a
f0f5e516
1aeb0f02
dbf01705
06d3e8fa
f628f828
1d15f700
07100117
0d12fb30
0cd9eef5
111c1817
1efa02ff
fdfa01fc
fefb01fc
ff030203
fd03fe05
00fbfc00
fbfbe20e
1b072d90
f81123fe
9cf3ff2b
19b0ede7
f706b7ea
37ff1829
10063101
320f1131
01011f19
28ed01e6
fa0eeffa
f3fdd9f5
11fcf5de
4118f3fb
f9d114f9
18f20810
0518070e
17100f15
03fc01fd
fcffffff
02fc0301
f9fdfefb
f9030100
00fb00f9
00fdc40d
ee0e0b35
18d4e9fd
2f0cc7b1
0c0b04bf
fc02eb1b
0d29f0f7
edf62208
501df910
ccf7f6f7
f2d3d512
01000421
2b0e0f31
30fdfee3
fa0afe28
e901fc1c
03e3f5fb
dc1af700
15e32104
00d8feea
37ddf514
0d0d36ef
13391902
0a12fce1
0ff50108
f8e1ebde
fded1d08
ff01cc26
e5cdf3ef
10e5eae9
fe27e903
f6062205
0003fbfd
fdfd02fc
fefffaf9
fbfe03fd
fbfd0401
03fcfdfb
fd0df8e1
0c2b15dc
04ef1d16
17edfcf3
1b0efaf0
f8eaf0fb
05c4ba0f
04f0de29
efdc003b
d61adeea
200bf312
e6be1df8
f8f31d2d
f3f10118
ef01fae3
25d3f402
fc260732
fff43519
2fd5ef1d
f9f6e1df
30272ffd
0900fef5
1f26fd06
0ff2f2be
ed07fde6
111edde3
0a21f8e0
fd0f0b1c
0b110718
08f0080d
0a1c0f1b
35072b17
e722e4fa
03070c0c
ca020a45
1c2509df
fb0be50f
98f0fdf8
e6ed2cfc
f6f60b19
07f9eb01
1605df22
1b0420df
1a17ffdd
2526fdf8
d7eefccd
21cddc0b
fd35e011
01f8e01c
e9eedacb
ee0d0305
f208011f
00eb170e
f7f6f601
0c1315f6
ec1bf4cf
121b0ef8
1512ee09
e2f61425
07e4d423
08e1c4c8
f501f1c6
0701cd00
da10f7f6
f6e814e8
f2f90e02
edd8f104
2624f4f5
d227e69c
ff1ee0e4
d501f414
e1a820f9
fdf6e5f5
1123dad2
10f714db
20b8def6
b734d0c8
ea11120d
e4c7e52a
0d06ed0a
1c0816d1
e23fe6ed
06bde8c3
1c06fff0
fa0a0b06
1e12f0f6
ef231d0c
0d12fdfe
fcfafcfd
fafb03fe
fff9fbfe
f9fdfdfb
00fefcfc
000100e9
38f71306
19edf5f2
2527fce7
160a2cd1
bfdff231
0506c0d1
f6210b03
04d9222e
0b10f5e3
c0ed15bf
cadfc20c
0ce6f4c8
0b39e204
18170c09
1df2fd15
e7050316
2abcd001
1335f7fb
0de50100
00feff04
fffcfeff
fffe0303
fdfffdfe
fefefcfb
fd04fbaf
19f90eef
dd0b1523
10eb0a21
f91eb513
f6fb17c5
fff2de1a
3b2a2106
f608e5e1
21f7fdf3
e1eef8eb
1f08f7cf
1525eccc
c5f9ff02
fd00ff04
04fb00fa
f9f800f8
f8fafdfb
fafafcff
fd014806
d6bdc633
03fdf4ee
e9fe0bfb
cb01e917
f3f4173b
2d0d0301
000f25e1
17ffeced
dd0f1302
cecaf90c
c8d9ea16
20efff21
ace5f201
fadaf5eb
1bc704f0
1622e01b
f1f6dcf7
f8ffdb11
fbd92623
0ded17fe
cc00f1d9
df0d04eb
dc0f301a
2c25e92d
2d2622d5
f1eac5ce
f807df0d
dd0f0101
16faf111
eb29360a
090f1108
1e010043
05fd06ef
e9f5d2e0
d5eff8fe
c8030a18
02fcf70a
ffff04fb
fbfcfb02
fdfd01ff
fefdfe04
f9f800f6
fbffff01
faf6140d
e31530ec
f9ee16f6
f5e7f307
ff2d1a1e
051afffc
ba1629e4
2bf51018
f81df001
35fefb0d
f6400f0b
02e31723
e41a0afe
fc030200
01030303
03fffffc
ff00ffff
fffcfdf8
040003ff
16f7fb04
03130a0d
0f311621
101314ec
f5f118cc
f6fe1d16
e402cb05
e900e306
d9c61601
f4f2110a
ef00df27
d90f0ff9
05dfe20f
f5ceed18
0c2af122
03181f23
0d240df8
e00b070b
f1ee0fd7
21f23ad6
f7e90df1
ecc53704
dd17e421
fa3bf8d6
fa10270b
fa163217
1308cf02
f817e3ef
f91124eb
f8d8ffef
afeb23ff
f615f7f6
04172505
e3150c01
ff102b17
ff12ff08
f3fbf5eb
ebdd0600
01fd0003
fff803fd
fafa02fa
fbf90002
0001fd00
fb0100ff
06fffcff
fdfff7f7
fb0104f2
f10301fa
f2f90203
f5fdf7fd
b3dfebfa
e6e4f306
131811f7
170df310
17182dff
fd0ae9fa
b710ede6
f802ee18
1e0607fa
ed0723ff
31de170d
e523fc51
f1f623eb
0bf90d02
dffb2af9
f11322f9
f2f90123
f9de171f
c8b2ef30
e90efa14
25090b0e
120123de
080adde3
ceefd2fa
e6d815fa
d7e5cc12
1913ff14
e01a0b20
1c041c14
1b022b21
f409f6f6
e6f90101
fd0400fa
fdfffafa
00fbf6f8
00ff00f7
01fc01fe
fcfe0202
fdf9ffff
f700f7fe
02f7fdfe
f6fafef8
03f801f9
fb00f7f3
0ed32402
2b14f921
0601fe05
fe0ce401
1bfded06
0c0dfd10
e5d3fef5
f3cbf61f
0bfcc2e9
faf61cd9
1a07211e
0cf50f03
17f3fbf8
fcf402fb
f9f8edfb
0203fafa
00f3f8ef
f901f7f2
f0fa1206
2eff0506
fd12cd06
f40b0cec
14210ff9
fb10edff
bd0af218
120f11f0
ebef08df
fcebed25
34f51106
361b060e
100cf5ff
261126fe
e9f90f0c
0af3ea16
1934e9be
0bfe1302
d91d070a
1e1d07f2
22dc141a
111e08ff
f2f0f6fd
04f219e9
0302f8ea
14f7c1f5
04070cfb
ffe4e216
f10f1a21
17e60feb
1cede8ff
1f21f4d7
0a010d10
1100f200
e40d16f8
f4e4f60f
f9f90c03
f2cdf615
262b1ff0
e02c08ec
e60220f9
f4eee80b
f7000ae5
070b1628
3442cceb
dbcef4d4
94ddf7e4
9fede707
0be3d7e4
eefe0ac6
923ef4f6
11ff3404
00fa07e0
110b0017
e61d0420
07f519ef
f620fb0a
1b270613
243102ea
e7edf602
130201de
1418f7d1
f7fc171d
1520cdfb
02ddded6
03fbe795
ef0af3d9
fed90803
f4b5eef0
eb00fcf6
f4f703f2
fbfcf5fa
eefdfafd
01f6fff3
f5ff0500
f2ef00d9
f01cfe0c
e7081500
f2f9ee18
0feff7f1
0ce6e0ff
1ce21bfa
eec90d08
0c14c0f4
f2000602
121af819
f3bb05fa
1c1293ee
c3ba08dd
eabcd7e6
ee040705
0e10052f
230bfc03
421408ed
02f2f00d
f412fa03
2709e3ee
fcf9c7d3
bff1080b
ec01d633
ed01d317
06fceec4
e30afc09
e30511ef
dd1bebfe
f50afc15
2e21f3fd
ffffff01
02fefcfc
fcfefc01
fffa0003
fefefb00
fe00ff02
2413de10
f51a220f
0cf206dd
fb0d1400
f7ebfe00
0c41efc2
05261531
00ca0f05
e3e9f301
12f9fcdc
10d9fedf
01d0d4ee
1a1c01ff
00fffd04
02fe02fb
0002ff04
fe00ff01
fa010101
01fc05fa
fbf9f4ff
fcf9f8fa
f8fcfcfe
fafc0003
fd0cf7fa
08f6fbf7
2729dd02
d338e009
ebdb1000
1a13ed18
1d2e18f7
3117372c
3004fcfd
02fffb01
fbfef900
fcfffafd
0102fdfa
020203ff
fd01ff04
fd0002ff
03fefcfa
fd01fc01
f7f7faff
03f9fcfa
fbfc0159
a921031b
6fd9fa15
0a58e6f6
030c8dcd
002d16b3
dc0a1deb
eafd1bfa
cff20a0f
0214cd11
fafa0ef9
18d7ff0e
f11dd8d3
ce0200fd
fd03fefb
02fa0300
02fdfaff
fd0300fd
00fefafa
02fa461c
f90f0d21
0cf30a10
0efdbbd4
0a2106e5
ed193617
dd2ec939
d5f1e3ff
fc08d3dc
ff010bd4
dc0dfc0c
180d0c10
191fc8fa
df050f10
33f113e8
24131ae5
c9f6f904
170909df
02fa0e04
dbfafcfa
02fb02fb
fffd02fb
fd000203
0001fa03
fdfbf903
00ff0ef2
0129edff
0a0123e8
03081501
0b09e3f7
fb1720d5
16fe0501
0e22f834
16023a2c
29002837
fa0decec
03fcf3e4
de02ed12
fc2d1210
f5350f06
19ce2901
221515fa
f6e8060d
15fd12fc
0ec711f6
0adae6c3
ee01dcf3
e20f20e8
f2f2fbe6
16fd3a18
f802a30d
122e2b16
0b4d161b
e1280b1a
120d01c4
ea08f0ee
ec2d08ae
f3f91408
06efbe06
180cd1ea
fc090ce7
f5d9fa00
039adad5
0300fc03
03f7fc01
0401fbfd
f9f8fafb
fe02fe02
fcfd0202
fcfbfce6
3f2cb702
19f916d2
090504f3
e6ec1d03
fcf9f3ed
11021923
243deae3
081114d4
16fdfddf
d207eae2
e10b080c
f92be005
fdf1eb24
dfe904e5
08100cdc
220a0120
f50cfef6
0723071e
2110362a
1d0a0a14
271dfd36
17102dff
e4c8fa12
91ef2110
0e03fc03
fe01fdfc
02fd03f6
fffdfefd
f90300fe
fdfffbfb
fbff1216
ed9fe6b7
c9ecd8f4
c4e7f8f7
14f8e410
f435e2d7
541f10f0
b119f0fb
19e0eb09
1dfee0fe
ee2ef710
1ae5f212
163cce0a
17d1e205
0bf1020f
1f3df50e
08f30f18
f034f007
ef14f5ff
e2dc1302
e3020103
0431e916
f7e820fc
ede2d2ef
fc161710
020b03ff
00fffd01
050502fc
00fe0101
fffdfe00
fffcfefd
0301f9fd
0200fd09
fdfefafa
02fefdfc
00f8fcf7
fafaf9fa
f9fdfef8
ee0612f5
e7feded7
141b16f6
cecd06ce
c305f4c8
d134e987
a50d2103
13e52d19
0e03c408
cfd10e3f
0f020efe
e0dd03fc
21142af8
fd2015fb
160bfc05
f9ffe228
abeaf6ff
14d52a1f
ed0d0523
ff0f1413
090efdfd
fc0ef707
bf27da1e
ecca1805
00f1edce
e7190803
e9e0fefc
3af71002
011feefc
09d4e30b
e80aedf3
2a01f8fa
01fdfffa
0000ff04
fcfd00f9
fa02fc01
fe01fe02
0003ecf7
19f609e3
ef0b1bd4
17dce71e
96dffefe
fbfa0edf
ef114ec6
d7df01ec
caf1ff0b
0a011f11
f0eb2f03
1a1729e6
c54af343
2304d805
fe11f5fa
fbff0dd5
05fc07f7
012424ef
22180c01
f7fe04ff
0102fbff
04fd0002
00fb00fb
fafeffff
fdfcff05
fc03f8ef
08f90b08
100fe629
16120c05
f2ece317
1218e416
1417171e
1905f136
3d08f5d6
dd24f21b
2401c3fe
0b140bfc
330b01e0
d9f3f311
37f512bc
f20ed3e9
fae203ce
0debebf4
010bfa0d
070003ff
0303fc04
fe0202ff
f9f8fcfb
fdf9f901
fffefb00
03faf320
27fde5fa
08211c05
25ffe7e3
1c1bd2e6
f5271920
d402fb03
0618f4e1
fffd2503
cf133414
01fc213b
e9002016
18d907ef
0dadee12
11f9e72e
18e4c70e
410318e1
17ef0d2d
f51c1f27
b3c6ed05
14e804fc
1d01fbfd
1b2d172b
142e3cfe
eb1347f5
082df8dd
2dece8f0
0b1d0828
29140e31
2b333e03
e9ef411c
00e9dafd
fffdfafa
fe03fffd
02000400
fbfe0204
0100fc00
fffcfd05
ef070829
3e1c280b
0e111ccb
1a00de23
0f2203f1
dac5d30b
0cbacefb
fd08ecf0
31011300
031c1b2d
06244228
1e010af0
e6560f0e
05f9e0fe
f9fd08cf
dfe9dafe
fcdfdce4
18de04cc
f857edfd
e9e40706
e4eddf0c
f300dedf
1b03edf8
f30e1325
1c37f404
f40e331a
fad90f0d
cbc3feea
0fd100cd
f905ddff
dc1e2100
f3001643
0ffd22f0
c8230805
eedafae7
e7e7bce3
fae1f4ba
f6b42605
0040fb04
24570e01
0ceefd08
f0fee2f5
ddd4e311
fce1e2fa
05fedeed
ff011007
ebf303f7
02a21708
db33fd21
25e5f8e0
101008f4
01fe1ce1
f9e8bde7
fcf5fafd
e403faf5
eff92e0b
3beafd38
f91def09
0f15f2fb
0dfb22e7
f8def517
f10ad514
274dde09
0aece22e
202205e6
0a1004fe
18ef39d6
eedef42a
e916fecb
f90f2e22
f1041b0a
201710f8
ece01a06
f008ae21
2be624ff
df07f001
f313ead0
c6ef08ef
15f2fbee
f70608f8
c626fae8
19e105f4
bafe16f4
08c4fefe
2d1bfe0b
32cf0deb
d238d429
090101fd
020707fc
02fe01ff
fbfffc04
fd02fa02
0306f9fb
fcf7fb23
1a04dce0
ddfcebe8
e7022320
240c26e1
f417141f
f923f1b5
19180900
2213dd06
ead4f3e5
0fe1e30c
10fdee13
171f130d
3ae7fb22
f5ccf336
04e6c8f7
42fdf1bb
daedfc20
05ccff21
f8c4fffe
fcfbfafa
fcfdfe03
020301ff
fe03fc00
020004fe
fcfff90e
2e2ce80e
1a0115e4
f2001f04
0bf7d0e6
e911d53b
01bec2ed
169b011f
f3e6da01
0c1fdf0d
154647eb
ec040dd9
09f52aa9
d2fafcfc
fffafafa
fffd0900
fdfa0403
fbf5fffe
fc00fdff
02fc12f5
ddc8d6ed
05f5cbe3
01fcfbef
f719f2ec
fc2bfae8
3f2ae0cf
1e090cee
f018ed0a
c0fee63b
d09fe423
3eee0e0c
c20535c9
0be80407
f5150ef4
f1b52802
e118d603
fac3fcf2
0f07f8e8
d112110f
1cfcdcee
f5edb611
0d130ce5
f50204e4
acfbfa1e
bd05fbdf
09fb9507
e1efc9d2
1c190bd6
ecfdee08
16232bf7
fbf23108
22ec07cb
0e11f5fa
b502eeea
0efe09e7
f6c4d31c
1b0c0013
fcfafafb
01fef9fc
04fefdfb
fafcfcff
fffc0302
01fefc01
0139e8e2
dd1f0b13
0bf82d2b
3d09fc0d
1c21f61b
2fddfbfc
02ec08f9
0c1ebdf4
fdcdf919
08c0dec3
d6060500
04c106e4
15e4fa04
fefafa02
fffcfbfb
fefffffd
fef8fcfb
fffa0001
fbfcfd01
04101e03
ec1be4d7
f6b9fddf
ecdb28fb
cce6dae6
14e524f8
d8d8f10d
07fd3519
170dfb0f
f1c0c58d
f7f504dd
fbfffe16
5012fa09
fafc33eb
ecf4f70c
03faebed
d1032a0e
dbec12df
041832e3
e81b1408
ea09d804
2508e309
1b040f08
27d80409
3110e1e9
23dceff5
d205ec34
04dae4f4
f1d8e5e9
fd17ea1b
0d191ff7
0ee4f91c
070af209
d63e4ef4
19e8e010
f0df0bd8
f90b20ec
fca403fb
0203fb01
03fefbf9
f8fdfc02
fb020104
02fffdff
04faf901
fcff0205
f6fffeff
0703f9fe
ff0000fb
ff01fef4
f5020107
06faf3e9
b3f51cf4
e2f21218
bc1436d5
04fa0615
38f90bd9
3de9f40b
2605b1c3
34f2e79e
020b3b2e
1c0b0c24
17e0033f
1228eee5
f926ff14
cf0b110c
efdf04f1
fef219f8
d00b1fd1
ccf90c06
0acde1fb
0bf92cfe
58fb08c4
bc111500
e9d717fa
0300faff
05071f0b
f00517e8
11160dfb
c51111e8
00f9f102
d3e117d3
edf9fcfa
0304fe00
f9fe01fc
fbfdf7fe
fe010102
04f8f603
fcfffe03
02fe01fe
f6fafc00
fd03fdfc
0700fe00
04fff905
fb010638
d0f6083e
e2e91445
120bf2ec
19fc24fd
02f9ed11
19171f4c
bbbfec0d
1b2af412
0a10cbd0
f53429fc
ad140024
2824cb20
40fdf4f3
fa00f0fa
fc050cf8
fcfb0808
0b0100f6
f0f9fff7
00fde105
271fddee
28f4f805
f307f34b
06fe16f5
e0ed1c23
f41a4f04
f3f504b1
f60dd3cf
e0f21ee9
071ffbf7
0aec09fd
1804282a
1ae21d25
26f90a1b
10f6f9f4
c91bfa08
ceef08fd
12daec22
e5f4f7dd
df090bd8
d9ef2f02
d91d4905
f3fc11fc
b9131b04
c7280aff
1df626f8
f609f906
fa1c02ee
fd03f3da
ffe50fe9
ffccea00
0605f6b4
12110821
fd08fed5
cc1f0cd6
bc034bd9
fe010a41
2c0bcbee
13e1e3e5
e318ed06
170012ec
1c02d80a
da182303
db1ae0f9
0ada1f13
03e4eb0a
ffd90a02
dbeff10b
df04dbe3
00a52411
020af3fd
10ffe619
1fefd4ff
01e2f9e8
f0fe16eb
14101cee
ce1d1031
150a09d7
ed2700dd
f09fff19
01110dfb
2c150d5b
f4f2c3e2
47cd0ffc
1cbbeafb
1416f2c4
cec5fefe
b70a0b02
e7f5f900
f904fa02
00fdeff1
fe07fcfe
fffffdf5
fcf6f8fb
fff9fdff
f3b2ac0c
1bf3ebd0
e6e01208
20f32809
f30b2e4a
07ff0305
06060fea
0417f902
e81fe4f9
3a0cfb0f
f4060c0c
06063c2e
ff0e1ff7
080b1e27
10dc151e
05160b29
29ff0cf2
07ae05fa
f7411f05
141616f5
e1ec340e
e1fddb24
e71202f7
e0d7fa09
f934f8fd
f8132b09
f4e93410
0300fd23
d821cb14
0bf9e9b4
1affdd01
fcfb04ff
ff03fa01
fffb02f8
f9fa00f9
01fb00fb
01fefbfc
0800e299
c5150de0
d5dff319
d4facc11
edf82308
18070302
12030ef8
2bef240a
f8093708
98db0621
f8d2f5e9
fcf5010a
fe11ff01
0102fffb
fcfffc03
040303fe
fefcfdfc
f7f7fbfc
f6f7faf7
f50508f7
fff7f7f6
fcfffef9
f8f8ffff
02010803
fefbf701
e9d0261e
39f1fb05
1f010e00
060206fe
f01cf409
0629fa13
0c040201
fdfbfbff
02fe05fd
fcfffd04
fcfffb01
010301fd
f9020303
fcfcfcfb
fb01fafd
fbfa00fd
000300ff
fc05fefe
fa01ffe5
3ceedaca
e61113ec
ec081e11
0af4f330
1506fef7
0e040432
09c6f505
18052814
e4d01e1c
13e1d626
1e15de0a
34f1e8e0
dc0203fe
0000fb04
01fb0304
03f8fe05
ff01fefe
0201fb02
fe041ffc
f215ee11
0ee2d7ba
cdf6e5de
c2f801f7
bdfc0018
1ce8c6ec
0eedf120
f009c9d5
d5011be7
fff709fc
ddfdfd2d
23c825e8
4a04041a
0e1fd61a
08d429f4
fa00eb08
fcf10768
280ae2fd
10fc0204
fcfdfcff
fcfdfdfc
fcfdfcff
fb01fdfa
00fafc03
fdfbde05
20d13d1a
0bea0b2f
e42bcd00
144002f0
24edea10
0f1df93b
fde5d906
0514cbe3
fb03dfd3
eafde1f3
10f518f8
c51bdb02
0a02212b
f1072726
2023ed1f
33e3fa08
f00e1115
ddce1813
dbfcf6fe
f1ece2f8
f209f2cf
06fa3106
f50a1f23
08ed022c
e632ff25
0fdffcec
300317e3
1df603f6
d015d405
f956f5d4
080f62eb
3b17f800
1f04fa0d
0b1b22eb
01dd21de
e0183805
d219150c
fbfefeff
fffefd01
00fafdfd
fff9f9fe
020001fc
fffdfbfe
fee1c616
323e0ef2
061b5ce5
c326fd31
ebee0633
1ffae117
1acb0dfd
e1cd94e3
eb1fd7e9
e6dd09eb
04d4f40b
07050919
2d02481b
fff4eedc
f91ae322
2300d9d4
e729e2fa
ec0038ea
130ae90a
15f3d921
2b13d9b7
00dcf7b5
c9e5b2f0
ecd7f310
1c141204
fc030203
fcfffafc
03feffff
fefdfcfc
0102fbfb
0204fe04
fafbdf2e
0af6db25
2ef4d2eb
38e4e405
000712cb
deecfcf4
e90b2df5
2103c4e3
f5f905d4
fd11f1da
f2c600eb
fdd30bd4
09cfeef0
2537fe17
ebfc330d
0bf30430
e80a03e9
0816261e
ede71900
f4090de0
0f14f8d2
cd0601ff
d3c2f0f0
2c24ddcb
fe1932ea
0be4fdfe
fdfffc02
fa00fef9
fffcfcfd
fc02fffb
fd02fe01
fa0102fe
0afcfa02
fd000002
0001fe03
07f9fcfe
fcfbf6f7
0402f9f1
170c14c3
d807180d
e7c80613
13ddb017
2d0ff4a6
2129f9f0
d20207e7
f8e400ee
db04fe08
f2fcfef0
e10a1313
e3d20645
0ae020f1
03e61bf5
dae8fe05
fbcbffd9
03c6e8fe
e80f0f15
0b211400
08fa402f
fde0040c
1df410eb
0406ce0b
02d60bfa
030bddfe
f712ea21
36fad01d
1112fbca
f1fdfced
08effb0e
0c27091b
d7fbfefe
04f9fbff
ffff0104
fcfffbfe
fcfffefd
05fefdfc
fbfc0bdf
ea06ce05
1a3819e5
f9ff0f08
0509fbfe
05e31e15
e5c6ded5
12ea020a
0a01dbd5
11efef03
e4f001fd
e71c2001
bef5193f
0e19fc25
2e130f07
0c021cfa
030c091b
203c190d
122c421a
090101fb
fffbfcff
02fffc01
ff020102
02fb03fe
fa04fcfc
0404fd08
eefe1cf5
0cef000a
e6fa0920
f5e9171c
fb15052c
12ef4417
00fa26eb
f6fef704
efbaea04
e609ede9
071615e7
21f6100c
0c11ffb2
f0011216
be06021b
15f80d21
28120316
1a25eaf0
01fcf803
02f90200
f900fa02
f8fdfefb
f8ff0103
fafd0001
faf909dd
cc113c07
169def15
0bee4df2
1315d8cd
e10c008d
d01c14f0
04ee1ffb
fc11e1f3
1afc06ed
f1fe0ef9
01e007da
fce2fc2a
f5c301fc
a2b70a06
be0ed200
f60704bd
27fe201b
20ec07eb
050b1635
3431fe34
e806f01b
05ff08d9
e2f7f3e9
de11def4
f304e8ec
d01308ea
1b20020a
f706281a
eb02001e
2132e50d
321715fe
fe030003
040300fe
f9fefdfd
fafd02fd
0100f9fe
fc01fffe
dac1f321
21ffeaf9
0e03f20f
012406fd
ef10f81b
e0d60de6
24f90902
22f4ebf3
e4e3f4f7
f8d50205
0d1bebbd
091d33ea
0b0f1c2d
2102dc0c
0cfeefe8
0ae1f317
fb0f090d
e9fd38e6
fffe2df1
02082345
fe171202
130000ff
f4e70111
13eae5df
1901e3f8
e5d9fef9
1aec0618
0522f43d
1eec18f3
1c14f510
bfdbf5fe
0b001d1e
25f2040e
fc1d020a
2016f2fb
2bf8200e
e81bfce6
def504da
0302330f
14fcf409
04190b0e
2e1af203
210f220d
280cfafb
f2d702fc
ce0bd805
15e3061c
ddd0ff21
fcccc703
03ca8cec
032b2aec
daf21b12
0d05e11c
0704fdf5
ce1c02e2
efa4c8f1
fd25e601
0f0916f4
123a140b
b6d4131b
0d930bf6
090cb72f
0cf4ea15
dae3b2cc
fdd5a80b
0202f5d3
f11607f0
0ac2fd16
e5e8d2f9
10fcd2ac
130f0608
cdd618f8
b6b9ca1d
18ffd8f4
2d180136
edaad080
efe0e014
f607dfce
df0b14f3
dc08e917
b9a5e606
05ebeaff
fa0a06f6
000af8ef
fce5ecdb
002edfe8
e1f226fc
ee09fdf7
02f800f8
fa01fbff
fbf7fefb
02fb0400
fd01f907
00fe06f0
def2eb3a
260fe8e8
1523f1cb
cffb16c1
ddd5e90e
01d6fada
04f410b1
491f031b
d424f2e4
ebd612d9
b6d0cd11
f4f9f7e9
0618ec1e
09f417d1
09e8f50c
b1fee4db
fefaef25
c0effb07
e2a5fcfe
0003fefa
fefcfc01
fdfb05ff
fefeff02
fbfe0102
fb01f9d2
0b0ef7f0
192a1a15
f7fb0202
f616d313
fc0521f6
18ac1e35
0cfb2e1d
daf40724
20eafffe
22eeb508
14efaa5a
10e9b4a3
65fb02ff
0303f9fa
fdfc02fa
f9fe04fe
04fbf4ff
03f9f9f9
fd04e5f7
e5d9cbee
17eb0aff
f511ed28
0eea2e07
0403f505
2beea61c
0ee0e095
1808bebb
9af71ad3
baaa07f9
eedcd31a
f4050fe7
dcfa2d00
d5f027e9
07def6de
06f0f21f
052606fb
101ce513
e708270c
2ade0204
14f6e0d0
ef1cdee8
02ef17e2
0c020bf0
061f25f6
f6e6f419
1900e127
3504fbf2
1a06c6ee
c2f9ffbe
f0b8e6ff
ffe53810
031be0f6
c8f608ec
cbf3fb1e
12cfd50e
30f105d6
fcfe00f5
00fbfe01
02ff00fa
fb03fffc
fafff6fa
0102fafb
f8f722e2
12091c09
ed0c180b
ec0b19f3
fff20b01
0df8eed7
bbe71705
1de8a204
f9f115d1
ffe31922
f01ae90d
11fc0efa
07230b01
ff05ff03
fffc02ff
fb00fa01
fafa01fd
0004fb05
fcfc01ff
d2f4dfe0
f2e205e8
0afde708
fafe0a23
e90e11fe
034e1d26
c80af7e5
01df1610
fd02c114
10f1efdd
f600db07
befdf8ff
f0ccd4e3
1cf835ff
192b0118
1013fd0b
0c04fbf1
ef1f0c15
09ec0de4
07f00b16
e60dfb2b
07f2f607
070e13fb
f80405ec
f3cbf0ac
1b0af1f3
08eed5f1
d523f3f1
eef5180b
13130ce2
1e312104
180ffcee
042006ef
f4fb1407
e905042c
03fef716
f5000214
1410ff01
01fe02fd
0000f8f9
0402fc01
fefffefd
fbff02fc
ff000106
faf50003
0201f1fc
fffcf803
00fbfef9
fbfdff00
fffb07fa
292417ef
e7131509
f605ffec
06fa041a
1107ebf3
0118d9f5
fad90303
0cecf80f
f1c6030d
160cda07
ed1a0987
04f8522a
f8ebf5c0
e92426e7
e709e8ea
14eb18f3
ef03f312
161e3bc1
771c1424
02e70517
0112d7ff
fa02f7e4
f5ff03da
e011db07
debae5f9
140ad2e9
12270008
161f08dd
0a0a35f8
f6fd120b
e61c121c
0504fafa
fc000103
faff04fa
0100fbfb
fafb00fc
01fffe01
01f7fd00
ff00fbfc
f6fbfef9
fffff9ff
fdfef9f4
fa0400fd
fb000117
1701ecc4
001cfff9
e8ec08fb
01060300
ef000118
35261411
dfb51900
0eb1f60a
080aeee5
0af40a18
f01cfbee
3d02adea
17f9f9f2
f8fcfbf5
fdfc0305
fbfff1e9
f4f5f903
faf6f7fb
fff62312
24fb2e16
f0fe1511
120d1027
05e8e712
25fd0af2
1e11f0d8
fbf8fa12
f2def2f6
f20bda17
1016fcf9
09f82107
ec0ef604
f8f02ae8
12f3cffa
f70e01cb
e11bfc05
01011be6
1e210b16
d4e212f0
ead4e92a
eb04d4f2
e202f3df
00b7f2fe
dd0dfc0a
36291301
4833a409
051c12de
01051830
da0e0e10
08e6f504
2cf97d15
0df7fa0d
1300f807
0905e2ff
051303c6
d4fb02f4
b5f0120f
fe19e825
272100fd
fc04eaf6
010312bd
0c06340b
f104071d
16e6f0a5
d805d7af
80e321cc
9f78ff0b
e4d8ce0c
df03e4fe
faf3e1e4
0b060c03
e7e5f224
05dbf803
1dffec20
f51e0707
27111009
1000029b
11fbf307
210fc7f8
f122f315
f3101bd6
f6191e28
ff1a0624
fe16ef0f
432cd2db
210406e8
c503f701
e888fbe4
02f802fd
fcfbfdfd
fbfe01f2
00fbf6fd
f1fef2fa
f4f902f6
fbf918fa
cbe4fd04
03e50f36
fbfbf3fb
16f61ded
130a0f21
010a27d9
fca3c12f
fb11c2f2
2502f3f1
f3f5ecd2
ba080c13
afdbd4e7
1119e5fa
1cea18d8
ebf4fb0f
e31d0ded
d8ed1607
d2e20824
fbeb170e
32ce0428
06d1dae8
effedef6
e6251bff
13fa05dd
f239e920
39102bfd
f10cf8f4
0609feee
fc16f816
e4212633
1cfe28fd
fe01faf9
0302fafe
00fd0001
fdfffcff
02fef8fa
fb00fa00
0a240d0d
0413e806
f4fd01f0
17f9fa02
ecfbebee
2a07c2d9
cafd06fa
d1fcf0e7
fcfb13dd
00041414
02080c28
f2fc2228
13e6fd02
fffc00f8
ff0404fb
fa02fefd
fc01fe02
fdfe01fd
0101fdfa
f7fdf8f4
f4f5fbf6
fbfef9fe
f9f7fefa
03fbf505
fffcfef8
290e02f1
1bfdf1fb
1af8e9fc
0e230804
e70fece5
f2e3eded
b504fcfe
00fdf904
040101fe
fe01fdfb
02fbfafb
fe01fd00
fe02ff01
04fcf8fb
f9ff03fe
fe01fa04
f9fa00fd
fbf803f9
03fcfccc
0719f5d4
b1322000
0cb90d1e
1f11d1f4
1e0b0ad6
0c07e918
133104ca
db2f17ec
d5130808
f2fa07fa
03dd1b28
f837e205
f7f8feff
01fcfafd
ff02fbfc
0000fd00
fcfe03fd
f801fb00
fef91d0a
301dda01
1401e0ce
0624ebe1
c7f9efe7
0be22bf7
e807d5d4
e0ebe0db
05ecb9e5
de1931e3
fbc51628
efe29d17
fcfaf3bf
f0f9f51c
0918c3dc
01ea0702
0b1bce0f
02e90408
0e03ff08
02fb0102
01fa02fc
03fd0001
01fefbf9
01f9feff
fb05fafb
f9fa0bf9
1c0ac625
20f408e4
0cf20f07
fdf0daeb
1b1512ea
192f14e1
ede01001
f501f8f6
2bff1401
f41c10f5
0f1110f8
23fa1eda
2cfefa11
f221fdf0
f5e5010a
16e4060a
0311ebf6
27fcf503
eec8042e
0a25c805
07fe2aca
1b260619
ed0cdc13
3017221a
1014f2e3
3df1ba24
fcffffed
0c0a1006
fc1701fd
f11503e1
f713cbef
2aeeff02
e9e1d1f7
23f3f9f5
fded18fb
e0f81504
82fffe39
fafefc00
02fd00f8
02f7fafe
03fafa01
fdfcfef5
fffcfd05
01fc0619
0d1cffff
dc1c14ed
1004131e
e5161109
ed120026
30e10f33
20d7d10c
f53df10d
09ad1eea
14ebaa0a
06260315
ec040e05
27034022
06e2fc09
040c03f1
fee3d4d0
0cf9f115
ff02dfd7
16eb0be3
32f0e0c7
e81d0a06
09f93bec
10f7041c
08f822fe
11000101
fd00fbfc
00fef9fe
fefffcfe
04fb00ff
0400fbfb
0305fece
c8f609ec
c2eff805
d9fc22fe
0af31126
0b12c520
34200efe
a2f5dee1
0fe3f1e0
f10521eb
e9032520
f515f905
f7fb1508
ed2feffc
f5eedac7
f9091609
e90a280c
fcf32007
01e40817
e60d11ec
08280c08
1d02fbf7
190b02f5
dce90501
12f4ea18
f4b8fbf9
fcfbfe00
0201fbfb
fffffafa
f802ff02
fbfa0203
fbfafef9
04f9f400
fb0602fa
ff05fffb
fdf9f6f6
fdf7f7fd
f6fcf5fd
dc1c3407
d308f712
19d7fde9
0108e104
e8fcfbba
d6edfde3
c6f914c6
bbc90cf9
dececaf7
0ff5d0f9
e013ecea
f7461100
f5c71c2e
1b0de043
1e17f1cf
29080c01
df1c1b16
f6e21b16
fa02d5e1
13dbd3ef
e10cea13
13092c16
fc15282b
01ef1b37
0c19fde3
88ea270d
1a18ef12
fc37dde7
0afe1909
02f50b1a
df081600
f7fdfe00
03fefafd
03fcff04
04fbfdfb
00fa01fa
00fc03fd
02fcf806
0aec01f1
e5d11204
e5c51808
d9020c04
08e13ad7
06ff07f8
190721e9
100dfaf8
f606fff1
0af7280d
08320f23
f9f01f23
fa0dc5f0
f0fe0b1b
16210a17
161829f7
e1eb0624
10dcde1f
0dfefcff
fd020401
fefffafd
fbfbfcfc
fafdfefe
00fdfafb
03fdad00
0ae2e9ab
0400f222
e5171809
18ecf31e
fc29f109
f2eceff6
cef30f2c
03ee0efa
f7c20bcf
2829c3c1
dbdf38f2
31f0f030
1f231a1a
39e80adc
ee05f035
0ae6ea18
1820e6d8
f918fc09
1cfefefb
fc02fc01
03fafdfd
fdfbf8fe
fa01fffd
fffffc01
f9f92512
f4edd710
d600bae1
0314e7eb
2417e2f2
0108ea04
0efc1fd7
272002fa
06120ffb
08e81808
15f30812
fffaece7
1f1f2a37
fcfdfd2c
da080bef
091a0210
e6fe1b05
14d2fb1b
f2ee09fb
00e5fc0b
e503f52f
e71eebe5
12f3dc22
01150011
37240ef5
fafc3322
efee0ef6
13d5f316
edefdc04
38ee00fa
18f803e0
e512dfff
fd00fefd
01fafd03
fdfffdfd
ff01fcfe
02fafcfd
fbff02fb
06082406
1ae9fcfd
1004ffd4
e6232fec
f3c20636
f9dfe1ee
2da9d728
152cc311
f517e9e8
e9eb1bfe
f8081c01
dfbff2e6
eafa16f0
350808f7
f13104f7
21f5340b
ebc71b11
15d81f2f
04f0affc
2ad90d15
ee121b11
1301f804
16ecf503
1306fff0
e30e16f1
1ee1f3f6
eaecf1e7
0fe1d6e4
23eb1af8
0822202b
f9431932
ff06ccc2
1bede4ec
0bfe06dd
07081a1f
1717fc08
36e8f5ff
2dd35c0d
f5ef2f21
09fcee2c
f80610fb
18c701ed
f30aec49
dede2822
f3f80f0a
1dee1f18
230ef514
2bf3ef20
0be5feed
fdd9e1b9
072af101
140cf80e
f2e0f90d
eff2dd0e
f72bf6bf
00061023
05e11ef1
e53d0603
e8eefcd5
0cd6ffef
c7f2d805
f204d2ef
fe1c13cc
f0fccef1
fee5f80e
0f0ed10a
0b27f6fd
03d3fcfd
0f2de9f8
04ef2e04
f1f0fb10
c618d6e5
fedabffe
f611d2d6
00fbeddd
d4fde9d6
00dffbfb
e3f00d1c
11df0f09
ff0c2500
2f122d1f
1f12e2f8
dc0d14e7
e0ef1905
1ff424f5
1df9fd03
1a0ac52d
1c3a01ff
00fd03fe
01fcfefe
fcfbfdfc
fc00fb01
02ff00f9
f801fa44
fa02fefa
0bf61712
16e5eb0c
3208f3fd
0b0dfd06
dbd9fbfe
f4f1fe36
48fe020c
163cb7d8
ee183ff4
f7f7071f
fff30611
35eb0d1e
c0d6f6f4
e1f3bcfc
eaf9040a
f908f8fa
eb0f3031
f5e103fc
03050200
faff00ff
04fcfefc
fefefbfd
03040103
fcfcfd1e
ff0508df
260deb30
d411170c
0af71508
fb1d181c
f4dcf029
11baf602
3aebd420
ef21e0ff
ebf0f1f4
14f5e201
082fe2ee
a6fffdfe
f900fef8
f8f7f8f8
02fdf9fe
fe00fcf8
f8f8fdfc
fcfb15e7
bba9e003
c6ec0a13
16df32fe
1813f822
e8f51aff
26f70138
e50e08b4
35ecf7e7
b524e5f6
bbe80623
fffbf824
44cd070b
d0def2f7
02f1d9f6
19f4222d
e4010de6
00c6bee0
24f2a50e
ecffe70c
f1d6e901
0d0906ed
04101616
faf90b18
c0e2232a
03d1e203
d8f5f1df
fdea0210
e3e805ff
0deeeeef
121ede2c
f1e10e4d
171902f3
100bfd10
e000ea03
170d09f9
1d2005fb
27fa2b06
0100fcff
fefcfcfa
fefbff02
fef9f8fa
00fff9ff
01fcf8fb
faed0616
07ee1904
e81c07fc
e814060f
10e6eefc
1104e40b
1a1deee3
18ffc0fd
fe05f79b
0f250ce1
e7f11de7
00dfefee
bb0feffb
0004fafd
03fd0201
fd02fcfa
fdff0304
fffcfffa
000300fc
10d4141d
ef0d04eb
1ec90010
0de5f10d
19221109
e2e7d9e1
d3f81afa
3310fbf5
1cfee6ff
f21610e0
090a0608
6132edfa
37c2e307
e40ef8fa
041efef8
1a08eb07
fff302e8
0203f5c1
ebebf82c
1bd8d519
1a37d703
0f1b1bf7
e7df3e21
00e9f124
e9eb29f0
150c3814
f91b0708
0730f306
07ed3803
fd04e015
d3070bcf
e9510df5
0d02341b
200d02f9
fd1ec511
ebe8ecd4
d8f7f8f7
cac3fefd
fb00faf9
ffff02f9
02f9fbfd
00f9fe00
fffefef9
fefefcfd
f8fcf8fa
fffefb02
0304fbf8
020200fa
f2f305fd
f5f70001
a521eef4
071426fc
0121270b
edfa0f1d
fbebff19
f0f3e0f9
e6d0e210
1cedc207
0302d409
f50c2000
24f602f5
ebf610fb
f62a2bd6
fcdcfa08
fffbf9e0
170407de
ec09180b
d5fb270d
29eadf21
4d2eee06
0114f0eb
ea0604a9
d4fdeedb
ead01ae9
bb002316
1be61a03
dffbf4e0
ea1bf7ed
240e0ff2
02020cf9
fc24f1ee
d104fefc
00fef7ff
fef6fafe
00f6f6f6
fcfffef9
f8fcfcfc
fe02fcfd
fcf9ff00
fefcfafc
fcfd04fe
faf9fafd
fcfbfc01
02f8fcf7
f9fae736
15261303
df2d2df0
0001fc15
e4d50deb
10e9f906
b7b7c5d8
28fbf8df
05fd1309
d01dfb41
1201ecdd
5115f41f
f0fafaf5
f9fdf9f5
fafafb00
fcf7f6f4
01faf8fd
fefbfff9
f4f5f70f
0afafeed
06f5fef5
fe17f90e
34ff01ff
eff71fc7
0824ceff
f2141c08
22f20714
21d7df05
0d1eec01
101014df
d82bf235
130322e1
ca1b1eea
a12b282e
f301172d
26010221
151cfa33
1912ea00
25ca243a
3d26f823
f4fcefcd
031cf700
b9e2e80a
f5c633f4
c4290ee2
f7db1123
3aef0112
fc21e50c
10e8fcea
e8003235
07010f04
0e0ed7aa
061a07f5
e6fd0510
1708ec0e
0721ffed
2cdcd9d4
c6efd51b
e71000e2
0cf70722
2c49020a
02e828ea
1806fc9f
ad15fda9
a4211ac1
f7c51820
051829fb
f92026f3
1f101325
18160f14
eeece809
240cff0a
c9020efa
db02272d
0222f3cd
e20306e1
0ef60311
0def0511
07ea041d
ef02ebfa
fafa27f4
d6b2ecf0
01bdf4fc
10ecf0ec
9af105ba
d51808e4
c7f5d9c8
e2fcf4f4
f901fcfc
f9f9fef5
fdfcfeff
f8faf9f6
faf9f7fb
f6f60a40
d6eb2d2d
32f8ff26
081e141e
ffe9f3f9
e4efec0a
ebf60410
f414f902
dde504f9
f5fa0313
fd150e2b
06ec1e28
f3f50716
02e8fef9
41fed2f1
0a10fde5
fc1a0a0a
e104fc03
fd081b08
0ce2f000
f10e04fc
e9190532
fbfd1724
17ea0315
04ddfce9
2f3e1505
06f3f744
03ebfe14
1efbee24
01f305fb
042e16d0
d4e9e4ff
0201fff9
02fcfa01
02fdfffe
020303fc
03fefffc
0103fb00
1af3ec08
fc00e905
200ad4f0
d5180fff
17ebedf2
34110304
fb07a4de
cde7e5b3
fcb2e1e4
c8cde821
c8cfcafc
11f0f5fe
0313fa00
01fafffc
fafafb03
fa0003fa
0000fcff
04fc02fe
fefaf9ff
fcf800fc
fcfe04f9
f6fcfefb
fef8fc05
f8faf900
f9fcfff8
12f916f1
28c8f4e9
cdff0831
f800ef17
ef05f2e8
df1c102f
13f8fb02
02010201
f9f90000
f901fdff
fbfbfb02
f7fffffc
02fe0301
fcfd00fe
fffd01ff
01fa0201
02fbfdfa
fff9f9fc
fefbfed7
1ad702eb
a9f6f224
27c80502
0d15de1a
081bec11
25c4f00f
1f05d61a
0b1cece2
0ff2f7f7
fbe11b01
f717ff2d
eeff08e0
2003ff04
03fafb02
fbfdfffe
fd0004fa
fffa03fa
0203fffb
fafbfe1f
4338f629
181f020a
06f0f8de
d2fecd08
06c7fded
17c9270c
f5c8d9ee
0be9e2f1
fc19fdf0
cce1212e
1bfaec57
3210c7c9
f9fe24f7
070beff8
01e228f3
1311e510
e8fcf4f2
0621daeb
00fe00ff
0000ffff
0403fc02
fd02fffb
fefa02fd
f901fbfa
fb01eded
eee2f103
0bf11311
21ff0afe
141207f9
ecde1615
27e20229
07ee2806
05fb16f8
fffa0e0f
041aed10
02ea1beb
d3ee14f6
03fd09eb
f4cdf5f4
e7eec8f3
fb2c2d17
0b000fe9
0d290d18
c5e4f00c
c603eec8
0d1b0014
ee2cf1fd
f4f823e1
110c1008
eff8fbf4
0c171610
faf507d8
17f7141e
e207d0fd
f719f7ca
04f11825
d50a2d5c
0e1cf52c
100114fb
ea07ecf6
ab1426d6
bbaecdd7
03fdfbfb
02fc02fe
fef6f9ff
fafafdff
00f9fafc
fdfdff01
fad8c123
3632c50c
0006ecbc
f525fe18
f812f41d
2614c7d8
f8ef15e8
14f67b06
0ae5c8e4
f6b2dcf2
2ae707fa
0b1af825
14fa221b
f5fef643
ed1b07fa
3f340e1a
09362d13
0815201f
12040311
18041f0d
da1b1834
ea1e1b20
162f3d08
f914fa1d
f02820e1
f201fc01
0203fdfb
0401fcff
fbfafbfc
fbf8fefa
fcf7fd03
01fdc5ef
e10004d0
15d0f85a
d5b1bd0c
1bd5cbb1
2b07d3e0
131c1ae6
f100f6f8
f01a1801
fcf10910
093d1306
e5e72af1
0bfefe05
f3e6bfd2
e7f11ef7
e9f31d25
fffa14f2
fcf011f5
1913fdf2
eb042a03
04da17f2
f4e6e41e
01b68cb0
2a152a13
f528302a
e9c7faf8
f9f9fcfb
0100fc01
fefbfb00
f8fd02fd
fdf9fb04
fdfefefa
fb02f7fd
05040401
f8fbf8fe
faf6f7f6
f5fcfb00
02f8f6f7
140de9b7
c7031aea
f3cc0cde
1f0db8f4
00161405
18fd2ffd
0fe1e919
1a081d3d
35240d2e
fee6eff6
12dc3629
d8e4d524
0ff824f3
ec06dd11
3ae2fe23
311fd1e6
19e025e8
1212f0e0
ec0f17fe
f8041930
0bf8ea03
13ff12fc
dc240019
23060ad7
d91a040e
09e80b0b
f8f7e715
071eddfb
10060ffe
0c0a09dc
0b1c14c8
e4feff02
fcfe0101
01ff02ff
fffdfcfc
00020206
fcfdfffb
fd013215
e3e8f2f8
01062f10
32b8ee09
0418fb0f
eefcf200
05d7c30c
04d4cbf0
e1df0209
03e215fc
e718ef1d
ee0efef5
e9d7ec00
c1fcfa13
1d0f133d
f30809b8
e2ecc5ec
f80b0dd3
e7074009
06fd00fa
0003fe02
00fbfd00
04fc01fa
02fd03fb
fd02fb04
fcff1e28
1ae916ca
d6d7fc05
ebe20cec
ece2020e
1504e517
2afefcd5
c9eefa2c
0f07fa21
160613ef
02d6fb00
f4ebe7b2
0c00f115
111007c7
b7f808fc
e80c15df
112011f2
eb000c14
25fcfb06
1d02fb00
0203fefa
01fb02fa
fafffdff
fefc0200
fc000102
00fdeb2e
2dff39f8
f420fffc
f807e2ce
f1102c49
04f91407
fedae119
16faf5da
1347f529
f61735ca
d5d40002
fc12f406
183214d3
f4f410a3
f2f11e00
fc1cf700
070c20e8
08f118e7
12121811
fee4f6e8
e603d5ec
aa2e23f4
ee203019
f50c10ff
1bd6ca10
2200eae1
eaf4ddde
fe0309fe
f6081ffe
15f7d0de
1715e0ce
0d33ecfa
03010100
03fc0202
ff01fcfc
fc01feff
fb03fbf9
fa03fefe
fe25f3fb
dc05e10b
f90906e9
1ae1eb0a
f7201009
ecf82b10
f5efdee1
00fdb0cc
e62400ee
00f61e23
17032efb
efff0eee
edee211b
ebfc011f
ebe814fd
04fafbe8
12f7e60c
28f00bfb
fedd05ee
ece82235
f3f2133f
e2e3ea12
f1d6d8ee
c7181810
f7dad4f3
defdeee3
f20cf6f4
fa0c0eeb
1b04f206
fd0ff405
0be72133
3b260e22
0df600f9
e31c40ce
f4f1ebe6
f4011503
f3fc0f17
d7ebf1e5
250735ea
d221cffb
f8e0fe01
10f0dcfb
eff0e207
3602e724
f71a1ae5
f402f1f1
c9180af6
d7b7fcd1
d9a8d219
dcc0e120
e4eef9f7
1efcfce6
ffe2f916
e50e471a
13e1f70c
e310e2fb
11090ef5
002d12ee
e410f6ef
e2f92400
f7c3e51d
0b04eb19
2e1e082f
34010b03
1c2b1508
ec18feff
c5080f0d
dbf80c38
f7b2d1f2
0614d9ba
0e041f1d
f10c0204
d3e20a18
f6eddae8
0e072126
e9ddd7e8
17f10710
fddd2907
f8f615e9
c8dc0ada
15f2ec06
2609f7fe
1f0ae517
07f0e9ed
efcafffc
011fe4f1
fb1b1a0e
1826fcfa
fef9fbff
03fafcf9
fefc0301
fbf8fafc
fc02ff01
fbfaf8f6
f8dfec42
1306050a
210c120d
141ffcf1
c1011f06
f7afff0a
1e250805
0ff9f013
f0f90313
11071b04
d3edf51b
edf93527
e7f50507
eabb1c13
f5351e0f
1513fced
04dc13ff
0207effc
08c903f9
00fafefb
fdfe03fc
faff0400
fbfb02fc
fc000003
fbfb03e5
01b1ea08
f20b3207
fafbdbf3
b72ee314
e3fa3af3
060c4237
39fa1c30
f7010307
08492d15
eab499f4
f1dfaad5
f1cdf1bb
7000faf9
00fffefa
faf8fdfa
05fafbfe
f907fdf8
fdf7f7fd
00041a00
151df101
fa123119
caf9ebee
15efeb09
fdf111ed
03dcc0e9
3e200cee
f221fcd5
21120809
effb07fe
ded3f714
cef40604
f820ec0d
2af6fce3
efd8dbe7
e004fe15
e5d10516
1712f813
23f3252e
f7c01ffd
f5f1d01b
d3dc0136
0514d717
30240fbc
f1260210
f4fffb02
1010eeef
26272b18
f302fc0b
d91005e3
f8030a16
f20f0926
0c071b11
ec111afd
d1f10a24
00e9270e
1e05f71b
fe04f700
03ff01fa
fefbfc01
ff01f9ff
fdf9fffa
fdfefffa
02da1d05
ee03ea1a
16f8152b
241af7f1
f409f802
b8e60617
e1920a0f
eefc02f3
f1eb080e
d1ddfd0e
fcef1114
2c1109fa
f61ceffa
fcfd0204
fbfb0402
fbfcfbfd
04020202
fbfbfd03
fb02fdfa
ece6082e
4019130a
ee1e0e14
0ff5d7f2
ed0a08ff
f3d5f2ca
d00fdee8
c1d10811
06e2c60e
f8f8cf6d
f6f101f5
0dfd0a02
e812dfbf
f70f23d8
e7deddfd
0304f5e7
ff22e6fb
1c1e1c00
f41e1f1f
052d2627
0715f80f
14fb2016
f4e5de0f
01eee30b
1506faa0
05330cd1
08070e09
0e00d903
01f906d8
0fe0efd1
f52b0308
dc1621f2
c2fdeee3
e0140e01
f9f80d13
ee0af9e6
0be7f107
ffbbf803
05fbfdfd
f90302fa
fc03ff03
fdfc0406
04f801fd
f8fffdf7
f4f8fe02
f4f5fdfd
0afefff7
02fff3fa
fc02feff
fa0104fe
e509fe09
27c6e2f1
1404ea16
ec0ed311
f9f5f5d4
1d1928fd
c9e7c49d
e5d8f810
e30b03e3
10371bfb
e0230d19
f6ee2512
06031f09
12f6f607
13ffedf9
1214cef9
270626e7
e5031cfe
fc121513
f4e40c0f
f6e6e1f0
031becf1
fbe615fd
f2eee2e3
fff806ff
f2fd0e09
f0dfe6d5
0a01112e
fe091e04
f4cc0539
f6c7da3b
33f8fcff
fe01ff01
04fd01f7
00fbfb00
fffdfa00
f800faff
f8f8fef8
010502f9
0403f801
f7fefd04
02f9fdfd
0201fef8
fdfcff0c
e9bfe51f
02dfee0a
1af601d8
07ee03ea
1c2b06e3
121f1903
ed85021a
2fe0baee
f413f418
03f825f8
01dadbff
e1fcff15
d8fcf5f3
f8f5fdfb
f9f3f8f9
02ff00f4
f603faf7
fbfcfefb
fcfbff1f
01fbf20e
0e14f9f3
080df8fd
05f4f225
2a03d8fb
0f07fc17
08001d06
080de5fb
e5fb14e8
fcfc120f
f72f0c12
1bd4f1fa
f1c3de1d
1efec929
f309def4
0a1d1df8
0217fcf9
e6ee1d03
f306041b
17e50afb
03fce1ea
f8fc0632
07f0e71a
2b23edff
25fee900
1e1e0001
330fe7dc
09f3dce3
b607e8e0
ebec01d4
0a0bf8d4
e80101f8
070b2616
0b17eef6
13121a16
c3fb0f22
f5cbf51c
eff42bdf
03eaf3d5
b7eff50c
f605f122
e4ff16f1
d41a2af5
e5f2f805
0e160e45
3e460220
f213feff
ebe0020d
200d0cef
ecebe4f5
ea0633f3
fcfbf81d
06e21a08
1a26f2f7
310214c6
bdfcf4de
f920ebf8
f21203f3
0c171637
19fa0acd
1b20060a
cc01fb02
10f1f905
f9170e18
2309bbb8
f902ecb5
d5240ee0
eebc1011
21f3fc00
faf4f9fc
f9f9f6fd
00fe00f9
fc00f9fe
03fc07fd
f902351d
1f275616
24da1009
1d0db810
ee09f3c9
df1ee9f2
e11efafd
fae9f315
1c17e20b
000a02ca
e4e8e7d0
eaf8fcfa
e817ec03
d7d30c18
0bd7e5e9
f801edf9
e7f1e800
ddf30ff1
2ddadd12
21ed0b2c
f59ccad7
0e0cede2
ea1f1423
f01514f1
ed051ffa
efb0f9e8
18ea2c02
e6e3e735
f2131000
0ff1001d
212ce21d
060f3203
fefffd01
fe0103f9
02fefc03
fc03fefb
fcfc0301
fdff02fb
f6071d1a
25e3fbf4
ea17ef07
e7f212f8
0c14e3ce
fd100fd4
d4fff7d4
e50cf70a
1a110ddf
f1e01903
1021dedd
ce0f0300
0d17fff8
fefb00fe
fe01fffd
02fe0100
fd01fafe
fbfffbff
0001fcfe
f9fef5f9
fafd01fa
fcf7f2fd
00faf8f9
f606f9ff
f8ff00ff
090abfec
de16bbeb
15100f07
f41a0120
f40cfecc
18011f0f
b204fafe
fa0401fb
fcf902fb
00fdf9fa
fb00faff
03fbfdfc
03fcfbfd
00fc00fa
fb01fdfb
00ff00fd
fdfefafc
01fbfcfe
fe0301ef
f0030a24
00ffee03
fcede517
18dfcef8
0304fbe6
e5060d25
fb373b04
e9f52118
1915e412
3806e4cb
06fff703
01edd1c2
f501ffff
fc04fcfc
fb01fbff
01000203
fafc0200
fdfcfb00
03001403
37f4d00e
080d35d0
d1ef00fd
ebfeffe1
1333f8cd
c2ee040c
dfebf519
fef80cfe
cbd32212
02e812de
2015f020
10030d10
f9e0ecfd
f9f5e90e
0e0808d9
ef19f3ed
f6ea06f2
e6fb2111
04fbfbfd
fdfbfbfe
fffdfdfa
fffbfc03
fbfdfafe
0301fa01
fe00fce0
f3f774f7
1fe5f02e
1d3cd4dd
f21bd8d4
d70a12e9
190d16c1
e2fd2028
df06050f
03f61716
0ed7f80f
1bfffef1
1329ecf8
0cfdebf6
12051017
134d0131
151716dd
e8dffb0c
e8f60312
f2d7da02
fcf9d304
16ff0de5
0e1f1001
dfb8fd00
19e4dfdd
e303ff16
e50b0f04
060b0313
1021e3f2
fc14030e
0dfd07e7
eb101cfd
1918f3da
0904eb20
faf71a27
1121e900
1f1724f7
c3102127
f9020200
02fe0104
f7ff0001
04fdf8ff
fa04fbfe
fc02fefb
f9fb1316
e9f4f5e1
22081b05
f4300a09
08291cff
1bc9e4f4
1c171114
031a13f9
15161f20
f6dac2d0
11c4ecd2
8ebd0320
1cd4e108
1b16140d
03eabdfd
f6f1ccf6
1611df0e
110ff5e8
0f031c07
15ee1feb
fb05dc2a
c9ddf69d
1be7fb08
15f0d112
f002f7f5
0bfbfffa
fafeff01
fcfbfffe
fafb00fc
fdfef601
f6fbfefc
ff01f6fd
fc1dfb13
d204ece1
210625fe
e5020408
18cf0012
1509fbea
d3d50438
e68109f8
f9fccc0c
0410180d
fc0a0ff4
ff2d081c
600fcec9
fa070702
0e00340b
05f8f607
0844150b
25101cd2
2015ea5c
0a01fef3
a700fa1d
fd8ed4d1
fafdaec5
e0f60bec
d2fe03ff
fffdfffb
fffc03fb
04fd04fe
fbfcfe03
04f8fbfb
fb01fcf8
faf8fbfe
f3faf4fd
f4f300fb
02f2f6ff
f5fbfefa
fcfaf5fb
36f5ccbd
d623ecd0
dfc91405
e705ed17
380df0e3
34072427
e8eedaeb
13dff8db
fe0afce7
fd0c1be7
f4dcf80d
f5df0c1a
f70d1116
fff3e408
dda0ffff
19dcd1f8
1dfbc6f6
f324e0b6
eef50627
11f44222
33040924
f4e4f817
28eee730
09140003
1023f819
26edfc1e
0de5c3fe
070bf8ce
e32224f0
dfcdfd12
1e0e0601
f4fa00fd
0402fa04
03fbfcfa
03010205
030204fb
fcfe0100
03ffdf04
e5eac004
2bfd07d0
13f40917
01eef105
101d09ea
121de2df
2c2aecfd
06f1f60a
f51cf2da
00dce308
08e418df
e6f21319
39210bec
1efdf7fc
fc18fef1
eae20404
e4f10df4
1dea1f07
e8fc02fd
fc01fa02
fb02ff03
fbfd0302
02fcff04
fbfffa02
fe024b04
ea06dccf
06f4cc01
f50ddcb9
0c1a0ae9
0dfdf9f8
310f2135
2e0c1c2e
1b30170e
f9f61509
0fedf61a
ffdfe6ef
03040207
e4aaf6e0
d70af7ff
ee110d23
22f9141a
031900f9
250a03f7
f204feff
050101fd
fe0403f9
01fa01fc
fb03ff02
01fdfd01
ff00e1e2
ab110732
dae9fa0b
0fe21003
05fbe505
f607f305
f4dc00de
ffd60e0d
fa17e2dd
1600fb01
0b27de14
e2fdfa04
c61e04e3
ad191814
ca0b293b
07f4231a
efd702f2
e4e207fd
eafbf618
f0fd1fd7
eed01bf4
04ffffc8
07f80d1a
12041805
12edd00d
f120dbf9
e9fa0df3
f0f2d0dd
d0ce0102
1db7e6f9
ee27bff1
ede61701
0502fd05
fbfd00ff
fafa01fb
01fef9fc
fef9fffb
fefdfbfc
b5130ed4
d1defaec
0e0b2224
0e28ef27
2b141516
2523153e
ebc46112
fbd90212
e427e7b5
94ecf609
00b8ef12
1606fa09
2931100a
2bf6f6fc
1c18f0e3
05fde9f6
f0043afb
f4f316e5
03ebe70c
374706cd
02ef2005
fb0a051a
25271b08
def009eb
e0eac4be
14e4e6d5
1906f716
3927061e
10110a27
3730e90c
1efe2a0d
14e1fc1b
10fb0208
13c9ebe5
d519280b
18360b17
f9032d1b
d7e4ecfb
ed181001
22051632
fa1d0f2d
050c0627
250cf6e1
2b0fe03b
07d8d60b
081703f1
e6dc17df
f4c1ec2f
caf08a23
0c8c99a3
fed91f34
0afe1f0c
121feff9
242f01fc
fa251705
18f002e6
fe2d3794
2d161405
9a06ea1c
f8b605fc
38e9df11
06f0f4ca
f2e7b5e9
ff9220dc
e4ebce09
f217f4e8
c0d70ef1
dad4e406
34d5f3f5
0b2e10eb
e4081ceb
14edf42b
07d1eeff
1dcb0bce
100aef00
3bd1cf99
bffa2a30
ff010c14
1e09fc0c
08ebdefb
10ed9af0
f0bd1729
eefdc50d
e1fd05d2
f601e2c7
d3011e19
e2cd3a3c
3433fbfa
fe01fcfd
fb0102fc
00fefdfc
fffe03ff
02fef8fa
fffbfae5
c996f82a
0fbbeb11
1012d700
f2030db7
d3e40d03
d4a7132d
e202d5e2
0aefeb16
bce21bff
93c32022
dec9f009
eced232a
34f7f632
e3fcf8ec
f418042c
fa12fbdc
f6fff730
d12b0731
15d9fdff
fb030001
0104fd04
fb0302fc
01ff0404
fa01fefb
0300fbf8
0f1cf20a
061fedf0
0ee61029
0df4c1ef
dfc6f1f9
04cc061b
320e07f4
0ee00ef3
16eb260d
1107eb0f
fa1dec9c
1efdd9eb
32f703fb
fef902fd
fbf9faff
02f7f9fb
fefffdfb
f8fdf8ff
fef80cff
06eb0b03
0ce50f1e
f6fc09eb
1ccffa0a
07090604
fcecce06
1ba9a8cd
09e0d6cd
f0eff4d1
cdf41bc3
ace1f91c
f5b1e8f0
140e24e0
e0ec071b
04dff802
0204fa02
2409e4f8
dd215c06
fc1d02f8
e9a01cfe
eed80fef
e4ea0627
09292311
fa334cf3
fe45fcf1
0cf72125
f4091219
e8fd3313
0cd4d71e
f8f9fbf9
1ed8e52a
e204fd1e
4300efff
f209fce4
07cdfffe
0ff7d6e0
eb16291c
fb000104
02fc01ff
03fafcfa
fefc00fc
fa00f700
ff00f9fa
f8cb0f30
070ace09
fdfdf9f5
10022d01
ee33fb04
d9fe04f6
f0ad3b11
eaeed1fb
e4120419
f30ef503
09f51803
08fe22f9
c91707fa
0104fcf9
fefdfe00
fd030101
00fefc02
000100fb
fbffffff
c012ccdf
041a08e3
0a281218
f91821fa
f605f50a
10241e1c
dffc0001
bce609f7
fbede100
0af0e300
082e0305
fc1f0f01
efecd4ff
ebfd071e
27ff1c0b
1c1d3303
1b0d4015
24f4e0f8
09f20e41
1532ccef
0f081a1b
e4fb07f9
13e5f6df
f811bcef
17d21ebc
100806ce
3609390d
e2100405
f1def3c1
27260623
d927e601
1226150c
1207f71c
f133151d
24fd2e01
2a08faf9
ed090111
d7eafefe
0404f905
fbfffe00
02fefcfc
fc00fefc
02fafe02
f9fcfffd
fef9f401
fcf9fcf9
fd01f3f4
02f9fa02
fb04f906
fdfef903
f6fe22fe
06fef5fe
0000dc1e
16f7ed13
201deee7
03f413f1
a9e3fdfb
eff90605
f2f10608
03f1ea12
05edf8da
e00e2907
07f8baef
f61be9dd
122f320e
1c09fdfa
f303fccf
fdf6fbdf
95f73822
f7f30201
1bec1803
f529fa07
eb03201d
f12df1f3
1cf30d10
b103d70b
252211fd
09240418
140d0e29
1cead706
f1e6dce8
23030102
0204fffb
00fcfcf8
00f7fff8
04fffc05
f7fef9ff
03fa01f8
f8fafafc
fdfffb00
fff60101
fffbfc02
fcf8fdff
fdfaf528
1910d10f
fd3f00f8
1a0e00d8
090ad6f7
f9e802e3
d0360ced
edf2d903
ef0700ef
a0dedefd
11fb2317
023c2a12
0109ef2d
29fafbf5
f1faecfb
f601f207
f9f8f9e4
fdfaf9f0
fa01f1f1
ee02f309
cb0c05f2
e8f0ecf1
16fcee0f
0b0bd5bd
f302f209
03e10f2c
04e81932
16ecc4fe
050df9ff
f51e090d
0a0100e9
212644ea
fbfb06d7
e2ce070a
fb1b0d10
f2ef0c03
dbf10ce3
e7090404
d50722f4
f6ff3002
1802010b
161e2014
ec16ee0d
2ae7e300
262d93cc
0008d2b9
f5102103
e5fe1247
d00c0926
2eb0050a
25f3d5b9
f80e14fb
fe303006
ea120138
1100120d
eeed0e24
f0c5e224
190c15d6
e60a24f4
ff00010c
321e062a
fc1b220e
04f7242c
f7e9bdd7
c6e8f708
e6f31220
2010030a
fb0d16f8
1423d6e0
0b24f9e9
f40aed1c
fe191e03
ee14d2f6
09162ced
08001304
f514162f
190904bb
2906fff2
0532ecf2
0be508d9
171ff108
c41108e4
b8ffef21
2af841f7
ebfee1e8
f9fde5de
10ecec0c
efeb1beb
2dfbf902
fef2fef7
0603fcfd
f403fcf5
fefbf004
fffdf7fa
f8fcfffe
ec122215
12ddf4e5
eae1e1f0
0bf8ebbd
db0209f5
0ffcda03
acf2d322
e6f9fcbc
1210f4fd
1d0ff7d7
d3c41eeb
c4e0fe04
da10e5fe
dab3d102
16e6b520
141701de
2711220b
3ef3ea0e
020a25f9
11c200f0
ec05f707
f3ee09ee
bd281d33
f214190e
19e927f1
18d3fd05
2801d5dc
12431401
ecea111a
03fc0c09
160d0400
fa040101
fafffafa
02fa0302
fb02feff
fdfafa04
02fcfefa
11c11727
17d41404
f3e4edfe
1bd7f322
2313f4eb
171e0ede
e00c3a41
1dfd2409
2102eaeb
fc090c23
f7fe0f0a
ed23fbee
f81701fc
04fb0200
fffbfe03
fd01ff00
fafafb02
0000fff7
fd03f702
fafcf6fc
fefcfdfd
fbfc00f3
06f4f8f6
fffcfafd
f100f800
23dcc0ca
d82ceff5
f5081af0
19342713
06292603
25de2c42
eafa0202
01fe00fc
02f8f800
02000100
020201ff
f9000201
02f90001
fcfffe02
03fb03ff
fc03fafe
fa00ff00
fbfefafc
fb03fcb6
c81b0ffe
e2e51419
25ed1103
11ede206
0c081805
e5030c1b
e9cae4f3
eae3edfe
fe090703
f80b12ff
0c0e1d09
2e1c0ec3
f1fe0401
00fcfafb
ff0403fe
02fa0201
04fa02ff
02fb0002
03fd30f0
0c27ebed
39e9e6b5
edcee534
ed1af20b
0a00fe14
3009e5c0
e009dceb
d1f80d04
f9bf0b20
0af8e6fc
1d04fae0
eb1d1109
02e61f15
fffffcfa
ebf8f1d0
fe25f9d2
101af8e2
ee0721ec
1bfe0100
fbfcff02
fbfcfb03
020301fb
fefcfbfb
fdf9fefb
0003190b
151d1206
e6f10515
ea08100f
f9fbd4f2
011af7ce
0e09f2ea
eb103201
da1d2d09
ef120c05
12ec0c18
deea1e28
0e03f7d3
48f0ec06
f8f6ee1c
fd1cd912
172b04f5
d9090ec9
190c0201
add304d8
231700f7
1d17180d
0fefe124
115bb600
ecfd29e6
0e08faf6
00050d06
31fa17fd
fbf50426
f8d7e70f
0b411fe5
e9fd0cf6
e40a0b0d
0c23bcb3
eb0910de
daea15c7
e5e4fa3d
07c5c606
02f9ff00
fb0102fe
fb0000fd
fbfb0300
f7fb01fb
01020100
fd2df11e
060401ff
0e251ff0
26f2f5e5
f914070d
13252ede
04f91f23
ec11ee0f
0604feef
ffe703e6
f9bf0dcd
d8dd17d2
80dfc90f
c8f34328
15f0efe4
f9f4ea09
0bf7d4e8
0d12fa24
2a410734
3f182d15
0941fe00
1e12f9ca
ee14ea16
f4ff06f1
f80d17f9
e503fd03
fffa00fc
04fe00fd
fcfbfefa
fbfcfb02
fc03faff
fefc2117
9dad0e10
e8ecbaf3
f7f41c2e
18e7e519
2735eaf4
173701fe
8e05130c
eabefaeb
12f1ec05
491dd406
1a2deaec
07113c0a
3906d2ea
f706cdf1
fcf5f3ef
f2ec0102
09f7ecdc
f11bfbd1
fefe191b
26f7022b
df0826f8
ff09ecfc
e202faff
ccf1090e
f2f9fdfa
030403f8
02fefcfb
f802fffc
0200fffe
fefcfcfa
01fe0005
02f6fdfb
fb01fcfb
fb0103ff
fcf30105
0208f7f5
fb0608f8
f6fd06f3
0b01f6cb
f608f5fe
d50dfee3
c9e2effb
0c0afe11
dceaeee4
eef2dde5
2153f926
2a21f8f5
fc18fc1c
1f0deb07
1afa26f8
f1f2e625
f7f0c7c8
00ddf0e8
fefeef15
d605fad9
cde4d5e9
dd1621b9
fd1208da
d0102113
f01f2916
c4b80af5
f3e60a0d
0a0f1a35
8b3e1e07
03dd0c08
0a02eafb
04211420
15f4fefe
11020403
ff03fdfb
fff9ff04
0103fdfd
ff00fdff
fffc02fe
fbfbfb24
1febc3f1
00330a26
090d391d
1f074327
1bf5053a
fe1bb727
2104fd33
29ffded5
0219f8e5
1720faf4
ee06ec05
e30701d7
caf71108
10f0e305
1a37dddd
fde9f3d4
18f22609
e1fd0b34
0c03fefb
01fc0002
01fdfafc
fd03fd01
03fd00fd
03fdfc02
fbfb0410
1007f511
e611def2
19f3261c
09193a12
e4fb181f
201e13c4
edf11025
cec5f4f6
18122123
eb093513
35090602
fa18200f
3613130b
0e02e4f0
0219ebe3
f22110d4
fc0511f4
ed180a39
11fcfd01
01fa0001
fd00fa02
fcfb00fd
fc0101f9
fdfbf9ff
fafbe5d9
0b0be1fd
f41dd7ee
f3c83314
11ecff19
152103eb
170fd3d6
f9e70701
00e4ff0b
ebfe05f9
c5bcf1db
ebdbf4fe
02f409e1
05150cfa
bdeb0f2b
f0dcee24
f2c8def0
e9ccb524
fae1e537
ffe0eb09
05e1dbfe
e510f1f3
f2fe0eef
0d0eb929
3bfdcafa
f90c3712
061cd00a
c5e62eec
0dceffff
4000f9fd
f625f9f8
be0e08ff
fbfb00fa
0102fc02
f900faff
0201ff01
fbfd05fd
0100fbf9
110a170d
07f83108
021ee117
0d0afde9
060e33fe
f1e60429
3e07cbea
09e2eacf
310b2cdf
f9202203
f111d0f0
240f5515
00de1df9
ee0c192c
fe0103d4
f1e9dc0c
cefcd61e
e7ea0b0c
f6defcd3
0df01901
f5c7fd18
f6f7dc05
13f6170d
0d2404ff
2af0f727
0ffafadb
07dffffa
d514f413
f8eb0304
e3eaecf4
dff6cad6
06f60e05
0403314a
22f2ff12
0be602e7
150318d5
36f6e3fd
1b12d1fe
3a01f30f
08f10bd3
05c1dbbe
ddf2c6e9
f31bf4f9
fd18090e
f0f2012c
08ee0306
e713020a
0dddf8f2
fdc07e1b
0f978ac2
1cbf10ea
15e3e6e3
112ef4fe
f501391a
04171028
0c19cecb
ff16ca00
dc01ef10
e90ef0ee
eed41607
c716e82c
e8e0d7ff
2128dc01
fb0704e2
09fdf118
2ef6f818
07250d07
0a12190f
24dcd110
d2eae7e8
0205db1d
2afc1615
fc17e84a
333f1c12
063722e0
d10132fd
21d5f2f3
1622d5d0
db1b0d03
26c1f5fb
f6e6f825
2106e8f4
dffb06df
11153e08
0a020420
cecafde2
05fe1208
1209fb00
ff03ff00
fc01fafc
f901fb04
ffff01ff
00fd0902
030704bf
e7e6fb0f
00b0de09
ea01ed1d
1518040f
11f70b0d
16f7ddeb
0e1d01f1
0a101239
e7cef605
300e0b0e
0423cffc
02f1f604
fddeede5
fa00cfd3
18e6eae3
0315110d
e00a0101
e5fcffd0
f2e4fc04
fffa00ff
0005fffb
fe00fcfc
fb020100
f8fb00ff
fdfffd01
ecf7bdd0
0416e3e7
c42f0a31
ff0b04ee
e5c9191d
d925e537
1a1a1f0c
08ec0434
2d1fecff
2b1122fe
140f03f5
0e1fc8d5
c6f8fc00
f8f9f7fd
01fbfffa
f8faff03
f7ff00fe
01fc00f9
f900071d
0d082605
fcf10f30
eb14f90a
3804f9ff
f00e18f9
09f6f8df
1ffbebf2
ec1005e9
15ef15f1
2942f81a
0803ebf7
de04f20b
f81b18f1
0611311f
fc0f09f4
19171eec
dc4c231e
f4c315fd
0ef51e19
f6fdfd1b
5029311f
27d8f700
edfcbbd3
ae0a4612
05f80cfd
0727edf3
de15090e
0524fc10
000e2001
3cff100e
fa261009
ed0d14e4
efcbf4f8
07f81134
21eddaf3
1426caf4
fa2f0cda
02faf8fa
fb03fc01
02fa02fd
05fb00fb
fffefafb
ffff03f9
02093232
031ff1e4
140bd3f5
fec8ebf1
00ea2b13
f6fc0804
2f1b12e8
efe90aff
0ce11825
e13b18fd
0edf19e8
f8f70006
fcdbef03
06fdfdfe
fcfffcff
f9fffa00
f9fffdfc
fbfaf9fe
fd01f801
1efc2400
f0d30812
a50d02fc
ee0b12fe
1dfdad92
0d07fecc
f70d2737
da1905f6
4720041e
21b2e6df
fdfdceb1
3cfee8e5
0adeeede
f0fb1ae5
dedb18fd
96dad984
d1d8e52e
37030531
14f31ffe
f3f0f416
2dfefb1d
351ff7d5
2d28eaed
f6ff2ace
cdc7022c
f623f9f2
e4233229
f1db2234
f80be30f
f122edee
0d0122e8
c40a1925
ee0c15f4
ffe02011
e7e717bd
01e31ce5
f80af34c
f2c900ff
fcfa00fb
fb040000
f7fdfc02
0102fd02
01f9fcfd
0007fc04
f8f902fc
fb01ffff
faf7fafe
08fafff7
fdfa00fe
fb02fd04
e9071218
65e11bc7
ab32b7c2
dd000ed4
e2eb0e36
f4f50a07
11fc29fa
1ffbd9fc
e5eff5db
df0bf92e
be10242e
18e5d11e
ebf8f9f9
2b21e6fc
231c091f
ee14f312
06fde2e2
0b10f404
fffc2745
24d1ff10
0ff0c8fc
08041b18
1f35faf6
f6162c13
eaf225fa
d81c0be8
11e5d7f0
f8d0e3f3
e91a120c
31fdd702
0725fff0
15fbf700
f70002fa
fa01fdf7
f8fd0700
fcfdfff8
fffeff00
0104fbfe
fbf8f7f8
fbf90101
fcfbfbfa
fc02fa00
0700f905
01fa0124
15e3de28
fafb7eda
e80805eb
ff02f80f
c8fbf414
00ee0225
18f834e1
c1fbf9ec
010e1727
12f503f2
09dd0e97
e902c2ea
c7f20003
faf7f7f4
ff020002
0507fe02
f5faf8f5
f6f7fef9
f1fd16fd
e9fc0bed
f929047b
de0416f8
22f209ea
22390003
db05da01
f2ff0128
1ce6e5cd
1005f3f4
01d80529
1e12f509
2214e8f2
1c0c0afe
f70bdfe8
19e815d0
d2d40e1b
b9bef107
0fc4dc19
1c1a05c3
f71a19ef
e80bb701
ebef0ffa
f802fbf7
eb0ce817
d401c2ed
1df2030d
1ae1edeb
0b0608f2
f0f2ea0f
1cbf0116
01dfc6fa
101cebe5
021229e1
f11e11e1
c0f30e0b
08dc2901
06fbd1e7
ef23f6f5
24e205fb
0e16002e
f7efe50f
12ca0e17
01d7e3f2
f0e7fefa
faff092c
2d361f18
f9043224
f5eb05ea
e504c3e7
1615e813
ebed1c0c
ecbbffd0
f1fcd1d8
24fc0ff0
e0161016
bce40004
aec1de2a
d4f008de
f4012e09
e9000500
1c2120f0
0afcfe03
ed140428
1f1b32c7
19e90bf8
f01a01cb
b5c6f9f4
efe9eb1c
07fcfcfe
fafaf902
08ff01fb
fe050403
f1f8fafd
f804fffc
0507e7fa
1e1f6bec
eeff10ea
013726a8
0405d901
e413f80c
1100ff03
f5f904fb
16f4fb13
1b312602
22f1fdfa
10f3ddfc
ef0405f2
25273807
3bd22813
06258ec6
f109358a
d90ff4f2
c42e10f3
d9f60a10
05f5e600
f4350bf9
cdfe043d
dfe2f4e7
f50adf35
22d301f9
f4ff2420
f1fd00ed
faa8d5f0
25ff7de6
c91df8a9
0ce713fa
04fffbff
fafafff9
fe02fcff
0202fa03
fdfefbfe
030301fc
05301317
3df02830
351accf0
1011d4df
cb18062a
fc251c0d
cce6e9e0
0c201211
031428e4
1027f0f7
d8e8f6e0
f005fb0c
0817fbf8
ff04fef9
fc01fafe
fefefcfe
fbf7f700
fff8fc02
fef8fff6
fcfb03f8
f0fbf4f6
fbfafe07
fffbf9fc
fffd06ff
faf4fd01
4902e6e6
11fb10ff
f5fdd1c4
01f211e7
d30106fd
0a21070f
1bf9fdfb
fefcfd00
04000001
020003fe
fe02fc00
fa01fefd
0102fffc
04faf8fc
f8fcfffd
fef804f7
fcfafafb
fdfffefa
fcfcf916
0c060a06
0c1ffb09
0b422dfc
1c102b15
f6f7ee0d
ff16d914
db0cfb1f
2702212f
372805ff
09072fe5
ee09e204
f7aeec0d
08ff0301
fa020303
fefdfefa
00fefefd
fb03fffb
f9fcff02
fbfc01f5
11e0ebf4
f8dfe1e7
f306081e
2cf1261a
25f6ee12
220af70e
0ee5f41f
2e03f518
1afef9d8
320dfeed
d4e2f2f5
dcdb0103
110a0df3
eb28fff6
dd05eef8
efe9df0d
e42cfee6
10fd1231
060000fa
01fcfaff
fdfffbfa
030103fc
03fbfe03
0101fdf9
fd01ebe5
190ffbca
e6f1facd
1019e4da
d90016d9
d8f223ef
1d0c00c7
c8be0a2f
dafbccc3
16e7efe2
fa210c14
07d7fcfe
0917f9ea
f8f2c3f1
fb041108
0b0601ff
eee72905
fdfcfb3d
f6ecbfef
4b3118e8
03022102
e9ee271f
251d101b
1e052409
c52c00fb
0a1de9de
fb051514
03f6de01
e1fe12f9
1802f414
28fbf523
2d14fe1a
0a09fcd5
0d0732fb
a6f7eb3c
e8faebec
181d0600
03230703
fefbfafd
f80000f9
0102fcfd
fa0000fa
fffb0301
ff00fcfe
fe2a1108
1e1e2d1c
fb2cd30f
f416f8f9
2ae7ead2
0e0df2fb
15213c2f
d20235f5
f6edfd17
f7fb0f24
15d62911
0a0cccfe
fb141322
211d0bc2
250ed0f1
e11103c7
fdee12f6
0402d104
d8fcfef4
fcf901e3
f00d171c
97d61712
1fc48d1c
132edf17
20062103
eafcf9fd
0005fb00
fff9f8fd
fc01fafd
fdfbfbfc
fd00fdfc
feff350b
1803eb06
0c0b1205
ea15021c
f9dc0e09
25e6e3ef
062d0b25
1ef90b3d
1feebd04
00f4f1ea
fcea16fa
020c0d01
18e80d11
da0c2029
1cd7101d
e8e4fb25
09e5f41f
f4f601ef
0d151001
daf5eff3
04203cf1
11f61121
f9fffd13
fbf9ee05
e9b8fa06
25fc01f9
030100fb
fafd04fb
03fcfefe
fefc02fc
fd0404fb
0502fcfc
00fdf8fc
00fef9ff
01f7f5fd
fff6fff6
f9f7fff7
ffff04f4
12080e18
f72204fc
faed1203
ea1627f6
07f2edf2
fad1e4de
db0a1728
12fbf61f
1cf2d013
05dce3e9
e100f535
d4f6fafe
20d41809
09161ce5
00092b0c
e7ed1208
d5ebf415
f70b0d0d
f9e6ec02
101006fd
05220bfc
05043922
ae1dd9ef
0407061e
02edf32d
c0caafc4
0fe5f113
edf82e1d
1c121c09
0d00050c
f5362f0d
da02fb03
fffe04ff
010301fa
00fcfdfe
f9010103
fb01ff01
fe030af1
17211ccd
cde3ed18
fde92ce7
b6e9ecfc
e6d4142a
fe1b06f4
ed172c12
050a0afd
0ff2f40e
e90c1cef
ece81d16
ff1607f3
16bed2dd
1f13e8ec
1515db0c
05f50af4
f3f21735
f7ede01c
fdfefd02
fb04fcfb
fefffe00
0203fffe
fefb00fb
01ff00fd
fefcd3c7
f60422ea
1cfa0aeb
ece6e3ec
ff20f818
f1031728
113ff638
0908ecdc
2b43fe24
0dcd13f9
0feb3bb1
a9f4e4b1
9bd0e1ea
eeed2128
30ed1508
db25e006
dc07f0e5
f30108ea
20271108
fbfffdff
fafbfa00
fdf90000
faf80002
0203fdff
fd03fff9
f802f7f4
15071bdd
f5060bfe
190ee41a
ee0bf800
12dbca05
e1dd07d8
0729f90e
02171511
08cd0205
3916e8fc
e9161002
ef11133e
ebfbe8f3
27f900ec
10fac7f4
0913f1ed
21e314ff
c6eae623
f7ceebed
081009f4
ed040e22
eff20c36
f4fdf6df
d81816c2
effb05f8
fd0f112f
08eeea06
1c1ecde5
5320f59d
e7fb30d2
7dc1dc00
fcfefcfc
00fafbfa
fff9fcfc
fb01fffa
fcfc0504
ff0401fb
0ef2030a
0d26fefa
f525e7e3
0b2506f2
08fd0f1a
13e5cc16
4996d3f8
0808f0ff
3333090f
240e2a03
0f11fdf2
f9f5fa0b
0bd72003
0afce00d
1c06fdd9
caf508f1
dcbbf601
0bc2da14
e7ff9fd3
06eafef8
fffcfe0e
dceed90e
1be2e5f8
22171931
f11c1cf9
45f00d2a
20f8d3f8
f616d1eb
b9f912f1
d800031d
040c0a0a
2001aed9
0a13fed1
f2ef17dc
fae5f511
cef5e30f
143308eb
3332ee02
270b1dda
181807e8
0feccace
cbfa1be8
f5dcfddd
ce08e104
09fe0c0f
eff7f907
f327040d
fdf81a04
1efdeef8
0709f307
17fe0e30
06f7370d
dd02eee6
ebcce9f7
d6fffbfe
c4d50b04
d40bfaf3
e30a1827
21f7faea
00f606c0
e13decfb
06b4edf9
010bd606
160f14f0
0e201f12
0e14ff00
171df8fd
080f370f
f810191d
21141c10
f1190e17
2d0a00f0
1413e0ec
de0a19ae
e6174811
07ef1302
deeb0a2b
fcd1ef06
f1ece200
f6120efc
fb1a0b0a
0139eb0a
010f0bef
fa0413f4
fd0b27f4
08220af6
f52801e5
1306f7fb
fcfffafc
00030103
04fc0000
fc02fcf9
fefdf8fa
fdf70111
36020607
f70cfb0e
edf911e4
0bfb1efa
0a1eff0d
2432310a
fbe1ee2a
4afff007
f512e8ea
1d07f215
0a01191e
1b0f161d
f20d0be2
eded2317
12f9220f
fb9fd2f9
cff3f3f5
041e19ea
0ac5fc01
fbfa04fc
04fbff01
01030204
01fafefa
03fdfdfd
fcfdfff0
fb182a08
edff1603
ebf9060f
ed1520ff
15c01118
3317e134
f8e0faf6
efeaf0e5
1316ff08
100de9f7
0e12e7ec
d8fa07ca
c7fffffc
f7fdfaff
fffaf9f9
fcf9faf9
fefb00f6
ff01fef5
fbff03da
d2c6c1ec
d0f8e8d5
eeec00df
ec26e80f
1a186415
fd134514
04f5f505
dde5061d
060effe7
211b0df8
faec2919
3de8b41e
1bdd0d1a
fb0f0207
def82d20
02e8e32e
fa15f2da
fdf7f6f8
16dddee9
041201d3
0d1b0fe6
f8fdf0ee
0a151fc3
bade163b
06dfdc11
cadc98f5
ff03ece9
fbe01a0e
1def121f
06e5f5e3
e0f23c49
1c2900f9
2101e303
193703d0
0f29f2e2
d2000916
0ff21706
fd030102
f7fbfdfa
f9010002
fcfbf802
fcf6fbfa
f9fbfdfd
fb1b07e9
01170122
e7f91b08
10df20e3
07e0f714
ea12e5c9
ed170219
12220a32
fa011b38
f5f4e1c1
eceae4d6
c408eee6
f0f601fb
fafbfe03
fefffcfe
fafdfefb
fffc04fa
fdfdfefc
000203ff
1e141e29
042f0207
04f811ce
2e17ebe8
de01c6fa
f688bbf2
e52bf61d
2a21e1f3
1728052c
0ef8ef41
030bfdd1
72fef0c9
d5bc021a
f0da170b
f90cfffb
f2fc0523
f3cefc07
fdcfe3c6
f20aecc3
f6f1dbde
f4e0f6f6
18182512
05212bd5
e3fd1a20
0b04226b
dec32218
e6cddf03
0fc3f001
1eeebb15
f414fdce
14ee1114
c42d2102
23370e0a
0f121b18
e8d2dfb6
e0fdfbf1
ecdcf2f6
f19b05fe
03f903f9
02fefcf8
fc00f9fd
fef8fbfa
fdfafffc
00fe00fb
fbf6f5ff
f8fbfbff
fb020101
fdfb04ff
f7f902fd
fffaff0b
f0141aed
def60fff
ecff1821
02e92511
d7f600fd
92adcfeb
f7fafc08
edf2d8de
f1fbf717
fe07081b
09f41b39
2be7a7c2
e72efb14
f2ff0bca
f3d1fa00
2517ed0a
0b0e201a
fd16fd0c
46372218
eeedfdfe
1603bdc6
aef5c5a4
bbfffbd2
e0fc0af9
fc00121b
eeecff0d
0210b3e7
ed28fbe9
cefefee6
d1fed6e8
d2fef5f9
f0fdfcf8
f8fafafa
0000fbfa
fdf9fefd
00fffffc
f801f6fa
01ff02fc
fff9f700
fffbfdfc
fcff03ff
fd020001
fbfc0105
0406fa10
ff0c3334
0ff4f90a
ffe0241d
e7b8f407
21f2f3dd
fa2817ee
c0d4bef3
06dfeeb8
e724fdfa
ce06f4ac
de052232
381a2306
eff7fbf6
f2f4f7fc
f5fefaf6
ffff0600
0e00fef6
ee070bf7
faf8d101
0aeef6f5
05ff001b
ca2516f6
eeed1203
04f2c6ee
22101c17
07e7f9d2
0bf2f9dd
e90606fa
03fe13f8
e7f826ec
0f1d3806
0beff415
0bf60f11
03e0f307
1ccddaf8
04b50f13
051fe705
11e5f828
f2f708f4
01f904e7
1503110b
f71dfa0a
f41014f2
0ae2f60a
e8f624f8
dfdd0cfe
00fec92d
1be3040b
31021cf3
01274904
1ed010fb
0bec1c00
befc05fb
f606f3f8
cbe00211
302f1907
2d09ed21
0cfd1ae6
f20d0bfe
0f041bf2
0cd8fae6
2925cd0a
1b091d3b
ffeef1fa
15ebfbed
f404fb09
1cff032b
00e70ae8
ecf9d324
0c0aecf8
0b10e5f8
d012edf3
e1c90518
1bf21a21
eec8b4ef
f7f81039
ecee0e21
0d23fa1c
22d9e0f7
c4dc0def
ee982411
361d0700
26df0e1a
121fb6f6
f507e404
fdeab5e4
f809bdb5
ed05f6f0
f8f8fcfa
02f5f2f7
f5fffaf7
f7fff9f6
fff5f3f4
fdf9f409
04f70ae6
0bf0eba7
092debf2
ecec031a
fed4d8c8
ebc8c723
1a08fb1d
e6e6fcff
fa08ecfc
01231820
07131530
49001b37
4e12f4fe
ec38240d
ecf82220
ffdb080f
f6fafe11
fe272af9
e0290920
0304051f
232419e9
eef6d423
07f0090e
230ff012
002ae307
e7fcfc00
eafd06fd
e9df02ef
1819ffea
f5e2f0b1
78dbbd02
fdfcfd03
fa0200fd
fd00fd03
02fdfdff
fafefc02
0203fb01
21220ee7
f30dfdec
dff4d40d
eae3fb02
fff0ffe3
d4fc06f2
110d05ea
f7e40af9
3226fc2d
cbd73e04
baacb3fe
1783cce0
01f30201
00fdfafc
fc02fefc
fcfb03fe
fffbfefc
fcffff00
f6f8fefd
f3040101
f8f9faf3
fdf600fc
fffcf1fe
fbfffff5
fefe04fe
e5eef80a
0f0b1507
f802051c
1a03f218
210a0fe9
e8ceff25
2cfcfcfe
fefdfafc
01fbff04
fafcf902
fbfbfefd
01fa03fb
0101fcfd
0402fcfa
fdfd03fa
01fe02ff
fd04fc00
fafdfd04
fd0205d3
060aef0e
bce40706
0d12140d
f1fb0f17
1dea041c
46efe1eb
17ff1315
06faf50a
f21c2917
0ec9e813
001fc0d6
1207f8f0
d60000ff
04fafbfc
fcfb0400
ff00fa00
02f9fc02
f904fe01
ff0321e8
ed0e00ee
eafc3b27
f2fe04e2
ffdbde17
200b302d
2ef5e0e1
260b14f8
ef010909
070be2ea
dbf43bea
efdbf93e
360fb37d
021a1612
f62510fb
08ed1b03
08faf10d
13100fe6
e9f50c00
1dff05fd
fbfc0400
01fcfefb
0000fa01
01fcfe01
03fcfff9
fe032c24
d3f0fbfd
f3000121
0bd9ff0a
11d20113
e1ed1bff
f619c625
18faf2fe
fae8e017
01c1dad9
14fdf6f6
1f2a1ee3
fcf4f525
beeb0719
fae7e811
06edec07
1501e9da
0cf1cde5
fd11dbfb
dfcfdceb
e402c2a9
f01be5e7
cfef0c01
00fb20e1
edd8d0f6
f3e8db03
e8e817f9
f6f6e1cd
0609f112
e0a6c326
1e05b0d0
f5e80a03
e8e21516
eeeb1917
06180526
171ce308
e2f9e9b4
7780afdf
fefefe04
f8fafdfe
f8f9fd04
fa02fdfb
fbfa04fc
fe0502fc
fcbf07ff
f7ffefed
0d1d141f
dced0a1f
0607cb27
281bf7ea
2e03dcfc
0feed81b
f0b0a1e0
cdeedcf2
eaf8fb0e
1921f628
16393bf9
e2d6e8f0
02f305f7
1af7fc12
181be409
12fff520
2c1819de
0713fe00
090906ee
fa102710
f41944ce
02e9e9d8
f1210620
2302ff01
fafcf6fe
f80302fd
f703fefe
01ff00f8
f804fc02
00fe0e0a
e1ffe92f
f1f2020b
f9fde1e8
29cbecbd
d310f2ff
f80013fa
0bf9f2e5
2305e804
14f615dd
cf031af5
ecf71beb
2933173b
23ddfe88
c926f710
e4e50d06
08f800d1
23fc21f8
080ef411
1d14fa04
f03ef1fe
fce5fb19
0a06ffd8
feeb17b8
c4ee2102
1ae900fa
0001fafc
f9fbfafd
fefbfefd
fafe0402
0002fcfb
04ff02fc
fcfdf8f8
0202fbfe
f6f3fcfd
fffdfafa
f601fbf6
f8f7fcf9
ffe303fb
881a180c
1cf13a36
ee0fd802
fdf51724
faff1f1a
1fedfd10
fa073c1d
2f1d0c03
0ef2fbbf
000aedf8
cfdb0ad5
eadd061f
f812ed37
17eefa3e
0230ee9e
f1ff0ad2
03e4f11d
fa020409
ff19182e
1b09e707
010e00fa
dd2201fa
08e22cfd
deec110f
f4e40423
fae7e80b
f9f0ff0c
0b11ecff
09121001
fbeffa05
23fb0402
fc02fcfd
fdfd0100
00ff03fe
fc00fefc
0200fb02
fb040ef2
dc37f4e6
d1ef3012
f7f0e1ff
13d9ccf2
f512f0f0
2310efd5
ec0be2e7
f7e3d8f1
120a090f
2436ece7
0e0beb28
d91309f2
07cb091e
00f9b202
25f5dbde
ddef2103
24f41517
02011d07
1ffbfefa
fa0003fa
fffd00fc
040204fc
fefd0303
fbfa0301
fe05c1f6
33031bfc
0df2c137
e61a14d3
e8e21420
e201f306
03ea0e20
efdb0ce8
0d03100e
14350016
04fff11d
1302e4b9
d900f8fd
013430ff
2bd63918
1d16090f
22f4fe11
0cf1cae8
03d71cf5
1d04fefb
01fefdfa
fa01fdf9
fbfafafa
fefffefb
ff04fdfb
fffdf40a
29fed506
e9fe070e
0031d107
e6251107
40f6f201
0fe5030a
3a10101f
0f3a56f2
0421272c
26b9f4f2
06f23908
e22312fe
0c21dc1b
ccf01fe0
37f60a27
f3ee15e9
f1030bf7
3303b30f
1b461bd5
18040012
f916310c
f7320304
f2fc1c12
3b07e9f3
1c39d0d4
110003e6
e2223c2c
faf50924
18faf104
0103cee3
be41ff03
01fbfd00
fdfb0104
00fc03f9
fbfe00fd
01f9fcfb
fdfd01fe
dffb1aff
e0f6c506
1c41e5db
f3ff1501
131dff38
060cf222
16c0daf8
01e5cdf3
11f0f8ed
0811cfdd
f31807fc
19f53120
c403fe34
1f09eef6
050be1ee
1205f4d9
d20114fb
bee82e0b
22e1c4c1
c4112df3
04f5e3da
16020ffd
20def928
d906ecd8
dfeed702
f82afd03
edd5ee0c
030dfafd
232e031b
1c042c00
0c160b24
39f40726
eafccddc
f0f5e1d8
0a1a0307
fcf93311
1f21fff9
1309c7da
ed223d02
f3ebfc03
e801d60d
05ed0c05
182af2f6
151e5023
eff7e117
4cdd16fa
f03823e9
f8962522
d7fa170e
ebc49133
03121c28
ef11edd7
04d60a08
fd352a13
080bf0dd
11f10500
2b18d2a8
d157fdca
a8122315
c6c62232
22f4f103
06effec9
2e1bf723
231100fe
1616f5e5
eb00063b
edf60621
ccd3dc00
3cd2d30a
fd1b1bc9
19f30704
e91e1d20
30e6d231
1cf7f9c7
f4f62420
cb11d3ef
fb0af521
08f61af9
e7e42023
0dfef700
120fddf1
042d0def
20fc17f6
d8292906
e5f4191f
e3ddfe26
18c5180c
3021ffff
fef9f801
01f902fa
02fa02fb
fefdfafb
fffafcf8
01fffe0b
08b9ecf0
0e072806
f109e422
21f91fe8
eef6faf1
f5e420f5
14f5ed23
38f2e8ff
23080106
2ef4e310
12070a37
fedd1331
f61e252c
dc1f18fa
291a0831
06471a07
0410f715
fb01f515
0cfc00fc
fc040301
fdfefffc
02fbfffa
02000301
04010002
03040216
1344dec9
36190e2e
4cec0df6
fa43e606
f5f6fcbd
0fe31406
0f14e90a
45e607e2
40ee1415
f8e10535
ebf4d4e9
0a0de5bb
98f8fff9
fefdf901
fff702fb
fefdf9fe
f7f8f900
01fffbfd
fd0000f5
eaece907
edf0de0d
1de7e4f4
f0d9ed0e
02d6c5e7
24012f22
1211f3e5
0a1b19ea
f9161ff7
f1f51efc
f215db03
fea20118
efd61623
eee01d17
2233c20e
eeee050f
f8f2051b
fe132cf6
07030f10
330ff906
05ee1b13
f5d1e4fb
ff1ad2ff
01e51b0e
d62107f9
d318e7e4
00fb1400
fb150a14
ea051912
1610d4ed
e0282c1d
21383f05
291c092d
ea0f1306
402109ec
15f5f4f5
1639f318
02fcfa01
04fe0202
fe04fefd
01fa01ff
fffcfdff
fdf6fb00
fe19e9d4
04fffcf4
37e101e5
2d1229ea
f30125f3
0a23f823
22041f10
d7efcbc7
fef5dd07
d6f13208
1403231f
080ae603
e2f6ecfa
0002fffc
fffe0201
fdf903fd
fdff03fb
f903fc03
00fbfa03
d2e0efe5
3728fc12
3bddd723
0dd2fbff
18f207e7
d4eb0810
e6f3e509
1749f1d2
050bc5fb
eedb30fe
1402ef1c
f81ae61a
ead5daf9
ec192335
f1dfbbeb
06faff15
d70508f8
f3061911
f519f926
200cf215
292e16d3
fcee28fc
d00be5ee
e4e6f50a
f10ede12
0901ffd3
f2cc0316
d1e90f09
10f0f102
ede50ff7
eafe0dec
223cebf9
07d72701
ecf8f129
11d8d512
04eae5f6
e2f5021d
eee200fa
03fc0102
fbfb0500
fdfdf901
fb010102
02f9fe01
f8f9fefd
faf9f500
05f4f802
fdfaf8fc
04fbf7fa
00faf9fc
f0fa0605
f9fbcfc5
22f2f8f1
0ff50718
0b17f526
02f309d5
0ffe1903
df8ed9b8
bba8f6e7
f47db714
030fe9ce
23f62ae5
f8151506
fc1a1600
e5d31510
efe8070f
172dfd0b
0ce806d9
b9111116
f8e40016
13e71005
d9f3f5ee
132ce51c
d41711fd
eafd1fc2
dc152e0d
0e141f3e
fff2000a
fef10cfe
16041d0f
e1d01b26
07e1d40a
f7fe0001
fd02fcfd
fbfb02f9
fdff02fe
fcfff8ff
ff020201
fd0502ff
03fefc01
0001fa01
01f6fa00
fafefffb
fffb03f7
fafcfd05
00000ef0
e8e3e606
2bf7ecae
ec38f418
f315fb08
34f51408
18ecdcef
24131b18
d8e6f8fc
ecd819fb
e7f1ced5
d5e21916
120104fd
fdf4fff5
07fbf5f7
f3fb0003
f700fcef
f900fcf8
fcf7dfc7
0d1ed8f0
f904f100
f008e60a
21e51a25
fa17daf1
15ffe3fc
2ef5f4fa
3e0df9da
0c0e2504
0817f81c
131b2704
21fbdae8
0217e0d6
22fa14f8
fd13ffff
0a3caeea
f2070fcd
fd17070a
fdbd2833
3106db19
1d21021a
2e0d0515
0bf1f007
f5ebf406
e8e6e10f
28f6d608
04200d1d
180a2530
0dfbe2e0
2c1608d5
0c0b0bf0
ff2c043d
432df300
1e12f6c3
ff0e1411
e9f9f001
15e00e06
f8f8f0fc
e1bd1215
d3d21afd
26021105
fcf9e104
f0f2171c
022121f0
110ad412
111f1106
f315180a
ccfad914
1be9fcf8
28180113
08fd3a15
00e0cdfe
2d10eee2
ef0cf8ee
12f72202
fdfcdcca
ea1fd9e6
27f2ce12
06033303
f2d1031f
b2380001
fffafd0c
1ef7fb31
d826e6e7
0838e3bd
161304d3
eaf128fe
00dcf7f5
18f9fdfe
fd01f603
fef7f8f4
f8fdfbfc
f7fcfe01
fefff7fc
f9ff084e
17043618
00d7da1a
0626221b
021bfdd8
07dae5fa
fd0bf72c
c3e0fe4d
2c060ad2
e7000b07
d5d4ecfb
16f0fa0b
12052ff2
facbf218
e8c7cef8
f702bee5
e4110a15
fce20017
5e152219
110fe002
e3200af9
151226f4
be200432
defbf604
def3f0f3
f9ea3b03
ffd31619
12ed0d1e
1e050213
e2c9dfd9
fd11acd2
d71103fb
04ff03fa
02ff02ff
0101fafe
fafffc04
04030304
fa01fafc
e6e9ed25
080bdffc
0ffc2dfe
f607111d
030010ba
191d2524
dff31803
e305f7f9
0ef909f5
0ef9d7fa
21e40ada
0606edfc
0a0cff02
fb03fe04
0200fe02
ff000202
00010200
ff030100
fdfdfcfc
f6fef501
fcf80503
f9f8f3fc
f9fb02fb
f500f7fe
fdfe03f7
daffdef1
f10f28da
21021c1a
fefdda07
eaf701d8
18f31d35
040101fc
fcff03fe
fbf7f8fa
fb01fdf8
fefefe01
0103fdfd
fefcfc04
fbfdff03
fc02fdfe
faffff00
faf703fa
fffefb04
0201030a
182f07fd
e50329f5
10ddf027
e5fcd3ea
0401fdb2
ead91815
15022802
10ea1603
3e1901ea
ecf3feef
dad7c310
b3d806e2
f9fcfe03
00fc0101
fffd00fa
fdfd0204
020202fb
fffefffd
faf9ed2f
0bfcac21
031b1b25
290d3c09
e21bea17
db3508e6
09f31b0c
e20fdb1c
d4fe05ed
db001613
0a0bee0e
0d10f92a
32190417
07f40f0d
fc24fd0e
02f2cafc
01f7cbce
e8031bf2
eb030e17
e9fefbfa
fefb02fc
01040504
fcfafe00
fafcfcfa
04fffd01
01fd1f13
c4bea920
05f107b4
1dd10bf2
f01523e9
d3d80ffa
ba110212
e9c3c516
02e31fe6
e8f73315
0ed91d07
2621f609
ed01fb20
1b231fd3
21000321
1fed3200
1ef90617
06f0061d
e40ed6ed
09f6fdbb
c424f9bf
41f5f8fb
c6122013
21d525f0
04ece800
c6cf3ef4
00fcdf03
d7e8ecd0
090e1cec
f4000f12
141f101d
190bf71b
020a0e50
ed0bfd13
13fde322
eef808eb
101104e7
11a711f8
f703fe01
fc03fefd
02fffff8
00fefffd
fbfdfc04
00fcfd03
012af90e
0be3cffe
21f1fa14
222aeebe
f4040dff
1207e6e8
0ff94206
1edec2df
eb0ff305
e3cacdec
f4dcd0d3
d5d00904
1f36fde4
1c24072f
0a10f0dd
05fcd40b
1912f2c2
f42b2efc
f308151d
0c331a04
e52e06ca
e1ba0918
0afd0e1e
0cfae90a
edf5fcf4
170003fa
faf9fefd
0404fbff
f9fffdf8
f900fdfb
fcfbfbfc
00fb0da6
b7e31c0a
ecef01e7
1721d8f7
eff11c07
0611edc8
350e0ae7
c5c7f0ec
b7c10619
efee10ed
1c25f5f1
3a082dfe
100d0a48
262038d1
f810190d
1f0f1c24
fd0e0c1d
112a140d
b8f91a17
040aecfb
07f0ebf5
01050f01
fdeccb06
28262b06
efe4ffce
3115fbfb
fafb02ff
0202fe03
ff00fdf9
ff0303fa
fdfbfa01
03fe0304
fdf2fef9
02ff01f8
fffafe04
f803f6fe
fbff05fe
f6fbfdf9
1b3a1502
e457020a
03d936f8
e208f517
f2fcf0d3
ece91801
d0f49af0
c8130606
daef120f
01e301ee
fbdf020b
0be701db
11f2f416
1b0b18eb
060fe209
efcb21fb
0eedf2fd
f4150fe4
0b0d021e
052e3c05
ed23fe0e
12eb1ade
bef31016
05e6d50f
e411ffc9
eefc1e46
50da0bee
ee15e8e7
ade60725
07dcbd04
24090019
200101ff
ff04f8fb
fd010001
f9000000
fe00fa00
f7fbfa00
fffbeff9
fbf6fef8
e4e00fff
09fff810
0dfafefa
0df83edd
061ef9a3
c5caeaef
9febf81a
f5d81b29
0cedb4f2
300ef6e1
0b1eee17
e8282915
03eae5e9
d8041ae6
0001d804
34110402
0b28dbfd
06fdfc03
0000fbfd
fafb0000
fbfb0001
fb03fcff
fffbfdfc
01fcfe1e
ed060b20
fd1d0b14
ebcb2ae2
f6f10403
15fb1130
ef110cfe
ee0a1334
f1f1060b
f127f304
f4f9d1f0
e7f405da
f20302f8
fdcf91cb
fe18ce01
f0e607e9
f7031102
e7fe181c
27e2e623
1ffef8fb
fafffc00
fe0202fd
fbfffa03
faf902fc
0004faf9
fcfd25fc
bffccf4b
fd0e37ea
160dd7e7
f917ede9
1f1d1be1
040114e6
01feea15
f00408df
031601d8
d9f6e8e3
eb140bf5
e9e30d3c
dbf13e10
cede172e
11e0f5f9
eef937f3
f8050e13
3219160e
050a1e45
3ffd220e
07f1f119
e01529f6
e307f2f5
04f10ef7
ebe0eb9b
9dfc11e8
07cd0bef
173c0ae4
fdf80304
1c074626
04fb10fd
03ff01fb
fbfdfb03
fc03fa04
00fafbfb
fe02fffa
0203fffe
df111720
0b0ddc1f
0f12f4ff
020d1dea
fe090f15
02d8d8e0
ec0ff2fe
d803fbc5
dcebfdda
c3241306
fded2e14
1b02c603
0e01044e
011a1533
0cfa0417
fb13110c
09fb1908
fef9eff3
f80e1b39
1e490e39
2810cf06
0b03e6b8
09da01df
0bdbfcf6
e0fc10ed
dd27ffcd
fb152826
c80d190e
12ff02f8
00fffff5
f3f9de02
ed1e11e7
ef0fea9f
fd26e9f1
f9e4f404
3cf2e9f8
fdf1dfcb
f712ddd3
160becfd
10f0e801
f8fe25ed
0215fef1
0c11f30b
fa390401
e6f7d806
d408ec05
050bf700
0c1823fc
d8191406
f31609c8
0bc8a9c5
d51507ec
0cf2f0f8
01010bd8
ea1f0a0c
bc15182c
fa3724e9
f3020f12
e6131e2e
1ee7080e
10fac41d
201cfaf9
ea19fcef
dee8f7be
d4f9f9d7
b3e810e1
ced220ea
fef5fb19
ebee45d8
ebfef7d0
0fed1e15
f700150a
18e8f3d7
010bd7de
caf6d5e9
9601fdcf
c8c11e04
0ff9fbe4
08e1fce2
fd141afd
1137491d
fef1d9ec
20f9e6d1
d804fef3
f81a0516
f5f4dbff
eb150bca
140afd00
fafdfc02
fcfafefb
00f7fe00
fafafb01
fffd03fe
fdfffcd7
f702e8ef
430a17ef
0020f4df
a2f41afc
d4071137
e0d4f910
f0d9ebba
ea05d1e2
e415e6d3
a7c2ece1
c4d9fdf4
03d9bbdd
2ce23725
04fef214
c9d011f7
f7f6defd
2903e6eb
082fbcf5
d706fbfe
fc040002
01fafdfb
fcfbfb00
fd00fcff
00ffff04
0401fef2
f021ea17
ea39f1ff
f8ec1d04
0b01d0da
f9f8cc2d
f802b8e6
11f02e12
fc100fe0
070d200f
f1f51019
26120c02
eaf61500
bf000000
01fdfefe
fe02fffb
fcf8fcfe
fcfc01fa
fc00fd01
00fcd531
06e905e5
2c381f17
fa18071b
1319f8f6
0eec2810
ebd8ab02
041aeb10
180902cd
be12eefc
d6b8220b
dbf5e640
352ebd40
070df5f2
ed06041d
09ede5ed
33f70113
0c1708ef
b3e108cd
f2091819
dbdb0d15
c6cbdd09
0cedeb0b
fa2607e9
fdcadd06
0c25fd02
00cff5f4
2deef52d
f706db1a
ff1415e9
12124cb0
9dabf5ed
eabe2b17
031c44e8
0d171f01
03fd0e14
c205fffa
04bdf9ff
fef9f9fc
fd00fbf8
fcf8fdfd
fdfff7fd
fa02f900
fcfb01fb
fcc4c618
12ebe6e8
010c161c
f3f2f728
f312f112
260df701
f82ddfd5
f9d2ef21
c1c8010d
e506211c
0f21fc14
0fe501ef
2ddfedfe
fe01faff
01ff02ff
00ff0403
fefdfffb
fafdfc00
01fdff00
f500f7f9
0d0e0d11
efe00d14
f1d4e636
fcec06fb
1af01830
c8243bf6
ebfbf6c5
04010b17
df10290e
09ec153e
150e1f07
0df1ef26
0dec013b
32000111
1408e911
09f7fae7
d803041a
def0fec9
1c1733e1
f6ed2a36
d6faf7fb
06eefe0e
4513ede5
31fbb3ca
f7010701
f9d8f3e1
f715d6b7
e2f31afb
eef2f1e2
1c23fb1d
16f3e80d
0d0b03f4
f3f5fefc
fc1b2b05
0a19fc10
02f20406
24fdfe00
fb0205fd
fcf90200
0301fc03
fc000401
fb03fafd
fbfbfff8
f3f8f7fb
f9fdf4f8
f8fefdf9
fefbfb07
fdfafc00
faf8f000
0119f8ee
e8d51416
0cfdef07
191a1aef
eafe2321
feffe2ef
12220315
eb07020f
1c2305fd
d4170dc7
f60b0ed7
d4400ef8
bb13d9cc
242cdfdb
d12316f2
d5f521ff
f8dbf9f3
170936fd
fddefffe
0bf41a0a
fd0dfced
16f30e05
ecfcf9fd
fdbedf26
0ff5cbc8
fac6e0f3
1e00f7fb
f9fd0808
07d70a3c
06eb0819
090e13f5
16fdfffd
ff0101fa
fa00fffc
fbfe01fb
fbfb00f7
f6f701f9
f8f9f702
fcf800fb
03f8fcfd
fffff600
f904fffd
fefbfcf8
f800fe2a
f416f8ee
f20ef716
220c2810
df211503
f40d061e
2216170c
941f1dde
dfbe1d13
1d0ed619
03f5ffdd
18032908
05def80a
0ffef6fa
06fa0ef4
f604f3fb
f6f601f4
f6fcfdfc
fdfafefd
fcf30c14
e002290b
0ae9fe29
0e1c0304
07f4eb12
1306d711
01f21b35
fcd60e1b
f502e2ef
1ae7030b
010de1db
13102ad5
f1fd1610
c33c402e
f91506e1
fffce1ee
f5de01de
fa16f007
212f18fc
18fe21d9
1414182f
11f80500
e1ed1e10
f804ccd4
e818eeb7
dbf11e02
18f2e42c
e5fb15fa
1c0202f0
f21ae21f
1fece1e1
c4f6e508
c31111ee
fcc60bfe
011ef3f0
0e143405
f4ea0913
1b1a26fe
fbff1f12
1aff210a
e30aebf5
18f2bbe4
0518f5d3
22191929
f1e81123
2fa7e79a
c7f4d45b
afef2303
3effdefc
03f6e901
dee9fdfd
fce8fe27
111c27f3
2df41cf5
e8231216
cff4d605
11080a45
1def11ea
25f6e904
1005d8fe
22fefbcb
0507f614
2c32d9fe
0482b7fa
e5cbe208
fcfae1e3
d5d802d6
0d01d706
801ae3f6
fff6fefe
f8f7fbf6
f7faf702
f6f500f4
00f4fcfc
f401fcfe
f7fc3a15
dab9f50c
1607e71d
fbf30722
11da0df3
fb04ec3f
2806de3a
c1f91bd3
1da52cfb
fd1cea1e
fffdda11
2af9f5ef
ea0b0903
ee0619de
16d8fde7
16130ae2
0307ff01
d40700fd
fcf71d18
0bf1d018
210ad1f5
0a1d08e2
1de4e9e9
f81a0d18
0a1818f4
fc31ce33
48f003de
2f0df9d2
e3322818
16332b09
f6d8332d
0517ea00
04fdfc04
01fe0102
fc040004
fb0300fc
fd02fa01
00faf801
fdf219f3
2212f4f7
1f17d808
173dfcf6
edf11801
03f1f200
17d51117
0dceee2a
01170834
0000f614
fc0e2103
f0d422fc
eacffefd
fb000102
fdfffaff
fffd01fd
fdfa00fe
fc00fa00
fcfcfd01
f5f206f7
01f8f703
03fdf803
fffb03fc
fbf1faf5
fef5f1fd
273a0703
d92af5fb
03f206f4
e80d1d1f
fc1c1532
e1e2f80a
ff00fe01
f8fd0304
00fcf901
03fefb03
000003fe
f901f802
fbfffc00
fcfcff01
02fe00fe
00fe00fb
fffafbfd
01fdff04
0200fe12
dd231bf3
08ff2f05
fcdff6f9
15f0bac5
fd0602c1
0c2aee1d
d9e6b8e6
06ed26f0
efe40f0e
f3040bf9
e007f6fc
0c130ac1
080100fc
fbfcfcfe
ff03fe02
fd03fdfe
0300fafd
fcfffa00
03fb3519
011ff207
0e0705ef
e721e204
0e2ce608
14fce3e5
f61af9e9
bfc5d3e2
15e8cfe3
1f0d0eff
def90914
15effce6
3308030f
e0adc411
0bfdc29e
3c01d9f8
fb241be9
f8191f00
1d32faf1
e3ff0104
00feff02
010004fd
fb020100
fcfbffff
fbf9fefe
0002f1ea
2824d3f0
023201f6
0b1de5f7
1d20d60b
3b1e1b29
fe11f8e1
07b70d28
e0fbf315
09edf9e7
e6ebd01d
dcee07e7
e1f82203
2219360e
db00cd0d
e5f1f6ed
fdfeea1c
f6131208
4802110f
eff8ee1b
fbf42723
09d3da1c
5901f1d0
fb0ce51e
082df10c
1afc1f1d
f50c09f6
f902f30f
f90afbf5
0aecffcf
06f713f6
010df3cf
f7fa0109
b5e9c6ff
0dfdfedb
2b2a2001
ca1a21d2
feed0c25
0001fdfc
fd000000
fc00fffc
fcfafd04
fe00fcfc
fefcfcfa
fbf4f125
08033f0c
140416e7
f622e800
f70dfb00
0cf43a11
f70ee53c
d7b3fa04
2217e82f
02f0bf10
0df4e39c
d3ed61f4
f5dedb3c
eabb37fd
18260af5
fb3800f0
d8f51618
edf20057
0402fb09
f2e35a34
2d0ae1ff
1207faea
0619f9d8
d3dffe0c
2916e608
f002ffff
fafffbfe
fff9fc01
fbfffc01
fcfdf801
030002fd
01002ce6
f6b3bc01
0337e8ec
00ef2aef
09002621
f31af606
1bf42ccd
ca9ebcf9
1503190c
fb0516eb
0d031531
bac1fd3f
fbe8d0f0
04f1dedf
0326f5ee
fa0ef7f8
fdfffa18
fd1bebee
08f1e89e
04270713
ece52ffd
fb19e6ff
0ae5b6f8
14101bdf
ec46392a
f6c901f9
00020002
02ff0102
0202fe00
00fafd04
fefcfc03
03fe0202
fafaf9fc
fb0001fe
fef9fbfe
fcfbf7fb
f4fbf9f8
fcfef4f9
0900e1f8
fdfce6d5
0dfafee1
0915d30d
0239f6df
13045716
f6f7ef0a
0de20b1d
e703f101
160610ee
071b2704
fad5e9f8
fcfa0504
f8e3d22a
23dee9d1
2dfee50c
ddedc8f1
221816fc
a0252cf6
e0ef0af2
0906eeec
d00117fa
13e5e205
12161103
32ea10e2
f9e1fa0d
1603e50c
07f7f103
e50201ef
080501d4
072858f5
f4f903fe
fe01f9fd
fafdfffd
0102fbfe
fe0301fe
fcf90300
fd02f11d
eadddff0
db2004ff
fafefc16
1a18efff
28031f31
f8de010e
070100f3
0ce3dcf8
fe06c5e0
0f151303
f1143cd1
05ebebf4
ea252c16
04ed1200
05fe15cd
c6b5cb1a
ebe0d9df
25fe291e
2a0002fa
01fbfb04
00010100
fe00fb04
fc03fe01
fefb0104
05fef003
de0007b0
fbe6dd0f
ca01bcec
e509f1fa
dffa202c
200f3e06
fa050c09
1811f523
200e24f0
090fe0f4
0a1304fc
f304dfeb
15dfeada
eaf4da11
ef141411
16e205f0
edda050f
feef24f7
effdfbfc
fefcfcfd
02fdfcfe
02fafd00
04fe04fb
fefcfefa
fb00fedc
faf21108
b4e7f6f8
f3fedbf4
12112bf7
4209270d
1f0fad16
fbdfd3f0
f21aeaee
01151016
0903b803
e40014cb
171330c2
fd2326d5
d8153105
da0deef8
f5faf401
09f406f5
0c4702cf
fced32ec
ece7e219
edf61306
36030813
042ef5ee
f71d22ea
3831ecca
0e10fc00
00101301
e81bfb18
ee0af6a9
06000bf2
a72d0dfe
fefffe03
fafefa00
fc0103fc
faff03fe
fcfbfbfe
01fb0000
142603fb
f10f2927
e5f4e315
f9d6dbff
05d1f2f0
c7be242d
f2dadbf1
08dadfcf
f4fa14f4
c4e7f81e
c8ffe703
23e4ebec
e0df2c0a
e8f802ff
c6d80409
d9f01101
27d8fef2
bd1ee0ef
deda1a04
f8f4fa0c
0f131b09
f00911e7
25e71aee
1bf9def0
fcf9e90f
2b05b9e8
10f90ed9
fe0bf2ff
01e3edce
00252615
18fc120a
1a051cf6
030ae702
08e3e8d7
f5ec05fa
e7e410d9
cef7d8db
bd140309
200b0de8
0d06f51d
daee01d1
06fdf70c
e906e5e0
05090b10
f3f00507
15e60001
ea1414e2
da0a12eb
0cfd8aca
b2b4fbdb
fdf9f6f5
f9f0d8f3
f2f4e123
e90007dd
f81c3120
e9d6c2e8
2803f196
f1fc2b04
98f4eb25
e0b8071b
f6f2d641
10ef150e
5728e5e4
0a1414ff
2f122416
e9ff22ed
1a1718fb
cee22006
fdede50f
f0f4ecb4
36f2e7e5
ec101409
e1d410fa
f4cbc21b
2c1b1a3e
d40ef22d
f7020a1c
2519033d
f41f1106
0ceb2319
c9c4e4d8
fce7fc16
2af2e8c8
142819ea
1bff0b14
f42b1d1b
f5f42c27
0d250003
01fdfafa
ff0200fe
fb0200fd
00f9f9fb
000100f8
fffcfa01
efeb082c
e1e6f611
f70cd8ea
d717f1d3
efffe617
fcdac41f
1414f7f7
2400f1e5
eef90013
f90302d1
f22b01f0
07f5ef16
231d261c
f0f53a28
1af62416
e42f060a
08010e26
1b18ea39
dd16fb01
fc00fffa
01fcfcfe
fcfc02fb
fafcfb00
0202fffc
fffdff0f
20dddee5
1ef9e9ea
e00803cb
f9d5cfed
e4c9fcea
0adb4e45
171e0d12
f714ed01
ebff1dc0
0eebbe13
10f5d897
14160afa
ecf8fffc
f9fd04fd
01f8f9f9
fbfcfe00
fff9fe00
faf9fbf9
0101f9f2
0a05e804
fd1a2024
f506f635
2d0408ff
ff07d416
19040409
11fdd5ea
14f9e504
0df83a03
cf331a10
e32b1e34
1fbe33f7
1108fc0a
f2dbfbd5
e6f10dda
0efbbb21
2c060b00
02042f28
380c0bf9
e8f82012
24ec0ff2
f9ec1b16
1504c80d
260130b3
1554d7f6
14f4ff0e
0d0c21fe
130d3913
260bf406
0810ffcf
d0161819
e109fdee
fceffefa
e2ff09fa
06cf0206
ecf9f027
572a00f2
0001f8fb
fd03fbfc
f800fffe
fefef9f9
fafd00fb
04ffffff
fdfd2715
060ee3fb
03fd17fc
03d5c80f
f700edf3
f82cd913
94be0de5
e8e7e6fe
14d9e7e7
19dc46e4
f9100f1c
0d1c2602
2c612afd
fe0401fd
fdfcff00
00fa0000
02fffffd
fcfd0402
02fcfb01
0d0fca0a
0a1322f4
020cefcf
f70313d0
b2b3d4e5
deb62aaf
df0001eb
fce11fdb
def7d0fb
06f6eacb
d708fbef
fbcde407
ececf313
de07291d
10dee6da
1a1a090b
ea3d09e2
1d103df3
033f1805
1b191410
1a140d07
0c0529f8
e5ded61f
eae6a019
f30df4e5
0034e5d9
08e917e7
f6fefa38
eee812e4
fadc0f17
dafa0808
100219ff
f0fb210c
1d00f8f5
1322da18
e4f707f3
deb4fc23
1603fffd
0000fa02
01fa03fd
fbfdffff
02fbfb00
fc02f9fc
fefffdf9
f7f3f7fc
fdf8fefd
fdf4fe00
010304fe
00f900fe
fbfefef9
01ee301c
24f3f7d0
0a040c14
c6e8f009
2ce4e901
0ff62f08
aaf2f2eb
c0e9310f
fdf2db07
360d03eb
1a3f06fb
2cd63bf8
0622142d
26f7e405
371fe5eb
1efefce8
000a22f2
ef0005ec
d8bd050d
00f9f901
fbd7e0ce
f01b2203
15e7f912
2321e4fa
f6f22f1e
050adfe2
f4ea0df6
d6e906f6
e7ec03ef
03e4021f
c4e46af6
1f0002ff
f8fefaf7
fdfdf8fc
f9fb0800
01000304
ff0101fd
fffefeff
00faff00
fbfa02f9
fcf6fef9
fdfb00f6
fdf8fdfa
ff03fd07
fd05e704
fff3f612
111609b2
f30ee70b
ec0b1d0b
fb01dc16
0815ad05
fc102302
17f80a15
090f3a1b
27ede3fc
c502ff20
0b00fdff
f2f900fe
0404f101
f4fefffa
fbfaf8f3
f9f6fb03
fcfbf70f
080f0806
bafb0f12
0808f609
f7130a24
11fce9fd
2820fef6
dd00232f
e0c4f014
0d090cff
0afc01fa
220ffb32
1509fde7
e2fd15e9
03d60f2a
f903edfc
fcda05ca
d20700f4
bef72406
de08020d
f0e8e1e3
1e0adef9
d8fe1103
0d042cf6
eaf8002e
642acaed
0b1eed0b
110911e1
211105f9
dc20c92b
ece1eff3
35cdfbbe
2b391b03
cffe2d21
0ee9ede2
260d25f3
ccdc1d25
e2e1c824
17f02a05
21070900
0cedf2f0
1d12e901
f5e1c913
c40f10c2
d1fc3200
f3f3ef2a
0d0711e8
ec34092f
1118ea21
240d2621
1d1b2ef1
e52109e8
b3080a27
25c32338
03052ddf
de172df4
c4a4f6fe
0bef07f4
edd8c7d6
f8c9e3e1
f00409b9
04181eec
c8f71ff4
0efdcf0c
f036f300
fc11f7e4
cb06f8fd
f1132711
2e0cf726
fbf4f7f9
fefe03fa
fbfaf902
fdfefcfe
fc00fdfa
fffa0402
01fbeb08
14293708
b4ce011b
f5eee3d8
d40a0b1d
d8bef4e7
15fe140f
dadade09
150fee14
1d060ee1
fb09fd0e
0be1eb02
e0c01895
e4fcfa12
0bdceb14
e9f8d50e
fa02f7c1
d4da0ef2
241af6d6
15ed0d10
00dbfefb
0ee3e40c
e51f05f1
d00f1d0e
fab367ba
fdfa0518
01d70d22
46200102
f6220803
0bc7040a
fe1d9f39
1ee81500
02fcfb01
fa02fafc
fdff01fc
05fc00fd
fef9fdfd
03fff802
03fffb12
2a090f09
1c1c0100
100c22da
dbf001e2
17ef07d1
dc0329fc
fff70d00
05fd1011
e8c4fc0c
0df1b4e4
eee12108
ce27fafe
04040000
00fe0004
04fdfc01
01fffafd
01fffd03
fafefdf7
fafafcf4
f8f6fc01
f7fbfbf6
00f802f9
fc05fdf4
00f603fc
0aebc3ba
f1ffc9e5
e60918d4
0f2c1c0c
1cf713d7
34f84903
dbfeff01
fb00fb00
fdfb00fb
04fffa01
03fcfcfe
