b9
c3
16
df
db
c7
eb
31
0f
28
dc
d7
12
0b
06
15
e0
0d
ec
e6
f1
0c
c9
fb
fd
00
01
13
ef
c0
25
44
fc
c4
b1
fc
f3
f3
e9
f7
04
1c
41
13
03
19
16
09
e8
c5
fd
fc
01
f9
fb
01
ff
fc
ff
f9
fd
ff
fb
00
fb
02
ff
fc
ff
02
00
ff
fe
05
fe
00
01
02
02
fb
00
ff
ff
06
01
02
fb
f6
f7
01
f9
00
fe
00
fe
f5
00
f6
ff
fe
ec
01
d4
1e
05
ef
fe
43
11
da
fd
58
0d
22
20
e1
04
f6
eb
00
ea
01
20
12
dd
29
00
13
15
20
28
17
03
d0
07
06
15
f7
08
eb
f5
0c
36
c7
19
cc
1f
1a
c1
e3
06
12
0f
0e
e0
02
2c
0b
05
02
19
1c
16
e9
25
fe
31
17
f6
12
49
12
e5
df
08
02
3b
ff
12
fb
f1
1b
e5
f6
1d
d1
19
e5
03
ee
06
e8
dc
fd
16
c0
cb
00
e7
e9
f9
f9
ff
ca
df
11
0d
f6
df
e0
23
05
23
08
f5
0a
21
1a
ea
01
08
4d
f3
f5
e9
fe
fb
05
00
01
fb
fc
00
fe
ff
f9
00
fb
fa
fe
fd
02
fe
fd
fb
fa
fd
02
fe
fb
ff
01
03
f1
24
eb
fa
d7
fd
3a
0a
18
ed
de
d9
13
fe
fb
de
aa
0d
20
0b
39
e5
1a
1f
20
04
f4
19
ef
ee
f1
e1
fa
0b
13
26
1e
ec
f8
db
00
19
f4
01
47
06
c8
02
f4
f4
0c
0b
df
fe
0b
01
fc
17
f9
f5
f5
da
ef
27
32
1a
1e
fb
17
14
c5
04
04
fb
fb
fc
00
fd
00
02
fc
04
fe
fc
fa
00
01
04
fc
fe
fd
fe
ff
03
02
01
fe
19
fe
12
f3
f9
ef
0f
ee
ee
e6
dd
fc
47
f7
e9
20
04
02
f9
04
21
22
2d
05
f3
1b
d6
dd
ee
08
f6
16
fa
04
13
f7
e5
fc
19
fd
d5
cd
0e
dc
e0
da
12
d7
ec
f5
f9
f1
1f
1b
35
cd
24
f9
04
43
0f
b9
1d
f3
09
fa
e4
0b
05
22
1e
07
1a
27
1b
fa
fb
ff
00
fe
fd
01
ff
01
00
fe
03
f8
02
f9
01
fe
02
00
fb
fe
fc
fe
fb
00
e0
0e
f8
06
38
da
fd
09
31
e1
eb
0e
17
de
a2
06
0e
10
fb
d9
07
0e
ef
f5
c6
fe
df
08
e7
f8
d4
15
fa
07
15
ef
f4
f4
e5
d8
ed
dc
de
f3
15
f3
f4
1b
31
f6
11
fa
cf
17
22
d8
e6
07
f9
13
ee
fa
1b
0a
03
d9
18
31
ff
0c
45
35
fb
0b
24
f9
e8
eb
1f
ff
2a
01
c5
f7
eb
09
fb
1e
f3
13
03
12
0c
e3
17
12
e2
e5
ca
1b
21
ee
fd
ea
ec
16
2e
01
ef
17
01
2f
fb
f3
f7
22
17
03
0e
05
2b
fc
fb
0b
f7
01
03
02
ff
fc
01
01
fc
03
00
00
00
02
00
02
02
fc
00
04
02
fe
03
ff
fa
03
11
0d
02
cf
ed
14
d9
e8
dc
19
f1
f4
2b
16
ea
e3
fe
1a
ea
01
cc
ba
eb
28
15
cc
c9
e1
12
11
e5
00
15
ff
0d
ff
0f
e3
02
09
f3
ff
15
d8
05
f8
1f
03
f0
ff
ef
f2
2a
f6
26
c5
f6
23
0c
fc
1a
11
e8
1d
19
fd
04
f0
fc
bc
e6
ee
f8
02
fd
ee
ed
ee
03
09
e1
09
fb
35
31
da
f5
f9
d7
26
e5
30
02
19
2b
f5
03
fb
fe
1d
0a
01
21
1b
0b
e0
fb
f9
f8
19
f9
0b
29
f8
dc
f6
f1
ec
f7
dc
2f
f0
05
fa
fd
fb
fb
fe
ff
0b
1d
f8
04
1e
01
21
12
dd
02
0a
fe
d8
15
18
f2
05
1d
dc
6f
e0
35
0b
ea
dc
08
2c
e2
f6
d8
ca
ed
d6
e1
c7
cb
eb
d7
2e
d8
c9
1a
e0
3f
13
00
07
f2
05
16
0d
f2
ea
29
fb
f0
2b
f8
26
00
d4
04
f9
d7
0d
e8
21
dc
01
1b
12
c9
11
10
f8
39
df
c9
bc
fd
27
e4
e3
0b
0d
0f
10
e0
f7
f7
f7
25
26
ea
03
eb
ff
2c
ff
e7
f0
15
13
13
10
f2
20
46
1f
00
fc
2c
2b
1d
fe
f7
fe
f0
ff
33
07
25
09
f2
fc
f5
fe
17
09
00
f0
fb
fd
e9
0b
e0
1a
13
15
06
fa
f0
20
fd
04
0c
22
ec
ec
ec
f0
d3
f7
19
d5
21
e2
d2
11
1a
21
03
f2
2a
fc
1c
f4
0b
17
00
0c
18
2f
1e
1f
09
fd
00
ea
09
fe
02
06
f3
f3
0c
f8
1a
08
05
2f
1f
16
1d
f2
f2
2a
f2
23
05
fd
fe
f1
2a
26
1b
08
00
00
e8
01
ff
eb
c7
d9
f8
e8
09
06
fc
1c
fd
02
fb
01
07
00
fd
f9
fe
03
fe
fc
00
f9
fc
ff
ff
fc
fa
f9
fc
fa
fb
fc
fd
e3
e1
19
2c
f9
0c
1f
fd
1e
cb
0d
d9
0c
02
f5
fe
f0
1c
16
dc
0a
29
f5
20
fa
f9
e0
12
2f
2d
1d
f5
e2
16
0e
17
f7
df
03
c6
f4
dc
e7
03
04
1b
fe
3b
13
33
0a
f1
f4
0c
12
0f
07
06
eb
18
ed
f4
fd
cf
18
0a
11
25
eb
eb
02
28
ed
e9
1f
00
01
00
fa
fc
01
fe
04
fb
fb
04
fb
01
fd
fb
00
02
02
fb
ff
fa
fe
04
fc
fa
e1
f9
c2
ea
1a
01
eb
f6
fa
1e
18
1b
0c
e6
24
16
0a
fd
10
13
06
f2
12
fa
0f
ec
1f
f5
e9
ff
04
db
1d
fb
e3
17
f3
2b
01
35
00
cc
00
26
22
19
ff
14
e6
09
ff
00
fa
ff
fd
fc
fc
ff
f7
fc
fd
fd
f9
fa
00
fd
fc
fd
ff
f7
f7
fa
00
03
03
df
e0
07
f6
f7
f8
ea
ef
d4
f4
1e
e3
08
ef
f6
08
05
f8
0b
18
d7
d5
03
14
ff
e6
e9
06
12
fd
29
0b
ee
06
0c
cd
16
15
2e
13
07
06
d7
32
0b
f5
e0
05
12
11
f8
eb
15
08
f2
24
ed
ed
24
f9
ed
fe
28
1a
21
3e
01
3f
0f
18
15
1e
dd
12
d8
fb
01
f0
0a
10
ff
f8
10
ed
ff
11
2a
e2
dd
d3
1d
26
0f
98
aa
f3
0b
0c
e3
ce
01
09
e3
ea
d1
f3
13
0f
fd
02
28
29
eb
e6
ea
0a
29
d8
07
20
4c
04
cf
12
f3
f4
dc
fe
00
23
e7
fa
21
1b
16
dc
03
06
e8
18
ca
0e
f2
02
06
ec
2e
56
25
24
fa
fe
fd
fa
fd
02
00
ff
00
fe
fc
fe
fd
01
00
fc
fc
fc
fc
fe
fb
02
ff
f9
fd
05
00
13
1a
1d
ed
07
f6
e2
b7
1d
23
22
f2
be
e2
07
f1
f4
c2
cc
f7
33
09
11
03
2c
2a
ff
d7
39
cb
fa
fb
0f
cf
f3
c4
24
3c
e2
f7
de
c9
f9
29
e2
05
f2
27
ff
fc
fb
fb
01
f9
04
03
fd
04
00
fc
01
02
03
04
02
00
fb
02
01
fa
fe
05
01
39
33
ea
00
f0
13
ef
df
0d
bb
f5
d7
1b
f0
16
df
c7
d9
eb
0b
eb
ef
32
e8
f5
13
03
21
14
09
ee
1d
41
f2
07
eb
20
e7
f0
03
fe
f1
c0
09
b8
1b
d9
11
19
99
0a
f8
f8
07
e8
05
08
e1
07
f2
e8
1a
2b
08
da
06
f3
ea
0a
ea
08
0c
30
ec
d7
ff
0b
dd
b5
d6
19
ec
29
f4
05
f5
17
fb
fb
1e
e6
3e
04
20
01
3a
f5
f9
22
fb
e1
ce
16
18
07
f1
07
fd
ea
f2
dc
04
e7
b0
c3
08
06
ef
f0
05
e9
10
26
10
19
f8
26
2e
0d
05
1e
00
f7
d6
d7
fb
f2
fa
bc
d8
f3
f9
2c
e9
bf
ea
31
3d
06
18
fa
f9
fa
01
fc
fa
ff
fd
02
ff
fd
01
fe
ff
04
02
fd
fe
ff
ff
02
03
02
01
fc
02
f8
f9
01
fe
ff
fe
fe
fd
f1
fd
02
02
ff
08
fe
02
05
fd
06
02
fc
f5
f6
03
1e
e9
15
30
fc
f9
d1
f4
1d
00
35
ea
fc
e3
da
de
05
ef
0b
fb
fa
19
3a
d5
21
12
cd
ef
ca
e9
2b
02
d2
db
00
61
fd
e1
4d
0e
ff
f0
0b
2d
36
f2
c9
fb
09
05
ef
31
f5
ef
f1
3c
24
ef
f1
ff
f7
e0
22
f8
f7
d4
fe
10
0d
ef
f7
21
30
15
17
d9
c3
00
1c
1c
fa
e6
db
15
0a
2b
01
bc
da
2c
fa
db
ce
f8
27
18
fc
f1
1d
15
36
24
0e
ec
1e
24
dd
e6
3e
0c
13
01
bb
e9
fd
c7
f5
df
a2
22
10
f1
fc
05
00
fa
fd
ff
f7
00
fb
f7
fd
f7
00
ff
01
fb
02
00
fd
fb
fb
ff
fb
ff
ff
00
fa
02
f8
f9
01
fc
fb
fa
02
ff
f9
ff
fd
fc
fd
fb
fd
06
ff
04
f9
ff
fd
fd
02
fb
f8
eb
fb
df
18
16
c2
c0
f8
d8
e4
22
13
e5
f2
04
06
1b
17
1c
f6
34
f7
02
f3
37
fe
f7
ef
f5
ce
fc
21
d4
09
f6
13
16
07
d6
d8
d6
fc
21
3b
f1
f0
40
0c
20
19
03
04
fb
f0
eb
fa
fb
f9
f6
f7
fc
fa
04
0a
09
05
fd
f0
fc
fd
fb
00
05
03
f9
de
13
f4
f8
bb
16
21
1a
01
ab
fd
1c
21
e3
07
3b
ff
12
d7
dd
0f
b3
ff
f2
c5
f5
e7
3d
f2
d0
e4
33
fe
e9
b6
08
ee
dc
df
f0
09
f2
df
16
e4
d1
09
2d
1c
f7
f6
ff
fc
0f
f2
ef
d9
18
ff
0d
f3
fd
e6
ff
df
ec
ce
a9
02
fa
17
d6
ec
33
30
2e
f6
05
0a
20
f9
00
0d
00
0a
f2
f3
d1
e0
15
d6
ee
e4
03
15
df
f3
3c
0b
09
dd
05
b6
f6
d5
1d
19
db
e6
1e
28
1a
d0
f6
15
f7
1a
1f
ea
14
12
16
ff
12
0d
f7
3b
f4
0d
e9
c6
09
f7
f1
10
cd
0f
cc
fb
0f
00
fa
dc
f5
d8
f4
00
f6
af
de
d7
c7
13
01
00
fb
17
20
ed
14
02
f0
df
d8
d9
fc
03
f1
e9
c1
0a
15
1b
22
22
06
eb
02
0f
14
1d
f0
e3
0c
11
00
db
1a
ca
05
f3
0e
1b
04
1a
0c
01
0e
fb
eb
e6
ed
14
e5
1d
ac
a1
ec
31
25
e3
ef
ec
ed
09
08
16
ec
e1
08
29
fb
ed
16
0a
e1
12
1a
21
25
e5
05
17
15
15
ff
17
00
fe
f0
f4
24
ba
2a
2c
ef
d9
d7
00
04
fd
1d
06
17
25
cf
e5
15
e6
2e
fc
df
00
1f
1e
ce
f3
e3
0c
fd
d3
1c
e1
4e
35
fb
f7
fe
f4
fe
02
04
ff
f7
ed
fa
f9
fb
f5
f3
fa
f8
fb
f7
f5
f8
f0
ff
fe
f5
e7
ff
15
45
e7
f3
0b
19
d1
92
05
0a
ee
34
e5
17
00
de
03
18
f6
ea
06
cf
eb
1e
0e
fc
19
17
02
1b
02
01
f7
0f
f6
00
04
03
3c
0e
10
fa
f6
20
37
fe
24
07
3b
1f
1e
f8
f5
08
0b
f0
ff
04
13
df
fb
0f
0a
f1
d3
09
22
f2
00
18
f2
21
10
ee
fe
37
ff
08
cd
08
02
eb
0d
f7
f8
05
f1
f9
0b
24
1d
00
cc
0d
41
2b
f7
38
f3
eb
05
0c
f8
11
00
18
0d
f6
c0
dd
11
07
1f
fd
ad
e7
a4
f2
27
dd
08
d7
f8
fd
fd
03
fe
01
fd
ff
00
fd
02
01
fa
ff
02
00
fe
03
ff
01
00
fc
fe
02
fd
fc
04
0a
06
18
f3
3a
13
fe
07
d5
d5
13
cf
eb
f2
fe
f6
15
d0
ca
f4
4f
21
de
f6
2b
fd
1f
1d
f8
3a
f4
10
ec
f9
ff
f0
f5
0c
eb
f7
1a
fd
f2
da
0a
34
0f
f0
fb
06
f8
02
03
ff
00
ff
01
fe
03
fe
fd
ff
03
fc
fb
fc
ff
fb
ff
fe
fc
00
fc
ff
fc
01
03
fc
fd
fd
fb
fd
f9
f9
f3
00
f9
07
fd
00
01
f7
08
00
f7
fa
f7
f6
f8
fd
08
0e
04
ff
17
e9
f4
f3
ea
cd
15
f4
e6
f0
11
c3
fc
ef
fc
0e
db
cc
32
03
02
ff
fe
fc
fb
fa
fc
02
fd
00
fc
ff
fa
fe
f9
03
00
ff
03
00
01
fb
ff
fe
06
fb
fb
04
fc
fd
f7
fc
f8
fe
fa
fa
fc
fe
f8
00
fb
fe
03
02
f8
00
01
fa
04
fe
0e
f4
f8
0b
2b
e7
f7
f6
0b
0f
02
e4
19
f9
fa
21
f9
0a
07
ec
20
37
ff
d7
00
f8
f9
09
fc
1a
2b
09
eb
f9
04
06
0b
24
ff
ec
12
03
e4
f8
e5
fc
e2
28
be
fc
fe
fa
fd
00
fe
02
fe
04
fa
ff
fd
ff
fc
01
fa
fd
fd
03
00
ff
ff
fe
01
fe
fe
d3
f2
df
03
14
ee
ce
ef
e9
15
14
fc
e7
07
19
fc
07
ed
e2
0c
13
00
3c
c5
de
fc
2b
01
f9
fc
f6
26
0d
f8
06
e1
cb
f9
ea
f5
fa
e9
04
0b
ff
e9
0e
07
d5
14
12
f9
e7
cb
02
17
1a
04
f0
ec
1b
0a
f3
fe
01
f0
e6
1b
25
17
fb
f8
16
3e
ee
fd
00
f9
fc
fd
fd
f9
fc
fb
fc
00
fd
fd
fd
00
03
f9
f9
03
fc
00
ff
ff
01
02
06
10
e5
08
fc
f7
d4
1d
18
12
08
fb
12
08
0f
09
ec
c4
0d
df
c9
10
02
15
e9
f0
0b
1b
12
04
fc
d9
ba
12
f0
19
f2
02
e3
0b
f1
fd
13
e5
f1
f7
ee
0e
eb
08
e1
05
de
f8
e6
16
fd
fb
11
1e
24
9c
b9
0f
22
e8
0e
e6
ed
ff
1e
e1
c0
d5
de
fe
27
e8
38
2e
0b
cb
f3
24
fb
f1
9e
0b
10
00
0e
e0
35
dc
2c
10
f5
01
de
f7
fb
f8
ee
03
ef
05
fd
8b
d0
e4
10
07
fa
d9
f2
0e
e3
f1
d9
f4
a4
a3
e2
df
e5
2a
1f
fd
fe
ee
dd
08
f7
08
04
2d
e8
2a
e3
09
cc
0f
d7
e1
11
e8
f8
f1
b2
c3
fd
fb
fa
fa
fb
fa
00
fc
fe
fb
ff
fa
fb
01
fb
fd
00
04
00
fa
fd
ff
ff
fd
fd
f3
1d
19
05
1e
fe
cc
f2
f3
00
13
ff
cf
e4
ec
df
df
e8
da
d8
3a
0e
44
00
fc
07
f5
f8
00
33
02
ff
ec
1c
d6
01
ef
05
1b
b6
12
0d
30
3e
31
e7
f3
22
0c
10
ed
f2
03
01
eb
f6
42
1c
ef
e4
f7
ff
0c
eb
e7
fb
fd
e1
c7
22
f2
d4
f0
c0
08
e4
21
fd
1d
18
14
d3
d6
c1
fe
cb
ef
fa
fa
fb
eb
f0
d5
0c
f3
ca
f1
fd
06
2f
f7
fb
fb
02
04
fb
ff
fd
f6
f7
04
fd
fb
ff
fa
fc
fa
f9
fa
03
00
ff
fd
ff
f9
e9
fe
f1
2f
d7
f9
1e
07
f6
f1
eb
17
13
e9
f0
31
22
ca
00
d2
2b
c2
d2
25
0c
3d
2f
0b
07
e1
49
18
ff
c3
c5
15
27
06
f5
e5
26
f4
10
ed
f2
19
2d
29
fe
1f
d2
cb
d9
ed
fe
03
fe
f0
0e
01
1c
00
09
e6
d2
36
1e
08
f8
ee
0a
11
04
fd
c1
11
19
f8
c1
e0
2e
1d
d5
c3
db
28
f8
0a
da
da
1e
02
2a
f7
e9
f2
d8
fa
0e
04
fb
ff
02
01
fe
03
00
fc
fd
fc
ff
fe
fe
fe
fc
01
01
fc
fb
00
fb
ff
fd
fb
fc
fd
fb
fe
00
02
fa
f9
02
03
f7
01
fb
fe
fe
fe
f9
fc
f8
f6
f9
f9
00
f7
f7
fe
fb
ef
ea
fd
f3
1a
1b
fd
06
07
06
04
f1
11
21
30
23
0a
cf
0e
24
fa
08
f3
39
d9
f6
12
0c
2a
fb
09
00
1b
f4
fb
14
0f
e0
cf
09
f2
ef
ef
f7
e4
df
f6
fb
f0
01
fd
f9
f3
12
f2
07
ea
1e
26
2c
0d
07
00
1a
dd
1b
18
fa
ed
de
09
fc
f4
f3
0c
11
02
0c
59
0e
13
22
0b
02
f9
2f
0f
fc
f4
38
11
fa
04
f8
e2
fb
27
02
1a
ee
e0
02
f1
fc
ff
1b
07
07
01
23
16
0e
fe
08
f6
e6
3d
2c
f1
e8
0b
09
f1
da
01
01
fe
ff
fd
00
01
02
fe
02
ff
fb
00
03
00
00
fa
f9
ff
fe
04
03
fa
fd
fe
21
0a
ee
f6
3f
eb
ea
0e
f9
2e
41
dd
0f
02
02
23
01
e6
da
cd
34
1b
16
ca
e1
0d
08
f0
f7
0a
22
14
01
f3
fa
25
f7
bb
ef
0c
e4
20
1c
12
08
34
1e
01
11
e7
d4
fa
f5
fa
f4
ef
f1
ef
04
17
ef
f4
ff
f2
19
a6
b3
2e
30
10
bc
c2
04
0d
0f
fd
fe
02
01
ff
00
fc
fc
03
fe
fc
fb
ff
05
05
fe
02
01
00
03
ff
ff
ff
fb
02
02
fc
17
0a
06
fc
02
fc
06
f9
f2
f6
f5
16
07
17
05
fa
16
29
0e
e7
ee
12
fe
ff
1b
f0
07
1a
12
04
08
20
1f
12
f5
f9
f8
02
00
f1
06
14
00
e9
e3
16
ef
d5
12
14
fb
fa
02
1d
13
08
02
0c
de
d6
f7
0f
1a
f8
08
1a
17
fa
29
f6
f0
f7
ff
03
01
fb
01
ff
01
00
00
fd
f9
f9
02
fa
fb
01
03
ff
00
00
02
01
fd
03
fc
ff
17
1d
f3
07
0d
da
00
0f
11
08
06
3c
10
f6
e3
eb
3c
32
df
bd
20
0b
03
e1
a9
04
f8
fc
f5
e9
ee
0e
0d
35
f2
d8
0d
19
1a
22
0e
17
fe
06
fb
f1
3e
33
ef
d2
f4
23
00
01
13
0b
f7
d0
0e
fe
e8
1f
fe
fd
1c
fe
e1
07
0e
ec
cd
cb
0e
1d
07
d2
ef
ea
0f
40
ed
15
ca
0f
40
03
05
ff
16
1a
32
1c
0d
05
2b
10
ff
04
26
24
01
ed
ef
f5
f1
e1
17
1b
e1
25
ff
14
12
e6
04
07
01
e8
f6
07
f2
f5
fa
15
cb
fe
04
f9
fd
02
fe
fd
ff
03
03
fd
03
00
03
00
03
00
02
03
fa
fa
fd
00
fa
fc
28
07
fa
ff
11
04
fc
fd
0a
23
e6
fa
f7
10
e6
c7
e7
f2
f4
10
db
df
07
19
f6
e0
c8
ce
eb
13
a3
ab
e4
fd
11
ee
f7
e9
03
02
e9
14
0e
1d
f9
f6
fe
f5
ea
b9
04
12
fa
f3
10
fb
f6
22
f5
d9
21
1c
03
07
e2
f9
08
0f
19
f7
ea
ee
09
f2
d9
fc
f6
f1
11
23
eb
ec
fc
42
45
e8
05
ec
f1
2a
0d
1d
12
f7
0d
04
27
1f
0a
12
07
f3
08
0c
29
11
ef
df
13
13
0b
01
07
f6
08
0b
02
0a
2b
02
2a
f1
08
00
19
e2
ce
e4
d0
10
0e
1b
f6
04
0d
1e
1a
e2
eb
02
f5
0e
14
e8
01
11
1f
18
10
03
27
f0
f3
16
fa
14
35
0f
f7
f0
2c
0a
de
d2
eb
06
d3
d8
f0
e0
dc
ef
00
e2
a9
00
0b
1a
13
fb
15
08
f8
0b
f8
22
ea
0d
fe
ca
f4
1e
ec
e2
d6
2c
fb
f9
e0
b3
e1
0c
0b
0a
29
fe
fe
0e
06
19
04
13
0a
1b
35
39
f0
17
2e
32
e6
02
fb
d8
c7
f3
fa
14
e6
f0
03
e8
06
fa
bd
fa
f2
f4
d8
e1
ff
d1
d0
f9
01
0d
e6
f6
07
f6
0b
0e
e5
02
fa
05
fb
fa
ec
d5
dd
f7
05
fd
05
e7
2b
0e
f8
fe
f2
f6
13
fc
ef
f8
f0
f5
29
f7
e9
f4
0b
f7
14
fd
f0
05
f1
05
06
f4
f7
29
1f
00
f7
01
0a
06
29
fe
fc
0a
19
e9
14
26
0d
1d
02
08
09
00
19
f7
f4
12
20
26
2c
f8
f2
df
f7
fd
01
1d
fa
d6
31
e0
e9
f6
cf
22
01
f4
08
11
fa
23
1f
22
14
05
f6
ec
1c
f9
fe
00
01
f6
fe
ff
fd
fd
fb
ff
f9
01
fa
03
fa
fc
f7
01
02
f7
fa
f6
f9
fb
ff
e6
e4
12
17
f6
0e
04
df
01
f9
c6
04
02
17
0e
f6
16
1d
07
f4
1f
08
e0
22
0e
fe
02
f4
ff
1e
13
04
f6
e8
03
1f
14
01
0e
11
1d
fe
f2
ff
f5
08
13
0d
0d
0d
f8
b9
d8
f6
26
0b
0a
ff
22
0b
16
0c
0b
fb
fa
1c
15
09
ff
1f
03
20
0a
00
ff
02
00
00
fd
05
fd
02
fc
fa
fd
00
02
fa
02
00
04
fb
fa
01
fa
03
03
ff
00
fa
dd
d8
de
30
41
09
df
ee
12
1e
33
0a
e7
f8
1b
00
fe
f9
12
23
f5
0c
22
37
12
1d
01
0c
ff
13
1a
19
05
16
0b
2b
f0
10
13
2c
ea
e4
04
00
e8
04
fa
dd
f1
ea
01
fb
f9
fb
ff
f8
01
ff
fa
f8
fa
fe
00
f8
f9
ff
f8
fa
fc
f6
fc
f7
fe
f9
fc
14
eb
f4
e4
ba
13
fa
03
0a
0c
f9
05
13
1f
27
02
f6
19
1a
25
ef
f8
eb
f2
fa
e3
1d
fe
f5
e7
f0
f9
02
25
05
ca
0a
0f
05
f8
ed
07
16
f9
fa
43
f6
fe
fb
ef
f6
f2
02
0e
ff
1d
f8
fd
ff
08
0b
f6
f9
16
3a
0d
2f
04
e9
fb
e6
e2
e3
17
ee
cf
f0
e8
f1
ff
2e
f9
07
ef
20
f2
e8
ed
12
09
04
f1
ce
fb
fd
07
1b
12
e9
2e
f9
00
eb
f8
e6
e2
dc
0d
db
e1
e1
f1
1d
0c
dd
0c
f4
26
08
d1
d4
e9
ec
26
24
02
fe
f6
1e
34
e4
e8
2b
24
2b
b5
07
0f
f2
23
f0
14
0f
18
01
0b
2d
22
0c
29
fc
fc
03
fa
f6
03
fe
fa
f8
fd
fd
fd
01
fc
ff
fb
04
fc
fc
fb
f8
fe
00
fa
01
19
20
0b
07
d9
05
07
09
05
d2
18
00
06
f1
e0
17
ef
d4
0f
d2
bb
ed
e6
f9
a5
fe
12
02
f2
01
10
dd
1c
f8
f6
16
fc
0d
11
12
e4
de
fa
12
31
f0
e5
05
f0
ed
fb
04
fb
fb
ff
fe
00
02
fa
01
ff
fa
01
03
fa
fa
00
02
f9
fb
fc
01
fe
fc
fe
24
0f
f6
1c
1e
39
0c
08
fd
26
15
1c
10
fd
0a
e5
2b
0f
e7
00
e8
21
d8
bb
f5
f5
1b
0d
02
2a
e9
ff
0b
fd
e6
04
f1
0a
fc
c4
df
02
3a
e2
1d
0d
c4
d8
9e
cb
04
f8
e5
03
00
e5
28
e8
0d
f3
04
14
15
02
dd
06
fa
fb
18
02
fe
dd
01
08
01
fa
08
0e
f1
d2
0a
fe
01
e0
d1
fd
00
ec
f2
03
c7
01
20
fe
ed
fb
24
e7
04
f9
e0
0a
f8
f6
29
19
08
07
02
f6
12
f8
11
1a
f8
ec
03
06
07
e9
ee
e2
04
ec
f5
31
27
0a
f9
06
10
38
03
01
ec
c1
e1
e8
d3
d0
c4
c9
d0
be
cc
95
b0
dd
b6
90
01
00
03
fa
fe
00
fe
02
fe
fb
fd
fb
fd
fe
fb
01
fa
ff
fe
03
fa
02
fe
00
fc
f8
f8
f5
f7
f9
f7
f9
f8
f6
f8
fb
fc
fe
f7
fd
fa
f9
fd
fb
fb
fe
fb
f6
f1
fc
d9
0a
f2
04
08
17
ec
da
0b
30
19
e2
05
03
01
03
2a
e9
d2
e9
1c
05
e9
eb
0c
f1
e0
c7
ea
fd
23
fd
af
05
04
25
fe
00
05
ca
f9
14
f5
fb
18
ef
e8
04
21
1b
22
0c
fc
e1
ff
fb
1b
05
f4
de
18
ff
db
ea
0a
10
0e
00
0a
eb
f6
20
25
fc
18
16
04
19
1e
24
2b
0d
0d
ef
fb
fa
b9
c9
b9
f4
0e
ed
c2
0b
0d
e1
f9
f8
0d
ff
10
02
1c
12
16
07
0a
14
14
1c
c3
17
2e
04
f4
de
e5
dc
cd
f5
0c
f1
fa
07
37
00
fb
00
ff
f9
fd
f7
fb
ff
f7
fc
fc
fc
00
00
f9
fd
f9
fd
f7
f7
00
fb
00
00
00
fa
f9
f8
fa
ff
00
fd
ff
f6
fb
fd
f7
f6
fc
f7
02
00
f8
fa
03
fb
02
ff
fc
32
09
f2
06
0d
23
13
d8
dc
db
f9
ba
c6
e1
d1
0a
02
d1
d3
cb
f7
09
0d
04
02
df
de
dc
f4
12
28
e8
cc
c3
20
4f
37
ba
d2
03
51
14
fd
d4
e0
0e
27
03
0a
f9
03
f3
f4
ee
f0
ff
f9
ef
f2
fa
fc
fa
ff
fa
f8
f4
fa
fa
06
ff
fc
fb
f8
f8
f9
ba
fe
17
ce
d9
ba
f3
09
07
87
f2
f2
f9
fe
9d
ed
ff
12
e0
bb
05
d3
13
06
c0
f8
ea
14
04
ec
0a
20
10
f2
eb
e0
14
e9
fe
f0
d4
f1
0a
01
0b
38
2d
16
36
32
21
23
09
19
2a
0a
0a
05
12
06
08
f9
f6
fd
08
f6
f7
0d
00
01
e3
f0
57
15
16
15
f6
0a
25
19
f2
08
d4
16
3b
ec
fc
1f
09
08
d7
10
2a
f8
28
f1
1c
21
16
2b
f6
03
03
1f
f9
0d
15
16
f4
17
11
02
eb
c9
1d
12
0f
f2
ec
1c
39
e9
03
dd
06
ef
fa
2d
12
c4
d4
25
fb
ec
fa
df
12
09
ea
d4
ed
f0
f8
c6
b0
15
0c
f5
da
cc
df
f5
11
f7
1f
11
03
0d
ff
07
e9
24
04
22
0f
11
f9
f3
04
27
0c
e0
fc
e4
07
f4
e3
ee
f6
f1
ee
f6
08
19
09
07
07
f6
12
0d
0d
f8
f2
1a
00
d5
fb
0e
f2
d1
fd
e4
12
0a
0a
11
ed
e4
f2
1a
06
e2
e8
21
16
00
fe
fe
fb
06
ef
ec
f4
d9
cd
fc
d6
18
12
17
fb
04
e0
21
0a
fe
1c
e3
f0
1d
ef
d9
25
0d
11
e1
e2
d9
df
fa
ff
04
38
1d
fb
1e
18
fa
db
d6
c9
ee
db
e7
cb
3f
d7
f2
07
f9
f5
f7
f0
f8
01
f8
fc
f7
fa
f2
04
01
fd
f7
f9
02
01
fd
f9
fc
f6
fd
00
fc
f5
fe
fd
fc
f7
ff
cb
c9
10
2b
ea
e2
ec
e4
f6
ef
a8
e4
e7
12
d4
e3
0d
fd
05
1a
11
f1
d2
db
e8
11
19
13
fa
10
00
0f
24
f5
cb
13
10
e9
10
fe
44
10
f4
e3
db
f8
f5
ee
0f
f3
fb
b3
01
0a
00
16
2b
ef
dc
20
08
10
25
fe
08
f5
03
0f
0c
29
25
01
03
16
07
f7
2a
2c
f0
f1
e2
fa
23
19
18
d3
ec
10
0d
04
ef
fd
f5
13
16
fe
33
26
3a
dd
f5
dd
0a
09
ff
0c
f0
f4
1f
28
13
0a
05
f9
21
f3
d4
ef
de
ec
f9
d4
db
c5
e7
fe
fe
fc
fa
fb
02
03
fa
fb
ff
fd
fb
fe
fb
fd
01
fc
00
00
fc
fb
02
02
01
fa
d4
09
33
0f
f0
04
ff
e1
fd
cf
0d
fc
f7
fb
d9
27
18
16
03
d0
1a
27
f0
1b
de
10
f8
06
08
f6
1f
fc
09
03
2b
38
10
16
04
f5
2e
26
23
16
e5
1f
02
fd
09
1a
00
f6
fc
01
00
ff
ff
fb
fe
fc
03
fd
01
fb
fb
ff
fc
fe
fd
f7
00
f8
fa
fe
fc
fa
fa
f4
f9
f2
fd
02
f7
f6
f4
f5
ef
fa
f8
fd
00
f8
fa
fb
f4
f7
fd
fd
fa
02
15
00
df
ef
2e
15
0f
0e
fd
ff
0c
0e
f1
fe
18
1d
0e
0b
23
0b
dc
ed
1b
13
0f
01
02
01
fb
fe
00
01
fc
fc
fb
fd
f9
fa
01
fe
fe
ff
02
f9
03
00
ff
ff
00
ff
01
03
fd
fc
00
fb
fe
fb
f7
fe
f8
fb
ff
fb
fe
00
fb
fb
fa
f7
fa
f7
ff
fc
f8
eb
f3
e6
13
02
2b
06
db
07
fa
28
fd
f3
03
07
0e
04
ec
19
ef
23
01
e7
dd
e3
c2
0b
1b
15
f4
fa
12
e2
ea
06
24
2a
33
19
fc
16
16
17
08
df
d8
0b
e8
e7
e1
01
ff
02
fa
ff
fb
04
00
fa
ff
fc
fe
fd
fe
fa
fd
03
f9
fe
ff
fd
fd
fb
01
fa
f3
2b
fa
0a
11
05
f1
0d
f6
ed
dc
05
28
f5
fe
1e
11
17
00
11
48
03
de
f4
ee
fa
fb
09
0b
05
0d
05
f8
e3
0c
0c
15
16
13
e1
bb
f6
0f
14
10
19
f0
01
03
22
0e
00
ee
ed
25
27
fd
28
ee
f4
2c
18
0d
0f
15
26
09
f8
26
3e
d7
e4
fe
22
19
fc
fc
04
fd
fb
ff
fe
ff
ff
fd
fe
fd
fd
fc
01
fc
fe
03
fa
f9
fe
03
03
ff
fc
f3
0b
08
f9
c3
dd
00
02
fb
e2
de
0e
f6
ea
15
fc
16
e9
03
0e
2b
db
e8
e8
ef
fe
11
3d
30
0f
d3
e0
08
12
04
f4
e5
03
f8
06
fc
17
0d
f4
10
04
0b
f4
fc
ea
05
d5
f3
ee
19
e9
f7
03
e9
0d
d3
20
0b
f5
ff
03
1b
02
ed
ca
00
0a
ef
df
bc
e0
db
d2
13
15
ce
d7
06
14
1a
e2
f3
f9
16
07
04
ed
fa
14
07
f6
eb
08
25
11
08
f8
eb
f6
0f
cd
06
f4
d1
d8
01
d5
af
03
d9
d6
16
14
10
d7
e7
da
f1
ef
fb
05
01
11
f1
14
00
fd
06
f4
fb
d6
1c
10
00
f3
ad
16
1a
02
e1
bb
f4
e5
e7
bc
fa
f8
fc
f8
f7
fb
fb
f9
fe
fc
ff
fd
f8
fb
00
00
fd
00
fc
fb
fb
fc
00
fc
01
fa
f1
0b
f3
fd
09
14
01
ed
d9
c7
e1
fe
fc
01
08
07
e2
dd
cc
da
de
05
fc
33
e0
f9
f4
0e
fe
eb
d7
e5
05
11
ed
d4
f6
fa
10
d7
0a
16
23
20
d4
0a
0c
0a
d9
10
0a
1a
fa
fd
19
12
0e
fc
01
f7
0e
f5
00
1a
fb
09
08
07
2c
ec
eb
1e
13
31
ff
0d
16
fd
f5
e1
df
0d
f0
20
c2
0a
dd
e9
01
b8
d4
f3
f1
ea
15
fc
1d
1c
18
f5
fc
fe
fd
fa
fe
00
ff
fb
f6
fa
f7
fe
fe
f9
fe
fe
fd
f7
00
fb
ff
fb
f7
f8
9c
ec
02
29
fe
c7
f9
16
17
14
eb
fa
23
f1
12
fe
f2
06
03
f1
ef
11
f1
11
eb
02
f8
ed
35
fc
fd
f1
18
f6
ea
fb
f9
13
e7
b7
e0
ef
12
10
fb
ff
fa
1d
15
15
1f
27
e9
f7
eb
0d
1e
eb
e7
f1
f7
10
e2
fa
fe
f7
f7
f5
0b
fc
ca
d6
16
ed
e5
28
23
3c
16
16
1a
24
cf
01
18
22
d4
eb
d5
df
1f
19
27
f2
e6
1b
07
14
02
e7
02
01
02
01
f9
00
02
04
fe
f9
01
01
f9
00
fe
fb
ff
fc
01
f8
00
fd
fa
f8
f8
02
fa
00
03
fb
02
fc
f8
04
f9
f9
f7
f9
00
03
fd
fa
f7
02
ff
fc
fd
f6
f6
ff
f9
f8
e1
ff
1c
06
af
e4
15
07
0f
f8
01
01
fd
2f
0a
0e
0e
fb
14
22
22
21
03
d8
9c
a8
f2
01
e8
30
f8
f7
f2
09
08
08
0e
f8
1e
23
ee
34
f2
2f
f4
fc
0c
05
05
1d
18
b1
07
25
0e
c0
06
fd
f8
06
ee
fe
05
8e
d3
07
0b
25
b9
dd
27
20
16
fd
e3
ee
ff
01
e9
fa
d8
f5
01
00
eb
f9
f6
f1
03
08
01
07
b8
01
f6
04
ff
d8
06
09
ee
38
20
cc
ab
ac
19
08
f1
00
b8
f7
0e
03
09
22
04
11
0c
36
3c
12
eb
fc
fe
fe
ff
f8
01
fb
fd
03
fc
fe
ff
fe
ff
00
fe
fc
ff
fb
fa
00
fa
fc
ff
02
fc
dd
b8
e4
11
1f
f5
e7
14
08
0a
0f
0d
28
05
0a
ed
0e
23
0f
10
fe
fa
eb
03
1e
1b
14
f0
05
37
15
e8
02
1b
40
28
d5
08
05
dd
fc
eb
d6
0d
d5
d3
c3
e3
d7
33
1a
20
22
01
13
ee
00
08
f9
11
d5
f6
c9
e4
1a
ef
01
15
f8
0d
23
e1
0b
d9
03
01
fe
fe
ff
fd
02
fa
fb
00
fa
fd
03
fe
03
fc
fd
f9
01
fd
01
fd
03
04
03
14
18
03
eb
03
fe
09
fb
ff
f2
01
ea
0a
f3
fc
f5
ec
13
13
fd
24
10
1f
03
0d
ee
1f
22
ed
e1
f9
24
28
f4
01
41
27
e5
15
07
09
28
f8
e0
e4
0a
04
07
ed
ef
05
a4
cd
ec
1a
04
c6
08
10
1f
dd
da
07
17
0b
08
0a
e2
fa
ee
ea
1c
fc
e5
e5
fc
f9
ff
fe
fc
fa
f8
fb
fd
fd
ff
00
fb
fe
fa
fb
fd
01
00
ff
ff
01
02
ff
fb
de
aa
fc
bf
f9
e7
09
e3
b5
0a
19
03
14
ef
04
13
f9
08
fd
e6
1a
fb
15
29
eb
04
06
c8
01
19
05
2a
d1
34
33
f6
fe
1a
15
0a
d6
0d
ee
fd
04
b6
f4
fc
ee
0a
93
ec
25
04
e3
14
0a
fd
e4
fd
ca
2d
f3
ff
2f
a9
c1
16
e9
0d
e2
02
32
18
da
16
e7
f7
04
db
e9
05
00
01
ee
d7
2c
dc
e7
ee
d2
ce
f2
da
03
29
f9
2c
de
04
ac
ff
e0
e8
f4
e9
ed
15
e4
e6
18
1f
15
03
ff
0e
29
f7
f2
13
0d
32
28
dc
0e
fb
02
03
ff
fb
fb
fa
05
fc
01
00
fd
00
01
fc
fa
fb
fe
fc
f9
02
02
fd
fc
fd
ec
0b
16
0a
10
ce
fe
f9
03
16
04
e5
da
fe
d9
fb
f2
1f
08
d7
d5
0a
ef
15
e8
f7
f4
10
f7
d8
d7
cc
14
03
08
f5
e0
d5
20
19
f5
23
df
11
07
09
ef
ed
0d
12
27
09
e7
22
0d
ee
2b
2d
36
ec
0d
ee
1e
06
eb
03
db
f0
df
13
e4
f5
d1
2b
4d
4f
0a
f1
f2
0e
ef
18
ea
0d
05
17
e9
0d
19
05
f4
08
0b
0d
2e
ec
f9
27
fc
0b
f6
43
c6
db
0d
e9
15
ce
df
0e
ed
09
e5
dd
0d
b6
d4
e1
e7
04
b0
86
f3
eb
04
ea
12
ff
fb
30
23
d1
14
d7
1b
3a
43
f5
dc
01
24
da
12
d9
04
05
08
ec
c1
f8
c0
cb
07
fc
ef
a8
d9
10
fb
fa
04
0f
1a
22
fc
09
f3
ea
0f
03
20
03
1b
16
02
9c
20
0d
fe
14
d8
d7
d8
ff
f9
ea
fc
cb
17
cc
d6
e4
ee
d2
cc
da
04
bd
ae
8c
f7
cb
fb
f0
01
ba
fb
0f
04
f4
fb
fc
ef
fd
f2
f6
14
03
2a
ed
aa
8c
ef
13
f9
2c
2d
e5
14
e1
23
f4
e8
13
f9
24
07
fd
f4
22
31
0f
f1
15
13
25
2a
20
13
19
c9
c3
1c
3b
fd
19
05
fa
1d
06
05
0f
1d
da
08
ee
1f
1f
bf
fe
09
1b
e8
e2
10
f3
03
e5
e9
02
d7
1b
f5
16
fe
b2
49
17
f0
ff
f4
09
fd
0d
2f
b4
e7
d5
01
1a
c9
0f
d6
ea
f2
ea
45
01
12
d4
d8
37
fa
1d
0d
fe
f4
07
05
0d
ca
d8
04
30
15
f5
f1
0a
15
f9
da
fb
eb
10
00
df
0b
e2
d2
ef
23
29
16
11
d3
1c
14
43
01
e8
fd
fc
f7
ff
f9
01
fc
fd
f9
fb
01
00
fb
fe
fc
03
02
02
ff
fc
0b
05
00
05
fd
1e
01
d9
da
10
1e
13
ed
dd
23
1d
f4
d1
df
17
09
a8
ce
d1
fa
28
c8
c4
bd
f2
21
07
ba
df
07
ad
cf
a7
96
fe
ed
d1
f7
c7
f6
f3
bb
18
0d
0c
7d
de
09
bf
15
1b
f9
f3
07
0b
2d
fb
d5
0d
f3
09
10
06
0d
f5
1e
31
0d
07
fa
1a
f0
05
07
e3
fb
01
01
fd
fd
01
fa
fa
fb
fc
00
fd
f9
00
03
fe
fd
02
ff
fb
f8
05
fc
fd
05
21
ec
e2
da
03
cc
0c
0e
fe
fd
ba
d4
0f
08
f0
f8
de
e7
fa
f9
17
ec
0f
01
22
f0
05
f1
f2
f2
10
07
dc
e1
e7
1b
f9
00
02
af
06
07
1b
17
04
f7
0a
11
e3
e9
ff
01
09
f7
01
02
00
07
fc
f9
fe
03
00
01
fa
01
f7
02
fa
00
00
00
fb
f8
f7
fb
24
16
08
fd
0d
1d
1b
2b
09
f7
09
13
0a
f9
fa
08
14
08
e5
e3
08
ee
bd
e0
f6
04
2d
16
e9
06
f3
dd
f7
03
15
11
c9
3d
31
1f
14
04
f7
19
03
23
22
00
ff
b7
35
d2
08
1e
ad
bc
e9
df
fc
0d
e5
da
fe
0b
18
29
02
fe
0e
3b
f1
ff
f4
0f
02
0a
fc
0b
fd
1a
00
fe
16
13
ea
b1
d8
f6
f3
06
c0
fe
0d
f7
fd
a5
12
40
1a
2a
0b
2a
ed
f8
2b
0b
0a
0f
ff
4a
dd
f6
13
1d
45
15
b9
ec
f2
29
30
e0
b8
d4
0d
0c
ff
13
ef
0c
11
28
28
0a
0c
25
ed
1b
10
07
ff
a7
f9
f7
e7
d0
b9
31
14
01
00
fb
fe
fc
ff
f8
00
02
fc
ff
03
05
fb
00
ff
fb
fd
01
fe
f8
01
02
fe
f6
da
eb
0a
e0
13
06
f7
d7
d2
0b
fd
1d
01
22
03
db
0d
f2
d7
06
de
0b
ed
ac
d9
d1
e3
cf
f9
1e
24
07
15
19
16
08
f2
16
fc
05
14
fb
13
22
0f
11
01
f6
01
e3
fe
fe
f9
fa
ff
fe
fa
fe
fd
fb
fa
ff
00
01
ff
f9
fb
03
fd
fb
fc
fc
ff
01
03
fe
19
eb
c5
ef
14
01
f5
f7
0a
23
24
d7
fd
0b
26
0f
f2
1e
fe
35
39
01
1d
c4
1d
d8
ab
ca
f5
ea
02
fe
01
ed
0f
23
3b
2f
f2
3c
0e
f5
fd
e9
18
32
ff
02
bf
19
ef
05
e3
f2
33
0b
f1
f6
01
0e
f5
f8
21
ff
0c
10
03
05
1b
0e
e6
06
19
1f
25
1f
2f
22
c2
1e
05
2d
0b
01
c8
ea
20
09
cb
35
e7
c8
15
a9
e6
0b
e2
f1
e2
f7
24
bd
bc
16
30
de
f3
ed
0a
ea
c2
db
02
04
d2
03
2a
0c
0b
1d
f6
10
1e
34
3f
e3
98
f8
19
3b
2b
15
f7
04
2d
1a
f8
d1
02
27
e5
df
00
e9
20
25
22
1f
ea
03
00
02
00
fd
03
fe
fd
ff
02
fb
fe
fe
02
03
f8
ff
fc
ff
02
00
07
01
fb
fc
fe
00
f2
f5
ff
fa
02
fc
ff
f8
f5
00
ff
f3
01
fb
0c
01
f7
03
07
02
ff
f9
fd
c0
cf
e5
c8
05
c7
0e
fc
e7
de
f7
10
e4
0a
02
1c
09
fc
d3
e9
33
1b
0a
07
df
ea
ff
1e
f7
0b
1d
f6
1c
ff
fa
eb
0c
f5
1a
1f
e9
d6
12
b4
08
42
2d
fb
e7
1c
07
13
21
20
ed
ff
12
20
04
e5
09
0c
0b
0d
fe
15
bd
e4
14
16
f3
a3
c5
14
10
03
f3
fb
e0
25
e7
1f
05
fd
10
fc
02
03
ed
cf
13
06
de
01
05
f8
ff
fc
ef
19
b0
c6
fb
fb
0a
1d
1a
14
0f
f8
06
0a
f0
ed
16
09
fa
f1
f4
f3
29
fb
d8
1c
e5
ff
02
fd
02
fa
00
fb
00
03
fb
01
03
04
01
fb
03
01
ff
05
ff
ff
ff
fb
fe
f9
04
02
01
fa
00
fe
03
ff
ff
fc
f8
02
fd
f9
fb
fc
f8
fd
fe
ff
fa
f6
f7
f8
02
2d
13
00
cc
f2
dc
2f
ec
0a
f9
e7
07
0c
0d
ef
fb
00
2c
ec
0c
f3
f9
34
11
1a
f4
28
33
e8
f6
f4
3e
2a
eb
d1
19
33
26
e6
0c
1f
25
14
01
13
e6
06
d1
f9
ed
07
03
02
02
f2
ff
f9
01
fc
ed
fe
f3
f3
f7
fb
04
f6
f2
fa
fa
03
fe
ee
f6
f9
2a
dc
19
2c
17
f4
00
04
2e
f8
db
fb
eb
21
ff
ef
f5
f3
22
2b
0c
ed
e7
f0
20
1e
07
c4
1a
1c
06
e9
d5
37
01
23
f0
d1
e5
06
f7
f4
bb
f8
0a
c4
ca
e0
07
1c
29
fd
fe
eb
d5
07
15
09
e4
ba
29
0f
1d
24
e4
e5
0c
0c
f2
01
e7
27
fa
01
28
06
28
de
02
19
fa
1d
06
fb
02
b7
ce
e3
fa
f5
e9
ed
dc
10
06
fd
c5
01
07
17
b3
c6
16
ed
ff
ad
10
18
eb
f3
f8
fe
fc
12
ed
15
08
23
ee
ee
f4
08
12
ee
e5
6c
97
15
25
00
e2
08
1e
46
f6
0c
0e
f0
0a
01
01
e5
e8
e6
f2
0c
04
17
0c
03
08
0b
13
14
e1
14
14
0e
f8
ca
01
10
12
16
e2
ef
eb
0e
ed
e3
d8
15
21
ec
fa
2a
05
d6
05
e3
e5
c6
0f
db
2a
0e
fc
ef
d7
f7
d0
06
11
0c
0b
30
06
01
e0
fe
0d
c7
d3
ed
08
08
fb
09
f4
fb
09
ee
03
e1
14
04
0b
f5
c7
2c
cc
e2
37
f9
05
2a
0c
e4
fe
f4
ff
e3
c2
1b
0b
a8
c5
05
f9
13
d1
f7
0e
fa
04
d5
01
e4
08
0a
e0
03
0c
ec
fa
1b
12
30
ec
0d
2f
1e
1d
f0
02
f1
15
02
1d
f5
b5
fb
08
16
11
f9
f3
fd
f4
f3
01
f6
ff
fc
fb
f9
f1
07
fd
f8
fa
f2
f8
fc
fb
02
f8
04
00
f7
40
2c
f1
f2
1e
0b
f8
eb
04
f6
f6
ea
14
f7
07
13
ec
11
1c
ed
35
02
1b
fb
ff
51
e6
16
f3
e3
f3
0b
e0
0d
f7
e3
0e
29
00
df
f6
be
f3
d3
cc
ab
c4
fe
99
d2
d9
df
f2
0d
e6
c2
0b
fe
ff
e5
b7
1c
12
ea
f5
e7
f3
19
f7
05
24
ff
3f
37
f4
eb
f9
0c
05
0e
15
fa
07
08
28
da
e4
af
04
05
ae
fc
e2
fc
fd
04
d4
e8
ad
0b
d5
f5
f6
f2
f7
0a
0d
10
f4
0b
f2
08
1e
14
00
1d
02
0a
f3
06
13
1b
e7
05
05
ff
04
fe
fa
f8
fc
fa
02
03
01
f8
f8
00
00
02
03
fa
02
fc
00
00
fa
01
00
fe
fc
f7
fe
17
26
33
cf
0d
12
01
24
f7
1a
0e
07
37
33
04
fa
08
20
40
f6
ef
16
db
20
17
f4
0e
23
21
1d
f9
00
18
39
f5
16
fa
31
3d
10
0a
c6
3f
02
27
fa
f2
fb
f7
fa
fb
fa
04
fc
fa
ff
04
fe
f9
03
01
f9
f9
f9
00
fe
00
00
fc
05
fd
fc
03
f5
fb
04
f7
fc
f8
f7
05
f7
02
f3
f2
01
fb
fd
f4
ff
fc
fc
fd
fb
ff
ff
fa
25
06
e4
ca
d8
07
1c
1c
0e
f4
f3
f8
33
11
db
e8
0a
d4
01
ca
d8
be
02
fa
1d
fd
02
f8
f9
01
ff
02
ff
00
03
00
fc
01
fe
00
f9
fa
01
fe
02
01
fd
fd
fb
00
03
fa
03
05
fd
fa
fe
02
ff
00
00
fe
fe
fa
ff
fb
04
04
05
fc
00
fe
03
fd
03
e0
04
0f
f6
fa
bb
20
de
00
ea
a8
0e
0a
06
0f
92
f4
06
1f
00
ab
e7
23
e0
0f
11
f9
ec
ce
04
1e
28
15
fc
03
e4
14
23
08
fd
f3
20
fc
32
f5
1b
21
03
b7
bf
00
fb
fe
fb
fb
00
fe
ff
03
ff
fe
fe
01
00
fe
fb
01
fa
fb
01
fc
01
03
fe
fa
32
fa
0b
28
ee
1b
18
1c
f8
e4
f5
08
fe
20
05
10
1b
ef
07
0e
bf
f6
eb
f8
e2
3e
04
f5
e7
ff
55
22
51
06
de
d3
27
17
f3
fb
2a
4f
18
ed
f4
f0
39
4e
20
e7
e0
a6
a8
0d
fb
e0
ce
04
29
20
f1
20
1c
20
1f
14
25
12
04
10
1c
34
c8
e6
0c
03
fa
02
ff
02
fe
fb
f9
fd
fd
fd
00
00
00
00
00
03
00
f9
f9
fb
fb
ff
fa
01
04
13
17
24
02
26
2b
f4
11
0d
f0
12
de
09
00
ea
07
fe
13
c9
02
fd
d8
03
f2
9b
ad
16
0d
1c
de
ff
f6
f6
05
38
05
df
ff
00
24
0b
e2
eb
ee
d1
fa
fa
03
d6
3e
cd
e9
10
1b
5c
ed
0a
01
25
fc
e6
ed
19
fc
08
e6
0d
d5
02
23
fb
09
ed
ed
19
08
e1
c8
ed
2f
21
b3
ca
1a
2f
3e
a3
f9
f3
34
32
e8
f7
ee
63
0c
34
18
f9
03
ff
30
e7
06
29
2b
08
e4
ed
34
46
ce
01
f8
3b
41
e0
06
06
1e
2d
07
0a
05
23
e1
c8
23
06
e7
ac
be
01
21
fb
f5
ec
12
0f
08
f8
1b
fe
0d
07
e3
ef
15
e4
f8
00
fa
01
fd
01
ff
fb
fa
fb
00
fb
04
fe
00
00
fe
01
fd
ff
fe
fc
fe
fe
fd
38
e8
ee
e6
03
2c
2a
19
05
1b
0f
2c
fc
ee
f9
cc
17
03
eb
eb
b6
14
05
ed
f5
25
09
e2
ff
f4
13
f3
d3
0a
eb
c8
c2
f9
e1
fd
0b
b3
ba
bc
ed
40
eb
c6
30
04
76
12
d8
f5
f1
31
f4
ff
c3
03
f0
ef
f5
f2
05
f3
de
1f
09
f9
e1
27
fd
32
30
20
26
1b
16
f4
03
d8
ea
07
0d
03
be
dd
16
07
0e
ca
16
f2
f4
cc
02
0f
f1
05
01
fc
00
fa
f9
03
00
fe
01
f6
02
fc
f7
02
00
03
01
f9
05
00
fc
fc
fb
04
fc
27
1d
bf
c1
d9
e5
e0
16
ea
06
fe
f9
03
fc
16
07
07
02
e0
00
05
f9
de
04
ef
c2
81
d1
24
fd
e3
e3
e9
f3
ec
fe
f3
d1
0f
07
fd
37
f3
19
f5
d0
20
12
05
f6
d6
d8
d7
b8
e5
ea
af
21
1f
f8
20
20
39
04
10
0e
ff
01
06
14
11
22
0e
ed
02
d8
0a
0e
1a
fc
12
0a
16
15
2d
f8
21
28
07
13
03
ef
e9
e9
16
e7
f0
18
00
07
02
01
ff
fd
01
f9
fe
fc
fd
ff
01
05
fe
fa
04
fd
fa
fc
fb
ff
03
03
03
05
fe
ff
f6
fd
fd
00
fa
f8
00
fd
fb
06
08
03
fe
02
f9
fd
ff
fe
fe
ff
f6
f7
fc
f8
19
d2
0d
04
f5
ec
f6
e2
cc
19
be
0d
d6
f9
0b
e0
ef
ff
f6
10
d8
c6
d0
ea
1b
e8
4f
5b
13
07
13
fe
16
04
f7
14
14
05
01
b8
29
06
10
ed
bf
07
02
15
f0
d8
2e
f1
f9
1b
1a
32
2b
2d
0c
da
24
fc
fe
fd
06
26
fe
fd
e8
f7
ff
13
18
0f
fb
ba
07
22
31
32
0e
0e
0b
14
fc
19
09
04
1a
fd
f8
fe
f0
fe
0a
f5
0d
f8
01
0b
14
f5
02
ba
c3
5b
c2
eb
01
f3
1c
fd
ef
03
f2
e6
ea
f5
19
f1
03
d7
d0
e1
06
04
f9
fc
01
00
fe
f9
ff
fa
fb
ff
fd
fd
02
f8
ff
fc
fd
01
02
fe
02
02
f9
01
0d
27
07
22
0a
3d
15
0f
2a
19
12
ab
de
df
e1
31
fa
0e
ed
f9
fe
15
16
f3
eb
fa
0a
04
d8
06
20
ff
fb
10
1f
0d
f6
0e
e6
fd
00
23
eb
18
1b
05
0c
11
17
f7
16
09
0b
ec
fd
8d
f9
1b
25
13
da
e8
fa
02
22
0f
0d
09
0d
36
e6
02
08
0d
2f
02
fe
04
02
fc
ff
04
03
03
fe
ff
fc
fa
fd
fc
03
fa
fb
03
05
fb
02
fe
03
fb
db
3d
00
29
43
20
f3
e4
04
d7
12
ff
ce
eb
f6
16
10
15
15
fc
32
0c
03
00
02
a6
cd
0f
d7
16
ed
17
e3
eb
23
21
26
27
f3
16
ff
f7
ef
15
f9
af
b6
cc
04
10
22
ee
1d
24
13
f8
02
e7
dd
dc
e7
ea
f5
03
0e
f5
f6
ee
fb
f4
00
03
13
fe
f8
03
04
fb
fe
f8
02
00
00
05
01
02
fc
04
02
03
fe
f9
01
f8
00
03
ff
02
00
fb
9c
e8
f8
0d
22
dc
14
0f
0d
1c
f1
17
02
04
f7
f7
3c
24
fd
fe
f0
0a
fd
13
0e
e6
e2
e8
ee
12
0a
b7
f1
ff
dc
b3
fd
dd
d1
d5
cd
e7
e9
07
f0
d3
08
08
0c
01
16
2c
12
4e
cd
eb
f8
df
df
14
09
1c
20
00
fd
04
2c
31
f1
e1
f4
05
05
ef
07
9d
af
27
fa
ce
a6
8e
e0
f7
2e
08
0c
02
ec
11
36
10
0d
f1
04
fd
01
f6
0c
1a
bb
41
38
10
f3
26
00
22
f6
e0
0d
0f
1d
13
ec
02
f6
e9
f4
04
f6
f2
cd
d5
f5
00
05
01
00
04
fe
02
05
00
fc
03
00
05
fe
fe
00
00
fb
03
03
04
03
f9
02
ff
d2
b9
db
0b
1b
f1
13
1c
15
17
ef
f5
28
01
00
0f
d5
e6
18
01
fb
fb
13
13
11
28
d6
ff
3c
02
fc
f9
ee
0c
35
f4
11
06
0e
14
48
0c
fd
f8
12
24
18
0e
05
e1
fb
e0
f3
fc
13
ec
ec
fe
07
b4
e7
02
fb
ea
d4
fb
e2
ff
ea
f2
d6
da
e5
04
dc
cc
b5
12
00
4c
ef
f5
fb
17
fd
cb
12
00
12
04
c5
dd
f7
08
f1
0c
06
02
29
2b
27
1f
0e
2e
0d
fb
0d
d1
e4
e7
e4
f0
c7
19
18
01
e9
01
f5
f7
12
2b
fc
0f
e5
0f
da
ff
02
10
30
03
ec
f4
fa
fc
05
e4
f1
c5
1f
e3
f8
ed
0d
16
0b
1e
14
26
db
ef
0e
ec
c1
05
13
f2
bc
e2
e5
21
d8
cf
f6
f5
21
d3
dc
05
fb
ed
28
28
25
4f
f4
1c
fc
1a
ec
e5
f4
0b
27
f6
30
13
f9
03
19
35
08
20
ed
0e
09
14
14
e8
dd
30
3a
0e
21
bc
ff
f1
2b
29
20
13
10
06
32
cb
e8
ef
f8
17
20
f7
ed
0e
02
cf
d6
f5
e4
da
1d
04
09
f0
04
ff
48
1d
fe
cf
e2
23
f4
f2
01
f3
07
03
ff
11
34
11
29
e1
c5
20
2e
33
01
f9
24
1f
04
f1
fe
ec
0d
f8
0d
06
f3
1f
f3
f1
f5
0e
ec
e2
f7
09
08
01
e6
de
23
fc
12
f3
f5
09
2a
e9
03
02
0d
17
08
f7
14
f6
10
4a
29
f4
0c
ef
0a
07
31
f6
e5
f8
05
04
f5
27
0b
f6
01
0c
1f
dd
de
eb
02
33
21
1f
f5
1b
0b
21
f6
06
2c
1c
f9
10
00
00
1d
f4
e4
f6
f5
e8
fa
ea
ea
d4
07
01
fb
ff
ff
03
f9
fa
03
01
00
fe
ff
05
fe
fe
00
ff
fb
04
fe
05
fc
fe
ff
0e
02
27
12
f0
08
dc
e3
f3
1f
f2
00
ee
fa
fa
12
0d
f9
1f
2f
fe
0a
11
13
ea
1a
07
df
1d
28
36
02
f3
e3
09
12
0f
05
2d
03
fe
e2
ec
18
0e
f4
f8
fc
08
12
9f
bf
d1
e7
d9
2c
bf
bd
c3
fe
10
1c
16
e2
2d
c4
fd
01
ed
11
1d
0b
f6
0d
f5
04
fd
fe
ff
fe
fe
03
03
01
00
01
05
04
fe
00
fc
04
fc
04
fd
fd
00
ff
fb
04
dd
20
f3
0d
0c
e8
e5
fc
cb
a7
2f
ee
04
fa
da
15
00
13
19
0c
19
04
02
01
03
16
0f
a3
e1
50
e2
e9
e6
fa
2b
f4
1d
0d
06
21
ee
0b
09
ff
e8
00
ff
0e
e5
f3
fe
04
09
0a
03
01
04
00
05
f9
fd
fd
ff
f8
fb
fd
03
fa
f9
fc
fa
fd
fd
fa
f6
0b
14
07
fc
61
07
fe
04
aa
ae
fd
e6
04
15
f7
24
07
f7
22
18
21
0b
07
05
09
b7
0b
07
fc
10
26
18
f9
f9
09
d3
fc
0b
f1
07
e2
fd
08
16
07
e6
e5
f8
0b
09
1b
3f
1d
0e
2c
c0
fa
f8
24
2a
f5
e2
ed
04
0b
1f
ec
f3
0d
04
e8
0d
0b
06
e3
c4
00
11
f4
09
f5
15
0b
f3
f5
ef
0a
f8
f1
0d
ee
fe
0d
d2
f9
00
fe
f3
f0
e2
fc
e0
ca
05
b3
46
d9
dd
b6
cb
0e
ed
c4
c3
d6
0c
02
ff
09
29
11
db
1b
1a
1a
26
2a
fe
06
d2
df
02
fa
fa
f1
f2
e7
f2
0b
15
d6
cb
cc
d6
ee
f2
d5
d7
e9
fd
03
02
00
fc
fd
fe
ff
fe
fb
00
05
04
fa
fa
02
ff
01
03
f9
f9
fe
02
f7
fa
f8
e5
da
ce
fb
47
ef
20
03
0c
ed
0f
dc
fb
df
fe
d0
d1
dc
f2
f8
02
fa
fa
02
24
f4
36
ff
1a
02
f2
06
07
ef
17
2e
14
df
f8
2e
24
41
09
fe
14
bc
00
ec
e8
e3
02
04
05
ff
02
05
01
fb
fd
fe
fe
00
03
01
00
01
01
fd
fd
05
f8
fc
fb
f7
00
12
45
38
1d
28
17
ee
1f
e6
07
ed
f6
d9
29
ec
fa
fe
0b
19
33
01
09
1a
11
fd
21
f9
27
0e
66
f6
ef
1d
29
3a
fb
11
f7
11
f7
d7
e7
db
f5
ad
1f
06
f7
e6
9a
d5
61
f2
05
0e
b6
ec
e1
fb
19
9e
e3
dd
0d
14
22
15
00
02
e0
0c
06
ef
ff
fb
f9
2c
fe
f3
c5
16
07
e9
fd
17
e2
08
14
18
ed
12
15
16
0e
1b
05
01
ee
f6
f0
fc
f4
27
08
3e
ec
fc
1d
06
f4
03
1a
22
ef
eb
25
0f
0a
fd
d0
f2
e3
d0
e5
c3
3b
3e
09
08
fb
0a
40
1f
0b
02
f6
0b
f6
f1
de
0e
1d
e7
e9
fb
bd
be
e4
c4
06
fe
fe
fe
06
ff
03
ff
00
03
03
06
fb
fa
05
fc
04
fd
05
fc
fa
00
f9
01
02
fb
f7
f1
06
01
07
01
fd
02
04
f9
f8
03
06
fe
06
06
07
fb
fd
fb
01
fc
f2
fc
02
b6
d8
a2
1d
0a
e5
03
03
15
fa
e6
fb
0a
0b
0a
ee
22
09
05
1c
d4
f6
d1
ff
e5
84
ed
0b
c5
3a
32
03
bc
d8
03
e0
cf
e1
fc
d8
d6
f9
09
29
04
ce
ec
0f
10
fe
38
d4
c5
c2
06
f1
1e
02
04
11
d4
ef
e9
f9
00
14
1b
02
13
fe
02
0c
2b
10
05
02
29
23
31
3c
f3
ed
ff
00
fc
ba
ce
c1
fe
09
fa
ef
ea
c5
9d
11
ff
e7
05
d5
b9
3b
22
f6
df
d6
cf
cb
e6
14
c7
cc
bc
ec
16
2f
0f
04
02
fe
f6
1a
11
e3
ff
fb
fe
fd
ff
fe
ff
fa
fb
03
04
ff
fb
fe
00
fe
01
ff
fe
01
f8
03
06
01
f9
fd
00
fa
00
fa
03
f5
fc
f8
01
fe
fc
fc
f6
f8
fb
02
02
05
ff
ff
fe
ff
f7
02
fb
07
1e
29
30
08
14
31
1e
fc
eb
1c
15
a8
bb
f2
eb
11
e9
ba
c1
04
2e
0b
fa
1a
0b
c0
b4
ce
f1
00
ca
cb
c5
ec
13
e3
04
d3
1c
1f
3c
ec
ff
17
f9
10
f7
14
26
f4
f4
fa
ed
fb
03
ff
fd
f5
0b
fd
07
fa
f7
f1
f0
fc
07
0a
03
06
01
fb
fa
f8
02
06
19
25
ef
fe
f5
1e
00
eb
f5
11
ff
d5
b2
03
27
15
0b
e5
ed
1e
1c
e5
eb
e9
0b
fe
06
d8
14
02
03
14
10
08
f4
16
18
cb
c4
e3
fa
f7
01
01
ef
ee
0e
2b
21
f7
f1
ff
1d
24
e2
28
06
ee
41
e0
f0
04
03
f4
07
e4
f1
b7
ea
f8
e7
14
2f
0b
e3
10
f0
15
e5
e4
13
17
28
10
11
10
f6
ee
f2
fc
df
fc
de
d8
19
ff
ff
ff
0d
11
4a
08
f3
0c
f7
00
01
08
11
e4
e1
fb
1f
08
e1
e5
13
48
f8
fd
ed
0f
14
02
ee
f6
0c
00
c3
0b
09
ee
ea
cc
14
e4
07
d5
e4
f1
f2
a7
bf
fe
fa
0d
d3
f4
bc
f8
18
d4
f3
be
09
06
08
11
20
1b
f9
d8
03
19
f0
01
f3
11
12
11
e5
e8
e8
0b
0d
33
fb
fc
f7
1d
1c
fd
05
18
fa
fa
e1
fc
13
f1
03
13
11
03
11
1a
fe
04
e6
ee
15
20
1c
ff
0f
04
1b
e7
05
17
eb
df
04
cf
f7
f8
15
12
d8
ff
1c
0d
ea
1f
dd
1b
de
b9
01
08
13
ff
03
07
21
f0
e8
19
07
fa
09
09
1e
e8
fa
f2
03
21
1b
26
12
38
ed
27
35
ec
16
37
22
fb
0a
ec
1b
e9
9c
7f
c3
e0
b4
a0
c1
e4
ff
f7
fc
f9
f6
f8
fe
00
04
fd
fd
fe
fa
fc
fa
fd
ee
f8
03
fd
fa
ff
f7
ff
00
ff
d9
d7
12
33
13
ea
0e
df
07
0b
e0
24
e8
e4
c4
ec
f3
fe
00
f8
d9
11
0f
ee
df
c2
0c
30
f9
e5
08
05
ec
f1
14
3f
13
21
f0
f4
f1
13
f2
fe
1b
f3
13
13
09
21
28
ee
d2
08
0e
e1
0a
da
01
e7
9c
07
fd
11
f9
eb
f5
05
0f
09
13
00
f6
18
27
25
33
1f
09
0d
05
0e
21
35
d2
2e
f9
f8
ee
06
f0
05
ea
e9
ec
02
f9
f8
16
06
dd
a0
ec
ea
0d
15
16
06
ff
f6
1d
e3
02
e6
e4
f4
0e
17
16
f5
3f
f9
df
fe
02
05
fe
fd
02
01
fa
fc
f9
fc
fa
fc
fc
03
01
ff
fb
fd
03
fa
fd
ff
ff
fc
fe
ff
1b
31
09
f9
fa
ec
f3
cf
e7
e4
fd
fe
f0
cf
e9
c7
df
f8
e5
0d
f9
06
ef
fa
da
df
22
0a
22
12
0d
22
07
1f
0e
ee
f6
27
0b
e8
d8
d5
ea
fa
02
e5
ed
e6
fb
14
f7
fd
00
fb
01
fd
06
01
fc
04
04
fc
00
01
fc
04
01
03
02
fd
fe
fc
f9
05
fd
fc
fb
fb
f1
fd
ff
fd
fb
ff
fa
fb
03
fc
f5
fb
fe
fa
f1
fb
f5
fd
fa
fe
06
01
37
32
0f
d6
07
c8
ee
e4
f2
14
d6
ee
da
d0
eb
10
0b
f2
e5
00
0c
0c
0d
f2
f5
02
02
fa
fd
00
fa
00
00
fa
f9
f8
01
ff
03
fe
02
fe
fe
fd
fe
fa
fc
02
fd
fd
01
02
fc
fa
fe
04
fe
ff
04
03
02
00
01
ff
fe
f8
fe
00
f9
fd
02
04
ff
fd
00
14
06
f7
0c
2c
f5
d3
e5
e6
f5
2c
fa
ef
08
f2
40
fe
05
10
11
1b
eb
13
fb
f3
bb
03
fb
fb
48
df
05
27
e1
02
fb
07
fb
06
fe
f6
0c
08
dd
ea
ef
e9
ff
f5
fe
fc
ff
fb
fc
02
fd
fd
01
fe
05
ff
fe
fd
04
05
fe
00
fd
fc
fc
02
fe
fe
fd
01
13
02
02
02
23
d3
cb
ec
fd
25
e7
13
18
05
1f
26
fa
f2
fb
fb
07
24
12
12
29
02
01
ee
3a
0a
2e
ef
fa
e5
e1
00
d5
0a
0b
ed
ee
08
f6
18
0c
2d
0e
01
1a
1d
01
e8
ee
01
20
d8
eb
fb
f8
d9
2e
f4
17
e3
dc
21
e8
fc
e1
ee
eb
e8
25
15
0c
00
fd
ff
fe
fe
03
00
fe
fb
fe
fb
02
02
fc
00
fb
fe
01
05
03
03
fe
00
01
00
11
06
c1
cb
36
d7
dc
06
e8
1a
27
27
0d
08
18
1a
10
03
04
e2
22
17
0d
fa
f8
19
17
33
fa
d0
e5
db
d4
fb
0b
ba
f3
ea
1f
f5
f0
08
07
2e
26
15
0d
11
0e
f3
14
c2
90
f7
17
2c
2a
f4
3c
01
fc
01
06
fa
f7
e1
ec
dd
ed
25
09
e8
e6
d0
14
34
39
14
0f
34
22
d9
f0
0d
48
c9
d2
e1
1e
18
c6
ec
02
22
0d
02
07
0b
0d
f7
e2
a8
ee
f5
ec
0a
dc
bc
ed
15
d9
e2
b4
d5
e2
07
1a
18
fc
d2
fe
f2
04
f8
fb
25
d7
02
f6
b0
1c
1a
eb
f3
07
29
16
0e
01
0d
0f
12
0e
24
04
e4
db
f8
e0
d9
04
fb
00
00
ff
02
03
04
fb
fe
fc
fd
00
fc
fc
fb
fa
fd
00
f7
fa
fc
fe
fb
00
16
2d
e0
22
2c
1d
1a
ec
fa
0a
64
e5
d1
06
ec
30
08
e1
ed
da
09
fb
11
d8
03
12
34
22
0b
25
f1
c9
05
ff
11
24
ce
f1
e4
b2
d4
05
15
1a
17
10
11
12
0b
01
0b
27
34
ea
ef
2e
15
eb
fb
09
24
0b
e9
04
e9
04
1e
ed
f1
dd
e1
fe
f6
12
01
00
32
09
fd
fc
2e
04
de
e2
bc
3f
1d
e9
e7
e9
ef
08
e3
da
12
0f
0f
fb
02
0f
01
01
fc
04
03
01
02
fc
fa
fb
fb
f9
03
fc
fe
f5
ff
ff
00
fe
03
f8
fe
fc
ff
3d
22
f5
1b
a2
26
1a
17
f2
fc
e9
11
09
f7
b1
e8
e3
e2
ce
fe
fa
d1
d3
dd
fe
f5
53
ec
24
d6
fb
fc
ed
02
01
2e
04
fa
f6
b3
0e
09
d7
09
1d
02
06
e9
20
02
01
0c
36
c6
ec
d6
0b
16
fd
02
d9
fc
f6
f2
1b
d9
0f
f4
09
02
fe
13
f8
ff
00
fa
1b
e3
0e
15
00
12
f4
0d
f4
14
ee
e4
fd
f0
1f
ed
08
ed
fb
f5
14
ef
10
22
fa
01
02
00
ff
fc
03
04
01
01
03
fa
fb
fe
fd
fc
fd
05
fa
fa
ff
03
fe
01
f8
fd
fb
ff
00
fb
f4
f8
02
01
fe
fc
fd
fc
fd
01
fa
f7
ff
01
fd
f3
fc
fc
ff
f8
18
fe
07
f6
eb
11
e4
16
24
e8
09
fe
18
24
dc
16
f0
2b
0c
e1
19
00
09
ee
fb
0a
da
11
e8
1d
38
06
d7
e9
db
f8
f0
d4
f0
ea
f5
a1
ef
fc
0d
dd
e3
e4
07
15
f0
37
f9
fe
06
0c
0a
fb
f4
24
e6
de
df
fe
20
dc
cb
11
f5
13
ea
10
15
12
10
5d
08
e0
f4
02
17
fc
ee
06
38
11
f9
06
f3
e2
ef
e7
1e
e8
13
f6
13
21
31
04
e9
18
e0
04
29
ee
d3
e8
12
07
ca
f5
e9
10
0d
e1
b9
a1
d8
1a
f3
b0
09
02
19
00
01
ff
fa
f9
fd
f9
01
02
fb
02
fb
fd
02
f9
03
fd
fe
fa
fa
fa
ff
fd
03
fb
d0
03
e8
0d
e1
04
21
0c
e6
f0
fe
f4
e1
17
0b
eb
f1
da
08
22
12
09
12
08
fb
18
b7
11
c8
3a
f6
ea
14
2a
f0
f5
e5
16
1a
eb
0f
02
db
f0
17
05
06
d3
e8
fa
f6
28
f8
28
1d
15
f7
00
07
10
01
17
0d
12
fb
30
0c
d9
ee
f5
11
1c
18
17
1e
fa
02
ff
fd
fa
01
fc
fe
fb
01
fc
ff
03
02
03
fd
03
fe
05
00
fb
fc
00
fb
fb
e2
0e
1b
07
2d
90
f8
11
23
fe
9c
f3
ff
2b
19
b0
ed
e7
f7
06
b7
ea
37
ff
18
29
10
06
31
01
32
0f
11
31
01
01
1f
19
28
ed
01
e6
fa
0e
ef
fa
f3
fd
d9
f5
11
fc
f5
de
41
18
f3
fb
f9
d1
14
f9
18
f2
08
10
05
18
07
0e
17
10
0f
15
03
fc
01
fd
fc
ff
ff
ff
02
fc
03
01
f9
fd
fe
fb
f9
03
01
00
00
fb
00
f9
00
fd
c4
0d
ee
0e
0b
35
18
d4
e9
fd
2f
0c
c7
b1
0c
0b
04
bf
fc
02
eb
1b
0d
29
f0
f7
ed
f6
22
08
50
1d
f9
10
cc
f7
f6
f7
f2
d3
d5
12
01
00
04
21
2b
0e
0f
31
30
fd
fe
e3
fa
0a
fe
28
e9
01
fc
1c
03
e3
f5
fb
dc
1a
f7
00
15
e3
21
04
00
d8
fe
ea
37
dd
f5
14
0d
0d
36
ef
13
39
19
02
0a
12
fc
e1
0f
f5
01
08
f8
e1
eb
de
fd
ed
1d
08
ff
01
cc
26
e5
cd
f3
ef
10
e5
ea
e9
fe
27
e9
03
f6
06
22
05
00
03
fb
fd
fd
fd
02
fc
fe
ff
fa
f9
fb
fe
03
fd
fb
fd
04
01
03
fc
fd
fb
fd
0d
f8
e1
0c
2b
15
dc
04
ef
1d
16
17
ed
fc
f3
1b
0e
fa
f0
f8
ea
f0
fb
05
c4
ba
0f
04
f0
de
29
ef
dc
00
3b
d6
1a
de
ea
20
0b
f3
12
e6
be
1d
f8
f8
f3
1d
2d
f3
f1
01
18
ef
01
fa
e3
25
d3
f4
02
fc
26
07
32
ff
f4
35
19
2f
d5
ef
1d
f9
f6
e1
df
30
27
2f
fd
09
00
fe
f5
1f
26
fd
06
0f
f2
f2
be
ed
07
fd
e6
11
1e
dd
e3
0a
21
f8
e0
fd
0f
0b
1c
0b
11
07
18
08
f0
08
0d
0a
1c
0f
1b
35
07
2b
17
e7
22
e4
fa
03
07
0c
0c
ca
02
0a
45
1c
25
09
df
fb
0b
e5
0f
98
f0
fd
f8
e6
ed
2c
fc
f6
f6
0b
19
07
f9
eb
01
16
05
df
22
1b
04
20
df
1a
17
ff
dd
25
26
fd
f8
d7
ee
fc
cd
21
cd
dc
0b
fd
35
e0
11
01
f8
e0
1c
e9
ee
da
cb
ee
0d
03
05
f2
08
01
1f
00
eb
17
0e
f7
f6
f6
01
0c
13
15
f6
ec
1b
f4
cf
12
1b
0e
f8
15
12
ee
09
e2
f6
14
25
07
e4
d4
23
08
e1
c4
c8
f5
01
f1
c6
07
01
cd
00
da
10
f7
f6
f6
e8
14
e8
f2
f9
0e
02
ed
d8
f1
04
26
24
f4
f5
d2
27
e6
9c
ff
1e
e0
e4
d5
01
f4
14
e1
a8
20
f9
fd
f6
e5
f5
11
23
da
d2
10
f7
14
db
20
b8
de
f6
b7
34
d0
c8
ea
11
12
0d
e4
c7
e5
2a
0d
06
ed
0a
1c
08
16
d1
e2
3f
e6
ed
06
bd
e8
c3
1c
06
ff
f0
fa
0a
0b
06
1e
12
f0
f6
ef
23
1d
0c
0d
12
fd
fe
fc
fa
fc
fd
fa
fb
03
fe
ff
f9
fb
fe
f9
fd
fd
fb
00
fe
fc
fc
00
01
00
e9
38
f7
13
06
19
ed
f5
f2
25
27
fc
e7
16
0a
2c
d1
bf
df
f2
31
05
06
c0
d1
f6
21
0b
03
04
d9
22
2e
0b
10
f5
e3
c0
ed
15
bf
ca
df
c2
0c
0c
e6
f4
c8
0b
39
e2
04
18
17
0c
09
1d
f2
fd
15
e7
05
03
16
2a
bc
d0
01
13
35
f7
fb
0d
e5
01
00
00
fe
ff
04
ff
fc
fe
ff
ff
fe
03
03
fd
ff
fd
fe
fe
fe
fc
fb
fd
04
fb
af
19
f9
0e
ef
dd
0b
15
23
10
eb
0a
21
f9
1e
b5
13
f6
fb
17
c5
ff
f2
de
1a
3b
2a
21
06
f6
08
e5
e1
21
f7
fd
f3
e1
ee
f8
eb
1f
08
f7
cf
15
25
ec
cc
c5
f9
ff
02
fd
00
ff
04
04
fb
00
fa
f9
f8
00
f8
f8
fa
fd
fb
fa
fa
fc
ff
fd
01
48
06
d6
bd
c6
33
03
fd
f4
ee
e9
fe
0b
fb
cb
01
e9
17
f3
f4
17
3b
2d
0d
03
01
00
0f
25
e1
17
ff
ec
ed
dd
0f
13
02
ce
ca
f9
0c
c8
d9
ea
16
20
ef
ff
21
ac
e5
f2
01
fa
da
f5
eb
1b
c7
04
f0
16
22
e0
1b
f1
f6
dc
f7
f8
ff
db
11
fb
d9
26
23
0d
ed
17
fe
cc
00
f1
d9
df
0d
04
eb
dc
0f
30
1a
2c
25
e9
2d
2d
26
22
d5
f1
ea
c5
ce
f8
07
df
0d
dd
0f
01
01
16
fa
f1
11
eb
29
36
0a
09
0f
11
08
1e
01
00
43
05
fd
06
ef
e9
f5
d2
e0
d5
ef
f8
fe
c8
03
0a
18
02
fc
f7
0a
ff
ff
04
fb
fb
fc
fb
02
fd
fd
01
ff
fe
fd
fe
04
f9
f8
00
f6
fb
ff
ff
01
fa
f6
14
0d
e3
15
30
ec
f9
ee
16
f6
f5
e7
f3
07
ff
2d
1a
1e
05
1a
ff
fc
ba
16
29
e4
2b
f5
10
18
f8
1d
f0
01
35
fe
fb
0d
f6
40
0f
0b
02
e3
17
23
e4
1a
0a
fe
fc
03
02
00
01
03
03
03
03
ff
ff
fc
ff
00
ff
ff
ff
fc
fd
f8
04
00
03
ff
16
f7
fb
04
03
13
0a
0d
0f
31
16
21
10
13
14
ec
f5
f1
18
cc
f6
fe
1d
16
e4
02
cb
05
e9
00
e3
06
d9
c6
16
01
f4
f2
11
0a
ef
00
df
27
d9
0f
0f
f9
05
df
e2
0f
f5
ce
ed
18
0c
2a
f1
22
03
18
1f
23
0d
24
0d
f8
e0
0b
07
0b
f1
ee
0f
d7
21
f2
3a
d6
f7
e9
0d
f1
ec
c5
37
04
dd
17
e4
21
fa
3b
f8
d6
fa
10
27
0b
fa
16
32
17
13
08
cf
02
f8
17
e3
ef
f9
11
24
eb
f8
d8
ff
ef
af
eb
23
ff
f6
15
f7
f6
04
17
25
05
e3
15
0c
01
ff
10
2b
17
ff
12
ff
08
f3
fb
f5
eb
eb
dd
06
00
01
fd
00
03
ff
f8
03
fd
fa
fa
02
fa
fb
f9
00
02
00
01
fd
00
fb
01
00
ff
06
ff
fc
ff
fd
ff
f7
f7
fb
01
04
f2
f1
03
01
fa
f2
f9
02
03
f5
fd
f7
fd
b3
df
eb
fa
e6
e4
f3
06
13
18
11
f7
17
0d
f3
10
17
18
2d
ff
fd
0a
e9
fa
b7
10
ed
e6
f8
02
ee
18
1e
06
07
fa
ed
07
23
ff
31
de
17
0d
e5
23
fc
51
f1
f6
23
eb
0b
f9
0d
02
df
fb
2a
f9
f1
13
22
f9
f2
f9
01
23
f9
de
17
1f
c8
b2
ef
30
e9
0e
fa
14
25
09
0b
0e
12
01
23
de
08
0a
dd
e3
ce
ef
d2
fa
e6
d8
15
fa
d7
e5
cc
12
19
13
ff
14
e0
1a
0b
20
1c
04
1c
14
1b
02
2b
21
f4
09
f6
f6
e6
f9
01
01
fd
04
00
fa
fd
ff
fa
fa
00
fb
f6
f8
00
ff
00
f7
01
fc
01
fe
fc
fe
02
02
fd
f9
ff
ff
f7
00
f7
fe
02
f7
fd
fe
f6
fa
fe
f8
03
f8
01
f9
fb
00
f7
f3
0e
d3
24
02
2b
14
f9
21
06
01
fe
05
fe
0c
e4
01
1b
fd
ed
06
0c
0d
fd
10
e5
d3
fe
f5
f3
cb
f6
1f
0b
fc
c2
e9
fa
f6
1c
d9
1a
07
21
1e
0c
f5
0f
03
17
f3
fb
f8
fc
f4
02
fb
f9
f8
ed
fb
02
03
fa
fa
00
f3
f8
ef
f9
01
f7
f2
f0
fa
12
06
2e
ff
05
06
fd
12
cd
06
f4
0b
0c
ec
14
21
0f
f9
fb
10
ed
ff
bd
0a
f2
18
12
0f
11
f0
eb
ef
08
df
fc
eb
ed
25
34
f5
11
06
36
1b
06
0e
10
0c
f5
ff
26
11
26
fe
e9
f9
0f
0c
0a
f3
ea
16
19
34
e9
be
0b
fe
13
02
d9
1d
07
0a
1e
1d
07
f2
22
dc
14
1a
11
1e
08
ff
f2
f0
f6
fd
04
f2
19
e9
03
02
f8
ea
14
f7
c1
f5
04
07
0c
fb
ff
e4
e2
16
f1
0f
1a
21
17
e6
0f
eb
1c
ed
e8
ff
1f
21
f4
d7
0a
01
0d
10
11
00
f2
00
e4
0d
16
f8
f4
e4
f6
0f
f9
f9
0c
03
f2
cd
f6
15
26
2b
1f
f0
e0
2c
08
ec
e6
02
20
f9
f4
ee
e8
0b
f7
00
0a
e5
07
0b
16
28
34
42
cc
eb
db
ce
f4
d4
94
dd
f7
e4
9f
ed
e7
07
0b
e3
d7
e4
ee
fe
0a
c6
92
3e
f4
f6
11
ff
34
04
00
fa
07
e0
11
0b
00
17
e6
1d
04
20
07
f5
19
ef
f6
20
fb
0a
1b
27
06
13
24
31
02
ea
e7
ed
f6
02
13
02
01
de
14
18
f7
d1
f7
fc
17
1d
15
20
cd
fb
02
dd
de
d6
03
fb
e7
95
ef
0a
f3
d9
fe
d9
08
03
f4
b5
ee
f0
eb
00
fc
f6
f4
f7
03
f2
fb
fc
f5
fa
ee
fd
fa
fd
01
f6
ff
f3
f5
ff
05
00
f2
ef
00
d9
f0
1c
fe
0c
e7
08
15
00
f2
f9
ee
18
0f
ef
f7
f1
0c
e6
e0
ff
1c
e2
1b
fa
ee
c9
0d
08
0c
14
c0
f4
f2
00
06
02
12
1a
f8
19
f3
bb
05
fa
1c
12
93
ee
c3
ba
08
dd
ea
bc
d7
e6
ee
04
07
05
0e
10
05
2f
23
0b
fc
03
42
14
08
ed
02
f2
f0
0d
f4
12
fa
03
27
09
e3
ee
fc
f9
c7
d3
bf
f1
08
0b
ec
01
d6
33
ed
01
d3
17
06
fc
ee
c4
e3
0a
fc
09
e3
05
11
ef
dd
1b
eb
fe
f5
0a
fc
15
2e
21
f3
fd
ff
ff
ff
01
02
fe
fc
fc
fc
fe
fc
01
ff
fa
00
03
fe
fe
fb
00
fe
00
ff
02
24
13
de
10
f5
1a
22
0f
0c
f2
06
dd
fb
0d
14
00
f7
eb
fe
00
0c
41
ef
c2
05
26
15
31
00
ca
0f
05
e3
e9
f3
01
12
f9
fc
dc
10
d9
fe
df
01
d0
d4
ee
1a
1c
01
ff
00
ff
fd
04
02
fe
02
fb
00
02
ff
04
fe
00
ff
01
fa
01
01
01
01
fc
05
fa
fb
f9
f4
ff
fc
f9
f8
fa
f8
fc
fc
fe
fa
fc
00
03
fd
0c
f7
fa
08
f6
fb
f7
27
29
dd
02
d3
38
e0
09
eb
db
10
00
1a
13
ed
18
1d
2e
18
f7
31
17
37
2c
30
04
fc
fd
02
ff
fb
01
fb
fe
f9
00
fc
ff
fa
fd
01
02
fd
fa
02
02
03
ff
fd
01
ff
04
fd
00
02
ff
03
fe
fc
fa
fd
01
fc
01
f7
f7
fa
ff
03
f9
fc
fa
fb
fc
01
59
a9
21
03
1b
6f
d9
fa
15
0a
58
e6
f6
03
0c
8d
cd
00
2d
16
b3
dc
0a
1d
eb
ea
fd
1b
fa
cf
f2
0a
0f
02
14
cd
11
fa
fa
0e
f9
18
d7
ff
0e
f1
1d
d8
d3
ce
02
00
fd
fd
03
fe
fb
02
fa
03
00
02
fd
fa
ff
fd
03
00
fd
00
fe
fa
fa
02
fa
46
1c
f9
0f
0d
21
0c
f3
0a
10
0e
fd
bb
d4
0a
21
06
e5
ed
19
36
17
dd
2e
c9
39
d5
f1
e3
ff
fc
08
d3
dc
ff
01
0b
d4
dc
0d
fc
0c
18
0d
0c
10
19
1f
c8
fa
df
05
0f
10
33
f1
13
e8
24
13
1a
e5
c9
f6
f9
04
17
09
09
df
02
fa
0e
04
db
fa
fc
fa
02
fb
02
fb
ff
fd
02
fb
fd
00
02
03
00
01
fa
03
fd
fb
f9
03
00
ff
0e
f2
01
29
ed
ff
0a
01
23
e8
03
08
15
01
0b
09
e3
f7
fb
17
20
d5
16
fe
05
01
0e
22
f8
34
16
02
3a
2c
29
00
28
37
fa
0d
ec
ec
03
fc
f3
e4
de
02
ed
12
fc
2d
12
10
f5
35
0f
06
19
ce
29
01
22
15
15
fa
f6
e8
06
0d
15
fd
12
fc
0e
c7
11
f6
0a
da
e6
c3
ee
01
dc
f3
e2
0f
20
e8
f2
f2
fb
e6
16
fd
3a
18
f8
02
a3
0d
12
2e
2b
16
0b
4d
16
1b
e1
28
0b
1a
12
0d
01
c4
ea
08
f0
ee
ec
2d
08
ae
f3
f9
14
08
06
ef
be
06
18
0c
d1
ea
fc
09
0c
e7
f5
d9
fa
00
03
9a
da
d5
03
00
fc
03
03
f7
fc
01
04
01
fb
fd
f9
f8
fa
fb
fe
02
fe
02
fc
fd
02
02
fc
fb
fc
e6
3f
2c
b7
02
19
f9
16
d2
09
05
04
f3
e6
ec
1d
03
fc
f9
f3
ed
11
02
19
23
24
3d
ea
e3
08
11
14
d4
16
fd
fd
df
d2
07
ea
e2
e1
0b
08
0c
f9
2b
e0
05
fd
f1
eb
24
df
e9
04
e5
08
10
0c
dc
22
0a
01
20
f5
0c
fe
f6
07
23
07
1e
21
10
36
2a
1d
0a
0a
14
27
1d
fd
36
17
10
2d
ff
e4
c8
fa
12
91
ef
21
10
0e
03
fc
03
fe
01
fd
fc
02
fd
03
f6
ff
fd
fe
fd
f9
03
00
fe
fd
ff
fb
fb
fb
ff
12
16
ed
9f
e6
b7
c9
ec
d8
f4
c4
e7
f8
f7
14
f8
e4
10
f4
35
e2
d7
54
1f
10
f0
b1
19
f0
fb
19
e0
eb
09
1d
fe
e0
fe
ee
2e
f7
10
1a
e5
f2
12
16
3c
ce
0a
17
d1
e2
05
0b
f1
02
0f
1f
3d
f5
0e
08
f3
0f
18
f0
34
f0
07
ef
14
f5
ff
e2
dc
13
02
e3
02
01
03
04
31
e9
16
f7
e8
20
fc
ed
e2
d2
ef
fc
16
17
10
02
0b
03
ff
00
ff
fd
01
05
05
02
fc
00
fe
01
01
ff
fd
fe
00
ff
fc
fe
fd
03
01
f9
fd
02
00
fd
09
fd
fe
fa
fa
02
fe
fd
fc
00
f8
fc
f7
fa
fa
f9
fa
f9
fd
fe
f8
ee
06
12
f5
e7
fe
de
d7
14
1b
16
f6
ce
cd
06
ce
c3
05
f4
c8
d1
34
e9
87
a5
0d
21
03
13
e5
2d
19
0e
03
c4
08
cf
d1
0e
3f
0f
02
0e
fe
e0
dd
03
fc
21
14
2a
f8
fd
20
15
fb
16
0b
fc
05
f9
ff
e2
28
ab
ea
f6
ff
14
d5
2a
1f
ed
0d
05
23
ff
0f
14
13
09
0e
fd
fd
fc
0e
f7
07
bf
27
da
1e
ec
ca
18
05
00
f1
ed
ce
e7
19
08
03
e9
e0
fe
fc
3a
f7
10
02
01
1f
ee
fc
09
d4
e3
0b
e8
0a
ed
f3
2a
01
f8
fa
01
fd
ff
fa
00
00
ff
04
fc
fd
00
f9
fa
02
fc
01
fe
01
fe
02
00
03
ec
f7
19
f6
09
e3
ef
0b
1b
d4
17
dc
e7
1e
96
df
fe
fe
fb
fa
0e
df
ef
11
4e
c6
d7
df
01
ec
ca
f1
ff
0b
0a
01
1f
11
f0
eb
2f
03
1a
17
29
e6
c5
4a
f3
43
23
04
d8
05
fe
11
f5
fa
fb
ff
0d
d5
05
fc
07
f7
01
24
24
ef
22
18
0c
01
f7
fe
04
ff
01
02
fb
ff
04
fd
00
02
00
fb
00
fb
fa
fe
ff
ff
fd
fc
ff
05
fc
03
f8
ef
08
f9
0b
08
10
0f
e6
29
16
12
0c
05
f2
ec
e3
17
12
18
e4
16
14
17
17
1e
19
05
f1
36
3d
08
f5
d6
dd
24
f2
1b
24
01
c3
fe
0b
14
0b
fc
33
0b
01
e0
d9
f3
f3
11
37
f5
12
bc
f2
0e
d3
e9
fa
e2
03
ce
0d
eb
eb
f4
01
0b
fa
0d
07
00
03
ff
03
03
fc
04
fe
02
02
ff
f9
f8
fc
fb
fd
f9
f9
01
ff
fe
fb
00
03
fa
f3
20
27
fd
e5
fa
08
21
1c
05
25
ff
e7
e3
1c
1b
d2
e6
f5
27
19
20
d4
02
fb
03
06
18
f4
e1
ff
fd
25
03
cf
13
34
14
01
fc
21
3b
e9
00
20
16
18
d9
07
ef
0d
ad
ee
12
11
f9
e7
2e
18
e4
c7
0e
41
03
18
e1
17
ef
0d
2d
f5
1c
1f
27
b3
c6
ed
05
14
e8
04
fc
1d
01
fb
fd
1b
2d
17
2b
14
2e
3c
fe
eb
13
47
f5
08
2d
f8
dd
2d
ec
e8
f0
0b
1d
08
28
29
14
0e
31
2b
33
3e
03
e9
ef
41
1c
00
e9
da
fd
ff
fd
fa
fa
fe
03
ff
fd
02
00
04
00
fb
fe
02
04
01
00
fc
00
ff
fc
fd
05
ef
07
08
29
3e
1c
28
0b
0e
11
1c
cb
1a
00
de
23
0f
22
03
f1
da
c5
d3
0b
0c
ba
ce
fb
fd
08
ec
f0
31
01
13
00
03
1c
1b
2d
06
24
42
28
1e
01
0a
f0
e6
56
0f
0e
05
f9
e0
fe
f9
fd
08
cf
df
e9
da
fe
fc
df
dc
e4
18
de
04
cc
f8
57
ed
fd
e9
e4
07
06
e4
ed
df
0c
f3
00
de
df
1b
03
ed
f8
f3
0e
13
25
1c
37
f4
04
f4
0e
33
1a
fa
d9
0f
0d
cb
c3
fe
ea
0f
d1
00
cd
f9
05
dd
ff
dc
1e
21
00
f3
00
16
43
0f
fd
22
f0
c8
23
08
05
ee
da
fa
e7
e7
e7
bc
e3
fa
e1
f4
ba
f6
b4
26
05
00
40
fb
04
24
57
0e
01
0c
ee
fd
08
f0
fe
e2
f5
dd
d4
e3
11
fc
e1
e2
fa
05
fe
de
ed
ff
01
10
07
eb
f3
03
f7
02
a2
17
08
db
33
fd
21
25
e5
f8
e0
10
10
08
f4
01
fe
1c
e1
f9
e8
bd
e7
fc
f5
fa
fd
e4
03
fa
f5
ef
f9
2e
0b
3b
ea
fd
38
f9
1d
ef
09
0f
15
f2
fb
0d
fb
22
e7
f8
de
f5
17
f1
0a
d5
14
27
4d
de
09
0a
ec
e2
2e
20
22
05
e6
0a
10
04
fe
18
ef
39
d6
ee
de
f4
2a
e9
16
fe
cb
f9
0f
2e
22
f1
04
1b
0a
20
17
10
f8
ec
e0
1a
06
f0
08
ae
21
2b
e6
24
ff
df
07
f0
01
f3
13
ea
d0
c6
ef
08
ef
15
f2
fb
ee
f7
06
08
f8
c6
26
fa
e8
19
e1
05
f4
ba
fe
16
f4
08
c4
fe
fe
2d
1b
fe
0b
32
cf
0d
eb
d2
38
d4
29
09
01
01
fd
02
07
07
fc
02
fe
01
ff
fb
ff
fc
04
fd
02
fa
02
03
06
f9
fb
fc
f7
fb
23
1a
04
dc
e0
dd
fc
eb
e8
e7
02
23
20
24
0c
26
e1
f4
17
14
1f
f9
23
f1
b5
19
18
09
00
22
13
dd
06
ea
d4
f3
e5
0f
e1
e3
0c
10
fd
ee
13
17
1f
13
0d
3a
e7
fb
22
f5
cc
f3
36
04
e6
c8
f7
42
fd
f1
bb
da
ed
fc
20
05
cc
ff
21
f8
c4
ff
fe
fc
fb
fa
fa
fc
fd
fe
03
02
03
01
ff
fe
03
fc
00
02
00
04
fe
fc
ff
f9
0e
2e
2c
e8
0e
1a
01
15
e4
f2
00
1f
04
0b
f7
d0
e6
e9
11
d5
3b
01
be
c2
ed
16
9b
01
1f
f3
e6
da
01
0c
1f
df
0d
15
46
47
eb
ec
04
0d
d9
09
f5
2a
a9
d2
fa
fc
fc
ff
fa
fa
fa
ff
fd
09
00
fd
fa
04
03
fb
f5
ff
fe
fc
00
fd
ff
02
fc
12
f5
dd
c8
d6
ed
05
f5
cb
e3
01
fc
fb
ef
f7
19
f2
ec
fc
2b
fa
e8
3f
2a
e0
cf
1e
09
0c
ee
f0
18
ed
0a
c0
fe
e6
3b
d0
9f
e4
23
3e
ee
0e
0c
c2
05
35
c9
0b
e8
04
07
f5
15
0e
f4
f1
b5
28
02
e1
18
d6
03
fa
c3
fc
f2
0f
07
f8
e8
d1
12
11
0f
1c
fc
dc
ee
f5
ed
b6
11
0d
13
0c
e5
f5
02
04
e4
ac
fb
fa
1e
bd
05
fb
df
09
fb
95
07
e1
ef
c9
d2
1c
19
0b
d6
ec
fd
ee
08
16
23
2b
f7
fb
f2
31
08
22
ec
07
cb
0e
11
f5
fa
b5
02
ee
ea
0e
fe
09
e7
f6
c4
d3
1c
1b
0c
00
13
fc
fa
fa
fb
01
fe
f9
fc
04
fe
fd
fb
fa
fc
fc
ff
ff
fc
03
02
01
fe
fc
01
01
39
e8
e2
dd
1f
0b
13
0b
f8
2d
2b
3d
09
fc
0d
1c
21
f6
1b
2f
dd
fb
fc
02
ec
08
f9
0c
1e
bd
f4
fd
cd
f9
19
08
c0
de
c3
d6
06
05
00
04
c1
06
e4
15
e4
fa
04
fe
fa
fa
02
ff
fc
fb
fb
fe
ff
ff
fd
fe
f8
fc
fb
ff
fa
00
01
fb
fc
fd
01
04
10
1e
03
ec
1b
e4
d7
f6
b9
fd
df
ec
db
28
fb
cc
e6
da
e6
14
e5
24
f8
d8
d8
f1
0d
07
fd
35
19
17
0d
fb
0f
f1
c0
c5
8d
f7
f5
04
dd
fb
ff
fe
16
50
12
fa
09
fa
fc
33
eb
ec
f4
f7
0c
03
fa
eb
ed
d1
03
2a
0e
db
ec
12
df
04
18
32
e3
e8
1b
14
08
ea
09
d8
04
25
08
e3
09
1b
04
0f
08
27
d8
04
09
31
10
e1
e9
23
dc
ef
f5
d2
05
ec
34
04
da
e4
f4
f1
d8
e5
e9
fd
17
ea
1b
0d
19
1f
f7
0e
e4
f9
1c
07
0a
f2
09
d6
3e
4e
f4
19
e8
e0
10
f0
df
0b
d8
f9
0b
20
ec
fc
a4
03
fb
02
03
fb
01
03
fe
fb
f9
f8
fd
fc
02
fb
02
01
04
02
ff
fd
ff
04
fa
f9
01
fc
ff
02
05
f6
ff
fe
ff
07
03
f9
fe
ff
00
00
fb
ff
01
fe
f4
f5
02
01
07
06
fa
f3
e9
b3
f5
1c
f4
e2
f2
12
18
bc
14
36
d5
04
fa
06
15
38
f9
0b
d9
3d
e9
f4
0b
26
05
b1
c3
34
f2
e7
9e
02
0b
3b
2e
1c
0b
0c
24
17
e0
03
3f
12
28
ee
e5
f9
26
ff
14
cf
0b
11
0c
ef
df
04
f1
fe
f2
19
f8
d0
0b
1f
d1
cc
f9
0c
06
0a
cd
e1
fb
0b
f9
2c
fe
58
fb
08
c4
bc
11
15
00
e9
d7
17
fa
03
00
fa
ff
05
07
1f
0b
f0
05
17
e8
11
16
0d
fb
c5
11
11
e8
00
f9
f1
02
d3
e1
17
d3
ed
f9
fc
fa
03
04
fe
00
f9
fe
01
fc
fb
fd
f7
fe
fe
01
01
02
04
f8
f6
03
fc
ff
fe
03
02
fe
01
fe
f6
fa
fc
00
fd
03
fd
fc
07
00
fe
00
04
ff
f9
05
fb
01
06
38
d0
f6
08
3e
e2
e9
14
45
12
0b
f2
ec
19
fc
24
fd
02
f9
ed
11
19
17
1f
4c
bb
bf
ec
0d
1b
2a
f4
12
0a
10
cb
d0
f5
34
29
fc
ad
14
00
24
28
24
cb
20
40
fd
f4
f3
fa
00
f0
fa
fc
05
0c
f8
fc
fb
08
08
0b
01
00
f6
f0
f9
ff
f7
00
fd
e1
05
27
1f
dd
ee
28
f4
f8
05
f3
07
f3
4b
06
fe
16
f5
e0
ed
1c
23
f4
1a
4f
04
f3
f5
04
b1
f6
0d
d3
cf
e0
f2
1e
e9
07
1f
fb
f7
0a
ec
09
fd
18
04
28
2a
1a
e2
1d
25
26
f9
0a
1b
10
f6
f9
f4
c9
1b
fa
08
ce
ef
08
fd
12
da
ec
22
e5
f4
f7
dd
df
09
0b
d8
d9
ef
2f
02
d9
1d
49
05
f3
fc
11
fc
b9
13
1b
04
c7
28
0a
ff
1d
f6
26
f8
f6
09
f9
06
fa
1c
02
ee
fd
03
f3
da
ff
e5
0f
e9
ff
cc
ea
00
06
05
f6
b4
12
11
08
21
fd
08
fe
d5
cc
1f
0c
d6
bc
03
4b
d9
fe
01
0a
41
2c
0b
cb
ee
13
e1
e3
e5
e3
18
ed
06
17
00
12
ec
1c
02
d8
0a
da
18
23
03
db
1a
e0
f9
0a
da
1f
13
03
e4
eb
0a
ff
d9
0a
02
db
ef
f1
0b
df
04
db
e3
00
a5
24
11
02
0a
f3
fd
10
ff
e6
19
1f
ef
d4
ff
01
e2
f9
e8
f0
fe
16
eb
14
10
1c
ee
ce
1d
10
31
15
0a
09
d7
ed
27
00
dd
f0
9f
ff
19
01
11
0d
fb
2c
15
0d
5b
f4
f2
c3
e2
47
cd
0f
fc
1c
bb
ea
fb
14
16
f2
c4
ce
c5
fe
fe
b7
0a
0b
02
e7
f5
f9
00
f9
04
fa
02
00
fd
ef
f1
fe
07
fc
fe
ff
ff
fd
f5
fc
f6
f8
fb
ff
f9
fd
ff
f3
b2
ac
0c
1b
f3
eb
d0
e6
e0
12
08
20
f3
28
09
f3
0b
2e
4a
07
ff
03
05
06
06
0f
ea
04
17
f9
02
e8
1f
e4
f9
3a
0c
fb
0f
f4
06
0c
0c
06
06
3c
2e
ff
0e
1f
f7
08
0b
1e
27
10
dc
15
1e
05
16
0b
29
29
ff
0c
f2
07
ae
05
fa
f7
41
1f
05
14
16
16
f5
e1
ec
34
0e
e1
fd
db
24
e7
12
02
f7
e0
d7
fa
09
f9
34
f8
fd
f8
13
2b
09
f4
e9
34
10
03
00
fd
23
d8
21
cb
14
0b
f9
e9
b4
1a
ff
dd
01
fc
fb
04
ff
ff
03
fa
01
ff
fb
02
f8
f9
fa
00
f9
01
fb
00
fb
01
fe
fb
fc
08
00
e2
99
c5
15
0d
e0
d5
df
f3
19
d4
fa
cc
11
ed
f8
23
08
18
07
03
02
12
03
0e
f8
2b
ef
24
0a
f8
09
37
08
98
db
06
21
f8
d2
f5
e9
fc
f5
01
0a
fe
11
ff
01
01
02
ff
fb
fc
ff
fc
03
04
03
03
fe
fe
fc
fd
fc
f7
f7
fb
fc
f6
f7
fa
f7
f5
05
08
f7
ff
f7
f7
f6
fc
ff
fe
f9
f8
f8
ff
ff
02
01
08
03
fe
fb
f7
01
e9
d0
26
1e
39
f1
fb
05
1f
01
0e
00
06
02
06
fe
f0
1c
f4
09
06
29
fa
13
0c
04
02
01
fd
fb
fb
ff
02
fe
05
fd
fc
ff
fd
04
fc
ff
fb
01
01
03
01
fd
f9
02
03
03
fc
fc
fc
fb
fb
01
fa
fd
fb
fa
00
fd
00
03
00
ff
fc
05
fe
fe
fa
01
ff
e5
3c
ee
da
ca
e6
11
13
ec
ec
08
1e
11
0a
f4
f3
30
15
06
fe
f7
0e
04
04
32
09
c6
f5
05
18
05
28
14
e4
d0
1e
1c
13
e1
d6
26
1e
15
de
0a
34
f1
e8
e0
dc
02
03
fe
00
00
fb
04
01
fb
03
04
03
f8
fe
05
ff
01
fe
fe
02
01
fb
02
fe
04
1f
fc
f2
15
ee
11
0e
e2
d7
ba
cd
f6
e5
de
c2
f8
01
f7
bd
fc
00
18
1c
e8
c6
ec
0e
ed
f1
20
f0
09
c9
d5
d5
01
1b
e7
ff
f7
09
fc
dd
fd
fd
2d
23
c8
25
e8
4a
04
04
1a
0e
1f
d6
1a
08
d4
29
f4
fa
00
eb
08
fc
f1
07
68
28
0a
e2
fd
10
fc
02
04
fc
fd
fc
ff
fc
fd
fd
fc
fc
fd
fc
ff
fb
01
fd
fa
00
fa
fc
03
fd
fb
de
05
20
d1
3d
1a
0b
ea
0b
2f
e4
2b
cd
00
14
40
02
f0
24
ed
ea
10
0f
1d
f9
3b
fd
e5
d9
06
05
14
cb
e3
fb
03
df
d3
ea
fd
e1
f3
10
f5
18
f8
c5
1b
db
02
0a
02
21
2b
f1
07
27
26
20
23
ed
1f
33
e3
fa
08
f0
0e
11
15
dd
ce
18
13
db
fc
f6
fe
f1
ec
e2
f8
f2
09
f2
cf
06
fa
31
06
f5
0a
1f
23
08
ed
02
2c
e6
32
ff
25
0f
df
fc
ec
30
03
17
e3
1d
f6
03
f6
d0
15
d4
05
f9
56
f5
d4
08
0f
62
eb
3b
17
f8
00
1f
04
fa
0d
0b
1b
22
eb
01
dd
21
de
e0
18
38
05
d2
19
15
0c
fb
fe
fe
ff
ff
fe
fd
01
00
fa
fd
fd
ff
f9
f9
fe
02
00
01
fc
ff
fd
fb
fe
fe
e1
c6
16
32
3e
0e
f2
06
1b
5c
e5
c3
26
fd
31
eb
ee
06
33
1f
fa
e1
17
1a
cb
0d
fd
e1
cd
94
e3
eb
1f
d7
e9
e6
dd
09
eb
04
d4
f4
0b
07
05
09
19
2d
02
48
1b
ff
f4
ee
dc
f9
1a
e3
22
23
00
d9
d4
e7
29
e2
fa
ec
00
38
ea
13
0a
e9
0a
15
f3
d9
21
2b
13
d9
b7
00
dc
f7
b5
c9
e5
b2
f0
ec
d7
f3
10
1c
14
12
04
fc
03
02
03
fc
ff
fa
fc
03
fe
ff
ff
fe
fd
fc
fc
01
02
fb
fb
02
04
fe
04
fa
fb
df
2e
0a
f6
db
25
2e
f4
d2
eb
38
e4
e4
05
00
07
12
cb
de
ec
fc
f4
e9
0b
2d
f5
21
03
c4
e3
f5
f9
05
d4
fd
11
f1
da
f2
c6
00
eb
fd
d3
0b
d4
09
cf
ee
f0
25
37
fe
17
eb
fc
33
0d
0b
f3
04
30
e8
0a
03
e9
08
16
26
1e
ed
e7
19
00
f4
09
0d
e0
0f
14
f8
d2
cd
06
01
ff
d3
c2
f0
f0
2c
24
dd
cb
fe
19
32
ea
0b
e4
fd
fe
fd
ff
fc
02
fa
00
fe
f9
ff
fc
fc
fd
fc
02
ff
fb
fd
02
fe
01
fa
01
02
fe
0a
fc
fa
02
fd
00
00
02
00
01
fe
03
07
f9
fc
fe
fc
fb
f6
f7
04
02
f9
f1
17
0c
14
c3
d8
07
18
0d
e7
c8
06
13
13
dd
b0
17
2d
0f
f4
a6
21
29
f9
f0
d2
02
07
e7
f8
e4
00
ee
db
04
fe
08
f2
fc
fe
f0
e1
0a
13
13
e3
d2
06
45
0a
e0
20
f1
03
e6
1b
f5
da
e8
fe
05
fb
cb
ff
d9
03
c6
e8
fe
e8
0f
0f
15
0b
21
14
00
08
fa
40
2f
fd
e0
04
0c
1d
f4
10
eb
04
06
ce
0b
02
d6
0b
fa
03
0b
dd
fe
f7
12
ea
21
36
fa
d0
1d
11
12
fb
ca
f1
fd
fc
ed
08
ef
fb
0e
0c
27
09
1b
d7
fb
fe
fe
04
f9
fb
ff
ff
ff
01
04
fc
ff
fb
fe
fc
ff
fe
fd
05
fe
fd
fc
fb
fc
0b
df
ea
06
ce
05
1a
38
19
e5
f9
ff
0f
08
05
09
fb
fe
05
e3
1e
15
e5
c6
de
d5
12
ea
02
0a
0a
01
db
d5
11
ef
ef
03
e4
f0
01
fd
e7
1c
20
01
be
f5
19
3f
0e
19
fc
25
2e
13
0f
07
0c
02
1c
fa
03
0c
09
1b
20
3c
19
0d
12
2c
42
1a
09
01
01
fb
ff
fb
fc
ff
02
ff
fc
01
ff
02
01
02
02
fb
03
fe
fa
04
fc
fc
04
04
fd
08
ee
fe
1c
f5
0c
ef
00
0a
e6
fa
09
20
f5
e9
17
1c
fb
15
05
2c
12
ef
44
17
00
fa
26
eb
f6
fe
f7
04
ef
ba
ea
04
e6
09
ed
e9
07
16
15
e7
21
f6
10
0c
0c
11
ff
b2
f0
01
12
16
be
06
02
1b
15
f8
0d
21
28
12
03
16
1a
25
ea
f0
01
fc
f8
03
02
f9
02
00
f9
00
fa
02
f8
fd
fe
fb
f8
ff
01
03
fa
fd
00
01
fa
f9
09
dd
cc
11
3c
07
16
9d
ef
15
0b
ee
4d
f2
13
15
d8
cd
e1
0c
00
8d
d0
1c
14
f0
04
ee
1f
fb
fc
11
e1
f3
1a
fc
06
ed
f1
fe
0e
f9
01
e0
07
da
fc
e2
fc
2a
f5
c3
01
fc
a2
b7
0a
06
be
0e
d2
00
f6
07
04
bd
27
fe
20
1b
20
ec
07
eb
05
0b
16
35
34
31
fe
34
e8
06
f0
1b
05
ff
08
d9
e2
f7
f3
e9
de
11
de
f4
f3
04
e8
ec
d0
13
08
ea
1b
20
02
0a
f7
06
28
1a
eb
02
00
1e
21
32
e5
0d
32
17
15
fe
fe
03
00
03
04
03
00
fe
f9
fe
fd
fd
fa
fd
02
fd
01
00
f9
fe
fc
01
ff
fe
da
c1
f3
21
21
ff
ea
f9
0e
03
f2
0f
01
24
06
fd
ef
10
f8
1b
e0
d6
0d
e6
24
f9
09
02
22
f4
eb
f3
e4
e3
f4
f7
f8
d5
02
05
0d
1b
eb
bd
09
1d
33
ea
0b
0f
1c
2d
21
02
dc
0c
0c
fe
ef
e8
0a
e1
f3
17
fb
0f
09
0d
e9
fd
38
e6
ff
fe
2d
f1
02
08
23
45
fe
17
12
02
13
00
00
ff
f4
e7
01
11
13
ea
e5
df
19
01
e3
f8
e5
d9
fe
f9
1a
ec
06
18
05
22
f4
3d
1e
ec
18
f3
1c
14
f5
10
bf
db
f5
fe
0b
00
1d
1e
25
f2
04
0e
fc
1d
02
0a
20
16
f2
fb
2b
f8
20
0e
e8
1b
fc
e6
de
f5
04
da
03
02
33
0f
14
fc
f4
09
04
19
0b
0e
2e
1a
f2
03
21
0f
22
0d
28
0c
fa
fb
f2
d7
02
fc
ce
0b
d8
05
15
e3
06
1c
dd
d0
ff
21
fc
cc
c7
03
03
ca
8c
ec
03
2b
2a
ec
da
f2
1b
12
0d
05
e1
1c
07
04
fd
f5
ce
1c
02
e2
ef
a4
c8
f1
fd
25
e6
01
0f
09
16
f4
12
3a
14
0b
b6
d4
13
1b
0d
93
0b
f6
09
0c
b7
2f
0c
f4
ea
15
da
e3
b2
cc
fd
d5
a8
0b
02
02
f5
d3
f1
16
07
f0
0a
c2
fd
16
e5
e8
d2
f9
10
fc
d2
ac
13
0f
06
08
cd
d6
18
f8
b6
b9
ca
1d
18
ff
d8
f4
2d
18
01
36
ed
aa
d0
80
ef
e0
e0
14
f6
07
df
ce
df
0b
14
f3
dc
08
e9
17
b9
a5
e6
06
05
eb
ea
ff
fa
0a
06
f6
00
0a
f8
ef
fc
e5
ec
db
00
2e
df
e8
e1
f2
26
fc
ee
09
fd
f7
02
f8
00
f8
fa
01
fb
ff
fb
f7
fe
fb
02
fb
04
00
fd
01
f9
07
00
fe
06
f0
de
f2
eb
3a
26
0f
e8
e8
15
23
f1
cb
cf
fb
16
c1
dd
d5
e9
0e
01
d6
fa
da
04
f4
10
b1
49
1f
03
1b
d4
24
f2
e4
eb
d6
12
d9
b6
d0
cd
11
f4
f9
f7
e9
06
18
ec
1e
09
f4
17
d1
09
e8
f5
0c
b1
fe
e4
db
fe
fa
ef
25
c0
ef
fb
07
e2
a5
fc
fe
00
03
fe
fa
fe
fc
fc
01
fd
fb
05
ff
fe
fe
ff
02
fb
fe
01
02
fb
01
f9
d2
0b
0e
f7
f0
19
2a
1a
15
f7
fb
02
02
f6
16
d3
13
fc
05
21
f6
18
ac
1e
35
0c
fb
2e
1d
da
f4
07
24
20
ea
ff
fe
22
ee
b5
08
14
ef
aa
5a
10
e9
b4
a3
65
fb
02
ff
03
03
f9
fa
fd
fc
02
fa
f9
fe
04
fe
04
fb
f4
ff
03
f9
f9
f9
fd
04
e5
f7
e5
d9
cb
ee
17
eb
0a
ff
f5
11
ed
28
0e
ea
2e
07
04
03
f5
05
2b
ee
a6
1c
0e
e0
e0
95
18
08
be
bb
9a
f7
1a
d3
ba
aa
07
f9
ee
dc
d3
1a
f4
05
0f
e7
dc
fa
2d
00
d5
f0
27
e9
07
de
f6
de
06
f0
f2
1f
05
26
06
fb
10
1c
e5
13
e7
08
27
0c
2a
de
02
04
14
f6
e0
d0
ef
1c
de
e8
02
ef
17
e2
0c
02
0b
f0
06
1f
25
f6
f6
e6
f4
19
19
00
e1
27
35
04
fb
f2
1a
06
c6
ee
c2
f9
ff
be
f0
b8
e6
ff
ff
e5
38
10
03
1b
e0
f6
c8
f6
08
ec
cb
f3
fb
1e
12
cf
d5
0e
30
f1
05
d6
fc
fe
00
f5
00
fb
fe
01
02
ff
00
fa
fb
03
ff
fc
fa
ff
f6
fa
01
02
fa
fb
f8
f7
22
e2
12
09
1c
09
ed
0c
18
0b
ec
0b
19
f3
ff
f2
0b
01
0d
f8
ee
d7
bb
e7
17
05
1d
e8
a2
04
f9
f1
15
d1
ff
e3
19
22
f0
1a
e9
0d
11
fc
0e
fa
07
23
0b
01
ff
05
ff
03
ff
fc
02
ff
fb
00
fa
01
fa
fa
01
fd
00
04
fb
05
fc
fc
01
ff
d2
f4
df
e0
f2
e2
05
e8
0a
fd
e7
08
fa
fe
0a
23
e9
0e
11
fe
03
4e
1d
26
c8
0a
f7
e5
01
df
16
10
fd
02
c1
14
10
f1
ef
dd
f6
00
db
07
be
fd
f8
ff
f0
cc
d4
e3
1c
f8
35
ff
19
2b
01
18
10
13
fd
0b
0c
04
fb
f1
ef
1f
0c
15
09
ec
0d
e4
07
f0
0b
16
e6
0d
fb
2b
07
f2
f6
07
07
0e
13
fb
f8
04
05
ec
f3
cb
f0
ac
1b
0a
f1
f3
08
ee
d5
f1
d5
23
f3
f1
ee
f5
18
0b
13
13
0c
e2
1e
31
21
04
18
0f
fc
ee
04
20
06
ef
f4
fb
14
07
e9
05
04
2c
03
fe
f7
16
f5
00
02
14
14
10
ff
01
01
fe
02
fd
00
00
f8
f9
04
02
fc
01
fe
ff
fe
fd
fb
ff
02
fc
ff
00
01
06
fa
f5
00
03
02
01
f1
fc
ff
fc
f8
03
00
fb
fe
f9
fb
fd
ff
00
ff
fb
07
fa
29
24
17
ef
e7
13
15
09
f6
05
ff
ec
06
fa
04
1a
11
07
eb
f3
01
18
d9
f5
fa
d9
03
03
0c
ec
f8
0f
f1
c6
03
0d
16
0c
da
07
ed
1a
09
87
04
f8
52
2a
f8
eb
f5
c0
e9
24
26
e7
e7
09
e8
ea
14
eb
18
f3
ef
03
f3
12
16
1e
3b
c1
77
1c
14
24
02
e7
05
17
01
12
d7
ff
fa
02
f7
e4
f5
ff
03
da
e0
11
db
07
de
ba
e5
f9
14
0a
d2
e9
12
27
00
08
16
1f
08
dd
0a
0a
35
f8
f6
fd
12
0b
e6
1c
12
1c
05
04
fa
fa
fc
00
01
03
fa
ff
04
fa
01
00
fb
fb
fa
fb
00
fc
01
ff
fe
01
01
f7
fd
00
ff
00
fb
fc
f6
fb
fe
f9
ff
ff
f9
ff
fd
fe
f9
f4
fa
04
00
fd
fb
00
01
17
17
01
ec
c4
00
1c
ff
f9
e8
ec
08
fb
01
06
03
00
ef
00
01
18
35
26
14
11
df
b5
19
00
0e
b1
f6
0a
08
0a
ee
e5
0a
f4
0a
18
f0
1c
fb
ee
3d
02
ad
ea
17
f9
f9
f2
f8
fc
fb
f5
fd
fc
03
05
fb
ff
f1
e9
f4
f5
f9
03
fa
f6
f7
fb
ff
f6
23
12
24
fb
2e
16
f0
fe
15
11
12
0d
10
27
05
e8
e7
12
25
fd
0a
f2
1e
11
f0
d8
fb
f8
fa
12
f2
de
f2
f6
f2
0b
da
17
10
16
fc
f9
09
f8
21
07
ec
0e
f6
04
f8
f0
2a
e8
12
f3
cf
fa
f7
0e
01
cb
e1
1b
fc
05
01
01
1b
e6
1e
21
0b
16
d4
e2
12
f0
ea
d4
e9
2a
eb
04
d4
f2
e2
02
f3
df
00
b7
f2
fe
dd
0d
fc
0a
36
29
13
01
48
33
a4
09
05
1c
12
de
01
05
18
30
da
0e
0e
10
08
e6
f5
04
2c
f9
7d
15
0d
f7
fa
0d
13
00
f8
07
09
05
e2
ff
05
13
03
c6
d4
fb
02
f4
b5
f0
12
0f
fe
19
e8
25
27
21
00
fd
fc
04
ea
f6
01
03
12
bd
0c
06
34
0b
f1
04
07
1d
16
e6
f0
a5
d8
05
d7
af
80
e3
21
cc
9f
78
ff
0b
e4
d8
ce
0c
df
03
e4
fe
fa
f3
e1
e4
0b
06
0c
03
e7
e5
f2
24
05
db
f8
03
1d
ff
ec
20
f5
1e
07
07
27
11
10
09
10
00
02
9b
11
fb
f3
07
21
0f
c7
f8
f1
22
f3
15
f3
10
1b
d6
f6
19
1e
28
ff
1a
06
24
fe
16
ef
0f
43
2c
d2
db
21
04
06
e8
c5
03
f7
01
e8
88
fb
e4
02
f8
02
fd
fc
fb
fd
fd
fb
fe
01
f2
00
fb
f6
fd
f1
fe
f2
fa
f4
f9
02
f6
fb
f9
18
fa
cb
e4
fd
04
03
e5
0f
36
fb
fb
f3
fb
16
f6
1d
ed
13
0a
0f
21
01
0a
27
d9
fc
a3
c1
2f
fb
11
c2
f2
25
02
f3
f1
f3
f5
ec
d2
ba
08
0c
13
af
db
d4
e7
11
19
e5
fa
1c
ea
18
d8
eb
f4
fb
0f
e3
1d
0d
ed
d8
ed
16
07
d2
e2
08
24
fb
eb
17
0e
32
ce
04
28
06
d1
da
e8
ef
fe
de
f6
e6
25
1b
ff
13
fa
05
dd
f2
39
e9
20
39
10
2b
fd
f1
0c
f8
f4
06
09
fe
ee
fc
16
f8
16
e4
21
26
33
1c
fe
28
fd
fe
01
fa
f9
03
02
fa
fe
00
fd
00
01
fd
ff
fc
ff
02
fe
f8
fa
fb
00
fa
00
0a
24
0d
0d
04
13
e8
06
f4
fd
01
f0
17
f9
fa
02
ec
fb
eb
ee
2a
07
c2
d9
ca
fd
06
fa
d1
fc
f0
e7
fc
fb
13
dd
00
04
14
14
02
08
0c
28
f2
fc
22
28
13
e6
fd
02
ff
fc
00
f8
ff
04
04
fb
fa
02
fe
fd
fc
01
fe
02
fd
fe
01
fd
01
01
fd
fa
f7
fd
f8
f4
f4
f5
fb
f6
fb
fe
f9
fe
f9
f7
fe
fa
03
fb
f5
05
ff
fc
fe
f8
29
0e
02
f1
1b
fd
f1
fb
1a
f8
e9
fc
0e
23
08
04
e7
0f
ec
e5
f2
e3
ed
ed
b5
04
fc
fe
00
fd
f9
04
04
01
01
fe
fe
01
fd
fb
02
fb
fa
fb
fe
01
fd
00
fe
02
ff
01
04
fc
f8
fb
f9
ff
03
fe
fe
01
fa
04
f9
fa
00
fd
fb
f8
03
f9
03
fc
fc
cc
07
19
f5
d4
b1
32
20
00
0c
b9
0d
1e
1f
11
d1
f4
1e
0b
0a
d6
0c
07
e9
18
13
31
04
ca
db
2f
17
ec
d5
13
08
08
f2
fa
07
fa
03
dd
1b
28
f8
37
e2
05
f7
f8
fe
ff
01
fc
fa
fd
ff
02
fb
fc
00
00
fd
00
fc
fe
03
fd
f8
01
fb
00
fe
f9
1d
0a
30
1d
da
01
14
01
e0
ce
06
24
eb
e1
c7
f9
ef
e7
0b
e2
2b
f7
e8
07
d5
d4
e0
eb
e0
db
05
ec
b9
e5
de
19
31
e3
fb
c5
16
28
ef
e2
9d
17
fc
fa
f3
bf
f0
f9
f5
1c
09
18
c3
dc
01
ea
07
02
0b
1b
ce
0f
02
e9
04
08
0e
03
ff
08
02
fb
01
02
01
fa
02
fc
03
fd
00
01
01
fe
fb
f9
01
f9
fe
ff
fb
05
fa
fb
f9
fa
0b
f9
1c
0a
c6
25
20
f4
08
e4
0c
f2
0f
07
fd
f0
da
eb
1b
15
12
ea
19
2f
14
e1
ed
e0
10
01
f5
01
f8
f6
2b
ff
14
01
f4
1c
10
f5
0f
11
10
f8
23
fa
1e
da
2c
fe
fa
11
f2
21
fd
f0
f5
e5
01
0a
16
e4
06
0a
03
11
eb
f6
27
fc
f5
03
ee
c8
04
2e
0a
25
c8
05
07
fe
2a
ca
1b
26
06
19
ed
0c
dc
13
30
17
22
1a
10
14
f2
e3
3d
f1
ba
24
fc
ff
ff
ed
0c
0a
10
06
fc
17
01
fd
f1
15
03
e1
f7
13
cb
ef
2a
ee
ff
02
e9
e1
d1
f7
23
f3
f9
f5
fd
ed
18
fb
e0
f8
15
04
82
ff
fe
39
fa
fe
fc
00
02
fd
00
f8
02
f7
fa
fe
03
fa
fa
01
fd
fc
fe
f5
ff
fc
fd
05
01
fc
06
19
0d
1c
ff
ff
dc
1c
14
ed
10
04
13
1e
e5
16
11
09
ed
12
00
26
30
e1
0f
33
20
d7
d1
0c
f5
3d
f1
0d
09
ad
1e
ea
14
eb
aa
0a
06
26
03
15
ec
04
0e
05
27
03
40
22
06
e2
fc
09
04
0c
03
f1
fe
e3
d4
d0
0c
f9
f1
15
ff
02
df
d7
16
eb
0b
e3
32
f0
e0
c7
e8
1d
0a
06
09
f9
3b
ec
10
f7
04
1c
08
f8
22
fe
11
00
01
01
fd
00
fb
fc
00
fe
f9
fe
fe
ff
fc
fe
04
fb
00
ff
04
00
fb
fb
03
05
fe
ce
c8
f6
09
ec
c2
ef
f8
05
d9
fc
22
fe
0a
f3
11
26
0b
12
c5
20
34
20
0e
fe
a2
f5
de
e1
0f
e3
f1
e0
f1
05
21
eb
e9
03
25
20
f5
15
f9
05
f7
fb
15
08
ed
2f
ef
fc
f5
ee
da
c7
f9
09
16
09
e9
0a
28
0c
fc
f3
20
07
01
e4
08
17
e6
0d
11
ec
08
28
0c
08
1d
02
fb
f7
19
0b
02
f5
dc
e9
05
01
12
f4
ea
18
f4
b8
fb
f9
fc
fb
fe
00
02
01
fb
fb
ff
ff
fa
fa
f8
02
ff
02
fb
fa
02
03
fb
fa
fe
f9
04
f9
f4
00
fb
06
02
fa
ff
05
ff
fb
fd
f9
f6
f6
fd
f7
f7
fd
f6
fc
f5
fd
dc
1c
34
07
d3
08
f7
12
19
d7
fd
e9
01
08
e1
04
e8
fc
fb
ba
d6
ed
fd
e3
c6
f9
14
c6
bb
c9
0c
f9
de
ce
ca
f7
0f
f5
d0
f9
e0
13
ec
ea
f7
46
11
00
f5
c7
1c
2e
1b
0d
e0
43
1e
17
f1
cf
29
08
0c
01
df
1c
1b
16
f6
e2
1b
16
fa
02
d5
e1
13
db
d3
ef
e1
0c
ea
13
13
09
2c
16
fc
15
28
2b
01
ef
1b
37
0c
19
fd
e3
88
ea
27
0d
1a
18
ef
12
fc
37
dd
e7
0a
fe
19
09
02
f5
0b
1a
df
08
16
00
f7
fd
fe
00
03
fe
fa
fd
03
fc
ff
04
04
fb
fd
fb
00
fa
01
fa
00
fc
03
fd
02
fc
f8
06
0a
ec
01
f1
e5
d1
12
04
e5
c5
18
08
d9
02
0c
04
08
e1
3a
d7
06
ff
07
f8
19
07
21
e9
10
0d
fa
f8
f6
06
ff
f1
0a
f7
28
0d
08
32
0f
23
f9
f0
1f
23
fa
0d
c5
f0
f0
fe
0b
1b
16
21
0a
17
16
18
29
f7
e1
eb
06
24
10
dc
de
1f
0d
fe
fc
ff
fd
02
04
01
fe
ff
fa
fd
fb
fb
fc
fc
fa
fd
fe
fe
00
fd
fa
fb
03
fd
ad
00
0a
e2
e9
ab
04
00
f2
22
e5
17
18
09
18
ec
f3
1e
fc
29
f1
09
f2
ec
ef
f6
ce
f3
0f
2c
03
ee
0e
fa
f7
c2
0b
cf
28
29
c3
c1
db
df
38
f2
31
f0
f0
30
1f
23
1a
1a
39
e8
0a
dc
ee
05
f0
35
0a
e6
ea
18
18
20
e6
d8
f9
18
fc
09
1c
fe
fe
fb
fc
02
fc
01
03
fa
fd
fd
fd
fb
f8
fe
fa
01
ff
fd
ff
ff
fc
01
f9
f9
25
12
f4
ed
d7
10
d6
00
ba
e1
03
14
e7
eb
24
17
e2
f2
01
08
ea
04
0e
fc
1f
d7
27
20
02
fa
06
12
0f
fb
08
e8
18
08
15
f3
08
12
ff
fa
ec
e7
1f
1f
2a
37
fc
fd
fd
2c
da
08
0b
ef
09
1a
02
10
e6
fe
1b
05
14
d2
fb
1b
f2
ee
09
fb
00
e5
fc
0b
e5
03
f5
2f
e7
1e
eb
e5
12
f3
dc
22
01
15
00
11
37
24
0e
f5
fa
fc
33
22
ef
ee
0e
f6
13
d5
f3
16
ed
ef
dc
04
38
ee
00
fa
18
f8
03
e0
e5
12
df
ff
fd
00
fe
fd
01
fa
fd
03
fd
ff
fd
fd
ff
01
fc
fe
02
fa
fc
fd
fb
ff
02
fb
06
08
24
06
1a
e9
fc
fd
10
04
ff
d4
e6
23
2f
ec
f3
c2
06
36
f9
df
e1
ee
2d
a9
d7
28
15
2c
c3
11
f5
17
e9
e8
e9
eb
1b
fe
f8
08
1c
01
df
bf
f2
e6
ea
fa
16
f0
35
08
08
f7
f1
31
04
f7
21
f5
34
0b
eb
c7
1b
11
15
d8
1f
2f
04
f0
af
fc
2a
d9
0d
15
ee
12
1b
11
13
01
f8
04
16
ec
f5
03
13
06
ff
f0
e3
0e
16
f1
1e
e1
f3
f6
ea
ec
f1
e7
0f
e1
d6
e4
23
eb
1a
f8
08
22
20
2b
f9
43
19
32
ff
06
cc
c2
1b
ed
e4
ec
0b
fe
06
dd
07
08
1a
1f
17
17
fc
08
36
e8
f5
ff
2d
d3
5c
0d
f5
ef
2f
21
09
fc
ee
2c
f8
06
10
fb
18
c7
01
ed
f3
0a
ec
49
de
de
28
22
f3
f8
0f
0a
1d
ee
1f
18
23
0e
f5
14
2b
f3
ef
20
0b
e5
fe
ed
fd
d9
e1
b9
07
2a
f1
01
14
0c
f8
0e
f2
e0
f9
0d
ef
f2
dd
0e
f7
2b
f6
bf
00
06
10
23
05
e1
1e
f1
e5
3d
06
03
e8
ee
fc
d5
0c
d6
ff
ef
c7
f2
d8
05
f2
04
d2
ef
fe
1c
13
cc
f0
fc
ce
f1
fe
e5
f8
0e
0f
0e
d1
0a
0b
27
f6
fd
03
d3
fc
fd
0f
2d
e9
f8
04
ef
2e
04
f1
f0
fb
10
c6
18
d6
e5
fe
da
bf
fe
f6
11
d2
d6
00
fb
ed
dd
d4
fd
e9
d6
00
df
fb
fb
e3
f0
0d
1c
11
df
0f
09
ff
0c
25
00
2f
12
2d
1f
1f
12
e2
f8
dc
0d
14
e7
e0
ef
19
05
1f
f4
24
f5
1d
f9
fd
03
1a
0a
c5
2d
1c
3a
01
ff
00
fd
03
fe
01
fc
fe
fe
fc
fb
fd
fc
fc
00
fb
01
02
ff
00
f9
f8
01
fa
44
fa
02
fe
fa
0b
f6
17
12
16
e5
eb
0c
32
08
f3
fd
0b
0d
fd
06
db
d9
fb
fe
f4
f1
fe
36
48
fe
02
0c
16
3c
b7
d8
ee
18
3f
f4
f7
f7
07
1f
ff
f3
06
11
35
eb
0d
1e
c0
d6
f6
f4
e1
f3
bc
fc
ea
f9
04
0a
f9
08
f8
fa
eb
0f
30
31
f5
e1
03
fc
03
05
02
00
fa
ff
00
ff
04
fc
fe
fc
fe
fe
fb
fd
03
04
01
03
fc
fc
fd
1e
ff
05
08
df
26
0d
eb
30
d4
11
17
0c
0a
f7
15
08
fb
1d
18
1c
f4
dc
f0
29
11
ba
f6
02
3a
eb
d4
20
ef
21
e0
ff
eb
f0
f1
f4
14
f5
e2
01
08
2f
e2
ee
a6
ff
fd
fe
f9
00
fe
f8
f8
f7
f8
f8
02
fd
f9
fe
fe
00
fc
f8
f8
f8
fd
fc
fc
fb
15
e7
bb
a9
e0
03
c6
ec
0a
13
16
df
32
fe
18
13
f8
22
e8
f5
1a
ff
26
f7
01
38
e5
0e
08
b4
35
ec
f7
e7
b5
24
e5
f6
bb
e8
06
23
ff
fb
f8
24
44
cd
07
0b
d0
de
f2
f7
02
f1
d9
f6
19
f4
22
2d
e4
01
0d
e6
00
c6
be
e0
24
f2
a5
0e
ec
ff
e7
0c
f1
d6
e9
01
0d
09
06
ed
04
10
16
16
fa
f9
0b
18
c0
e2
23
2a
03
d1
e2
03
d8
f5
f1
df
fd
ea
02
10
e3
e8
05
ff
0d
ee
ee
ef
12
1e
de
2c
f1
e1
0e
4d
17
19
02
f3
10
0b
fd
10
e0
00
ea
03
17
0d
09
f9
1d
20
05
fb
27
fa
2b
06
01
00
fc
ff
fe
fc
fc
fa
fe
fb
ff
02
fe
f9
f8
fa
00
ff
f9
ff
01
fc
f8
fb
fa
ed
06
16
07
ee
19
04
e8
1c
07
fc
e8
14
06
0f
10
e6
ee
fc
11
04
e4
0b
1a
1d
ee
e3
18
ff
c0
fd
fe
05
f7
9b
0f
25
0c
e1
e7
f1
1d
e7
00
df
ef
ee
bb
0f
ef
fb
00
04
fa
fd
03
fd
02
01
fd
02
fc
fa
fd
ff
03
04
ff
fc
ff
fa
00
03
00
fc
10
d4
14
1d
ef
0d
04
eb
1e
c9
00
10
0d
e5
f1
0d
19
22
11
09
e2
e7
d9
e1
d3
f8
1a
fa
33
10
fb
f5
1c
fe
e6
ff
f2
16
10
e0
09
0a
06
08
61
32
ed
fa
37
c2
e3
07
e4
0e
f8
fa
04
1e
fe
f8
1a
08
eb
07
ff
f3
02
e8
02
03
f5
c1
eb
eb
f8
2c
1b
d8
d5
19
1a
37
d7
03
0f
1b
1b
f7
e7
df
3e
21
00
e9
f1
24
e9
eb
29
f0
15
0c
38
14
f9
1b
07
08
07
30
f3
06
07
ed
38
03
fd
04
e0
15
d3
07
0b
cf
e9
51
0d
f5
0d
02
34
1b
20
0d
02
f9
fd
1e
c5
11
eb
e8
ec
d4
d8
f7
f8
f7
ca
c3
fe
fd
fb
00
fa
f9
ff
ff
02
f9
02
f9
fb
fd
00
f9
fe
00
ff
fe
fe
f9
fe
fe
fc
fd
f8
fc
f8
fa
ff
fe
fb
02
03
04
fb
f8
02
02
00
fa
f2
f3
05
fd
f5
f7
00
01
a5
21
ee
f4
07
14
26
fc
01
21
27
0b
ed
fa
0f
1d
fb
eb
ff
19
f0
f3
e0
f9
e6
d0
e2
10
1c
ed
c2
07
03
02
d4
09
f5
0c
20
00
24
f6
02
f5
eb
f6
10
fb
f6
2a
2b
d6
fc
dc
fa
08
ff
fb
f9
e0
17
04
07
de
ec
09
18
0b
d5
fb
27
0d
29
ea
df
21
4d
2e
ee
06
01
14
f0
eb
ea
06
04
a9
d4
fd
ee
db
ea
d0
1a
e9
bb
00
23
16
1b
e6
1a
03
df
fb
f4
e0
ea
1b
f7
ed
24
0e
0f
f2
02
02
0c
f9
fc
24
f1
ee
d1
04
fe
fc
00
fe
f7
ff
fe
f6
fa
fe
00
f6
f6
f6
fc
ff
fe
f9
f8
fc
fc
fc
fe
02
fc
fd
fc
f9
ff
00
fe
fc
fa
fc
fc
fd
04
fe
fa
f9
fa
fd
fc
fb
fc
01
02
f8
fc
f7
f9
fa
e7
36
15
26
13
03
df
2d
2d
f0
00
01
fc
15
e4
d5
0d
eb
10
e9
f9
06
b7
b7
c5
d8
28
fb
f8
df
05
fd
13
09
d0
1d
fb
41
12
01
ec
dd
51
15
f4
1f
f0
fa
fa
f5
f9
fd
f9
f5
fa
fa
fb
00
fc
f7
f6
f4
01
fa
f8
fd
fe
fb
ff
f9
f4
f5
f7
0f
0a
fa
fe
ed
06
f5
fe
f5
fe
17
f9
0e
34
ff
01
ff
ef
f7
1f
c7
08
24
ce
ff
f2
14
1c
08
22
f2
07
14
21
d7
df
05
0d
1e
ec
01
10
10
14
df
d8
2b
f2
35
13
03
22
e1
ca
1b
1e
ea
a1
2b
28
2e
f3
01
17
2d
26
01
02
21
15
1c
fa
33
19
12
ea
00
25
ca
24
3a
3d
26
f8
23
f4
fc
ef
cd
03
1c
f7
00
b9
e2
e8
0a
f5
c6
33
f4
c4
29
0e
e2
f7
db
11
23
3a
ef
01
12
fc
21
e5
0c
10
e8
fc
ea
e8
00
32
35
07
01
0f
04
0e
0e
d7
aa
06
1a
07
f5
e6
fd
05
10
17
08
ec
0e
07
21
ff
ed
2c
dc
d9
d4
c6
ef
d5
1b
e7
10
00
e2
0c
f7
07
22
2c
49
02
0a
02
e8
28
ea
18
06
fc
9f
ad
15
fd
a9
a4
21
1a
c1
f7
c5
18
20
05
18
29
fb
f9
20
26
f3
1f
10
13
25
18
16
0f
14
ee
ec
e8
09
24
0c
ff
0a
c9
02
0e
fa
db
02
27
2d
02
22
f3
cd
e2
03
06
e1
0e
f6
03
11
0d
ef
05
11
07
ea
04
1d
ef
02
eb
fa
fa
fa
27
f4
d6
b2
ec
f0
01
bd
f4
fc
10
ec
f0
ec
9a
f1
05
ba
d5
18
08
e4
c7
f5
d9
c8
e2
fc
f4
f4
f9
01
fc
fc
f9
f9
fe
f5
fd
fc
fe
ff
f8
fa
f9
f6
fa
f9
f7
fb
f6
f6
0a
40
d6
eb
2d
2d
32
f8
ff
26
08
1e
14
1e
ff
e9
f3
f9
e4
ef
ec
0a
eb
f6
04
10
f4
14
f9
02
dd
e5
04
f9
f5
fa
03
13
fd
15
0e
2b
06
ec
1e
28
f3
f5
07
16
02
e8
fe
f9
41
fe
d2
f1
0a
10
fd
e5
fc
1a
0a
0a
e1
04
fc
03
fd
08
1b
08
0c
e2
f0
00
f1
0e
04
fc
e9
19
05
32
fb
fd
17
24
17
ea
03
15
04
dd
fc
e9
2f
3e
15
05
06
f3
f7
44
03
eb
fe
14
1e
fb
ee
24
01
f3
05
fb
04
2e
16
d0
d4
e9
e4
ff
02
01
ff
f9
02
fc
fa
01
02
fd
ff
fe
02
03
03
fc
03
fe
ff
fc
01
03
fb
00
1a
f3
ec
08
fc
00
e9
05
20
0a
d4
f0
d5
18
0f
ff
17
eb
ed
f2
34
11
03
04
fb
07
a4
de
cd
e7
e5
b3
fc
b2
e1
e4
c8
cd
e8
21
c8
cf
ca
fc
11
f0
f5
fe
03
13
fa
00
01
fa
ff
fc
fa
fa
fb
03
fa
00
03
fa
00
00
fc
ff
04
fc
02
fe
fe
fa
f9
ff
fc
f8
00
fc
fc
fe
04
f9
f6
fc
fe
fb
fe
f8
fc
05
f8
fa
f9
00
f9
fc
ff
f8
12
f9
16
f1
28
c8
f4
e9
cd
ff
08
31
f8
00
ef
17
ef
05
f2
e8
df
1c
10
2f
13
f8
fb
02
02
01
02
01
f9
f9
00
00
f9
01
fd
ff
fb
fb
fb
02
f7
ff
ff
fc
02
fe
03
01
fc
fd
00
fe
ff
fd
01
ff
01
fa
02
01
02
fb
fd
fa
ff
f9
f9
fc
fe
fb
fe
d7
1a
d7
02
eb
a9
f6
f2
24
27
c8
05
02
0d
15
de
1a
08
1b
ec
11
25
c4
f0
0f
1f
05
d6
1a
0b
1c
ec
e2
0f
f2
f7
f7
fb
e1
1b
01
f7
17
ff
2d
ee
ff
08
e0
20
03
ff
04
03
fa
fb
02
fb
fd
ff
fe
fd
00
04
fa
ff
fa
03
fa
02
03
ff
fb
fa
fb
fe
1f
43
38
f6
29
18
1f
02
0a
06
f0
f8
de
d2
fe
cd
08
06
c7
fd
ed
17
c9
27
0c
f5
c8
d9
ee
0b
e9
e2
f1
fc
19
fd
f0
cc
e1
21
2e
1b
fa
ec
57
32
10
c7
c9
f9
fe
24
f7
07
0b
ef
f8
01
e2
28
f3
13
11
e5
10
e8
fc
f4
f2
06
21
da
eb
00
fe
00
ff
00
00
ff
ff
04
03
fc
02
fd
02
ff
fb
fe
fa
02
fd
f9
01
fb
fa
fb
01
ed
ed
ee
e2
f1
03
0b
f1
13
11
21
ff
0a
fe
14
12
07
f9
ec
de
16
15
27
e2
02
29
07
ee
28
06
05
fb
16
f8
ff
fa
0e
0f
04
1a
ed
10
02
ea
1b
eb
d3
ee
14
f6
03
fd
09
eb
f4
cd
f5
f4
e7
ee
c8
f3
fb
2c
2d
17
0b
00
0f
e9
0d
29
0d
18
c5
e4
f0
0c
c6
03
ee
c8
0d
1b
00
14
ee
2c
f1
fd
f4
f8
23
e1
11
0c
10
08
ef
f8
fb
f4
0c
17
16
10
fa
f5
07
d8
17
f7
14
1e
e2
07
d0
fd
f7
19
f7
ca
04
f1
18
25
d5
0a
2d
5c
0e
1c
f5
2c
10
01
14
fb
ea
07
ec
f6
ab
14
26
d6
bb
ae
cd
d7
03
fd
fb
fb
02
fc
02
fe
fe
f6
f9
ff
fa
fa
fd
ff
00
f9
fa
fc
fd
fd
ff
01
fa
d8
c1
23
36
32
c5
0c
00
06
ec
bc
f5
25
fe
18
f8
12
f4
1d
26
14
c7
d8
f8
ef
15
e8
14
f6
7b
06
0a
e5
c8
e4
f6
b2
dc
f2
2a
e7
07
fa
0b
1a
f8
25
14
fa
22
1b
f5
fe
f6
43
ed
1b
07
fa
3f
34
0e
1a
09
36
2d
13
08
15
20
1f
12
04
03
11
18
04
1f
0d
da
1b
18
34
ea
1e
1b
20
16
2f
3d
08
f9
14
fa
1d
f0
28
20
e1
f2
01
fc
01
02
03
fd
fb
04
01
fc
ff
fb
fa
fb
fc
fb
f8
fe
fa
fc
f7
fd
03
01
fd
c5
ef
e1
00
04
d0
15
d0
f8
5a
d5
b1
bd
0c
1b
d5
cb
b1
2b
07
d3
e0
13
1c
1a
e6
f1
00
f6
f8
f0
1a
18
01
fc
f1
09
10
09
3d
13
06
e5
e7
2a
f1
0b
fe
fe
05
f3
e6
bf
d2
e7
f1
1e
f7
e9
f3
1d
25
ff
fa
14
f2
fc
f0
11
f5
19
13
fd
f2
eb
04
2a
03
04
da
17
f2
f4
e6
e4
1e
01
b6
8c
b0
2a
15
2a
13
f5
28
30
2a
e9
c7
fa
f8
f9
f9
fc
fb
01
00
fc
01
fe
fb
fb
00
f8
fd
02
fd
fd
f9
fb
04
fd
fe
fe
fa
fb
02
f7
fd
05
04
04
01
f8
fb
f8
fe
fa
f6
f7
f6
f5
fc
fb
00
02
f8
f6
f7
14
0d
e9
b7
c7
03
1a
ea
f3
cc
0c
de
1f
0d
b8
f4
00
16
14
05
18
fd
2f
fd
0f
e1
e9
19
1a
08
1d
3d
35
24
0d
2e
fe
e6
ef
f6
12
dc
36
29
d8
e4
d5
24
0f
f8
24
f3
ec
06
dd
11
3a
e2
fe
23
31
1f
d1
e6
19
e0
25
e8
12
12
f0
e0
ec
0f
17
fe
f8
04
19
30
0b
f8
ea
03
13
ff
12
fc
dc
24
00
19
23
06
0a
d7
d9
1a
04
0e
09
e8
0b
0b
f8
f7
e7
15
07
1e
dd
fb
10
06
0f
fe
0c
0a
09
dc
0b
1c
14
c8
e4
fe
ff
02
fc
fe
01
01
01
ff
02
ff
ff
fd
fc
fc
00
02
02
06
fc
fd
ff
fb
fd
01
32
15
e3
e8
f2
f8
01
06
2f
10
32
b8
ee
09
04
18
fb
0f
ee
fc
f2
00
05
d7
c3
0c
04
d4
cb
f0
e1
df
02
09
03
e2
15
fc
e7
18
ef
1d
ee
0e
fe
f5
e9
d7
ec
00
c1
fc
fa
13
1d
0f
13
3d
f3
08
09
b8
e2
ec
c5
ec
f8
0b
0d
d3
e7
07
40
09
06
fd
00
fa
00
03
fe
02
00
fb
fd
00
04
fc
01
fa
02
fd
03
fb
fd
02
fb
04
fc
ff
1e
28
1a
e9
16
ca
d6
d7
fc
05
eb
e2
0c
ec
ec
e2
02
0e
15
04
e5
17
2a
fe
fc
d5
c9
ee
fa
2c
0f
07
fa
21
16
06
13
ef
02
d6
fb
00
f4
eb
e7
b2
0c
00
f1
15
11
10
07
c7
b7
f8
08
fc
e8
0c
15
df
11
20
11
f2
eb
00
0c
14
25
fc
fb
06
1d
02
fb
00
02
03
fe
fa
01
fb
02
fa
fa
ff
fd
ff
fe
fc
02
00
fc
00
01
02
00
fd
eb
2e
2d
ff
39
f8
f4
20
ff
fc
f8
07
e2
ce
f1
10
2c
49
04
f9
14
07
fe
da
e1
19
16
fa
f5
da
13
47
f5
29
f6
17
35
ca
d5
d4
00
02
fc
12
f4
06
18
32
14
d3
f4
f4
10
a3
f2
f1
1e
00
fc
1c
f7
00
07
0c
20
e8
08
f1
18
e7
12
12
18
11
fe
e4
f6
e8
e6
03
d5
ec
aa
2e
23
f4
ee
20
30
19
f5
0c
10
ff
1b
d6
ca
10
22
00
ea
e1
ea
f4
dd
de
fe
03
09
fe
f6
08
1f
fe
15
f7
d0
de
17
15
e0
ce
0d
33
ec
fa
03
01
01
00
03
fc
02
02
ff
01
fc
fc
fc
01
fe
ff
fb
03
fb
f9
fa
03
fe
fe
fe
25
f3
fb
dc
05
e1
0b
f9
09
06
e9
1a
e1
eb
0a
f7
20
10
09
ec
f8
2b
10
f5
ef
de
e1
00
fd
b0
cc
e6
24
00
ee
00
f6
1e
23
17
03
2e
fb
ef
ff
0e
ee
ed
ee
21
1b
eb
fc
01
1f
eb
e8
14
fd
04
fa
fb
e8
12
f7
e6
0c
28
f0
0b
fb
fe
dd
05
ee
ec
e8
22
35
f3
f2
13
3f
e2
e3
ea
12
f1
d6
d8
ee
c7
18
18
10
f7
da
d4
f3
de
fd
ee
e3
f2
0c
f6
f4
fa
0c
0e
eb
1b
04
f2
06
fd
0f
f4
05
0b
e7
21
33
3b
26
0e
22
0d
f6
00
f9
e3
1c
40
ce
f4
f1
eb
e6
f4
01
15
03
f3
fc
0f
17
d7
eb
f1
e5
25
07
35
ea
d2
21
cf
fb
f8
e0
fe
01
10
f0
dc
fb
ef
f0
e2
07
36
02
e7
24
f7
1a
1a
e5
f4
02
f1
f1
c9
18
0a
f6
d7
b7
fc
d1
d9
a8
d2
19
dc
c0
e1
20
e4
ee
f9
f7
1e
fc
fc
e6
ff
e2
f9
16
e5
0e
47
1a
13
e1
f7
0c
e3
10
e2
fb
11
09
0e
f5
00
2d
12
ee
e4
10
f6
ef
e2
f9
24
00
f7
c3
e5
1d
0b
04
eb
19
2e
1e
08
2f
34
01
0b
03
1c
2b
15
08
ec
18
fe
ff
c5
08
0f
0d
db
f8
0c
38
f7
b2
d1
f2
06
14
d9
ba
0e
04
1f
1d
f1
0c
02
04
d3
e2
0a
18
f6
ed
da
e8
0e
07
21
26
e9
dd
d7
e8
17
f1
07
10
fd
dd
29
07
f8
f6
15
e9
c8
dc
0a
da
15
f2
ec
06
26
09
f7
fe
1f
0a
e5
17
07
f0
e9
ed
ef
ca
ff
fc
01
1f
e4
f1
fb
1b
1a
0e
18
26
fc
fa
fe
f9
fb
ff
03
fa
fc
f9
fe
fc
03
01
fb
f8
fa
fc
fc
02
ff
01
fb
fa
f8
f6
f8
df
ec
42
13
06
05
0a
21
0c
12
0d
14
1f
fc
f1
c1
01
1f
06
f7
af
ff
0a
1e
25
08
05
0f
f9
f0
13
f0
f9
03
13
11
07
1b
04
d3
ed
f5
1b
ed
f9
35
27
e7
f5
05
07
ea
bb
1c
13
f5
35
1e
0f
15
13
fc
ed
04
dc
13
ff
02
07
ef
fc
08
c9
03
f9
00
fa
fe
fb
fd
fe
03
fc
fa
ff
04
00
fb
fb
02
fc
fc
00
00
03
fb
fb
03
e5
01
b1
ea
08
f2
0b
32
07
fa
fb
db
f3
b7
2e
e3
14
e3
fa
3a
f3
06
0c
42
37
39
fa
1c
30
f7
01
03
07
08
49
2d
15
ea
b4
99
f4
f1
df
aa
d5
f1
cd
f1
bb
70
00
fa
f9
00
ff
fe
fa
fa
f8
fd
fa
05
fa
fb
fe
f9
07
fd
f8
fd
f7
f7
fd
00
04
1a
00
15
1d
f1
01
fa
12
31
19
ca
f9
eb
ee
15
ef
eb
09
fd
f1
11
ed
03
dc
c0
e9
3e
20
0c
ee
f2
21
fc
d5
21
12
08
09
ef
fb
07
fe
de
d3
f7
14
ce
f4
06
04
f8
20
ec
0d
2a
f6
fc
e3
ef
d8
db
e7
e0
04
fe
15
e5
d1
05
16
17
12
f8
13
23
f3
25
2e
f7
c0
1f
fd
f5
f1
d0
1b
d3
dc
01
36
05
14
d7
17
30
24
0f
bc
f1
26
02
10
f4
ff
fb
02
10
10
ee
ef
26
27
2b
18
f3
02
fc
0b
d9
10
05
e3
f8
03
0a
16
f2
0f
09
26
0c
07
1b
11
ec
11
1a
fd
d1
f1
0a
24
00
e9
27
0e
1e
05
f7
1b
fe
04
f7
00
03
ff
01
fa
fe
fb
fc
01
ff
01
f9
ff
fd
f9
ff
fa
fd
fe
ff
fa
02
da
1d
05
ee
03
ea
1a
16
f8
15
2b
24
1a
f7
f1
f4
09
f8
02
b8
e6
06
17
e1
92
0a
0f
ee
fc
02
f3
f1
eb
08
0e
d1
dd
fd
0e
fc
ef
11
14
2c
11
09
fa
f6
1c
ef
fa
fc
fd
02
04
fb
fb
04
02
fb
fc
fb
fd
04
02
02
02
fb
fb
fd
03
fb
02
fd
fa
ec
e6
08
2e
40
19
13
0a
ee
1e
0e
14
0f
f5
d7
f2
ed
0a
08
ff
f3
d5
f2
ca
d0
0f
de
e8
c1
d1
08
11
06
e2
c6
0e
f8
f8
cf
6d
f6
f1
01
f5
0d
fd
0a
02
e8
12
df
bf
f7
0f
23
d8
e7
de
dd
fd
03
04
f5
e7
ff
22
e6
fb
1c
1e
1c
00
f4
1e
1f
1f
05
2d
26
27
07
15
f8
0f
14
fb
20
16
f4
e5
de
0f
01
ee
e3
0b
15
06
fa
a0
05
33
0c
d1
08
07
0e
09
0e
00
d9
03
01
f9
06
d8
0f
e0
ef
d1
f5
2b
03
08
dc
16
21
f2
c2
fd
ee
e3
e0
14
0e
01
f9
f8
0d
13
ee
0a
f9
e6
0b
e7
f1
07
ff
bb
f8
03
05
fb
fd
fd
f9
03
02
fa
fc
03
ff
03
fd
fc
04
06
04
f8
01
fd
f8
ff
fd
f7
f4
f8
fe
02
f4
f5
fd
fd
0a
fe
ff
f7
02
ff
f3
fa
fc
02
fe
ff
fa
01
04
fe
e5
09
fe
09
27
c6
e2
f1
14
04
ea
16
ec
0e
d3
11
f9
f5
f5
d4
1d
19
28
fd
c9
e7
c4
9d
e5
d8
f8
10
e3
0b
03
e3
10
37
1b
fb
e0
23
0d
19
f6
ee
25
12
06
03
1f
09
12
f6
f6
07
13
ff
ed
f9
12
14
ce
f9
27
06
26
e7
e5
03
1c
fe
fc
12
15
13
f4
e4
0c
0f
f6
e6
e1
f0
03
1b
ec
f1
fb
e6
15
fd
f2
ee
e2
e3
ff
f8
06
ff
f2
fd
0e
09
f0
df
e6
d5
0a
01
11
2e
fe
09
1e
04
f4
cc
05
39
f6
c7
da
3b
33
f8
fc
ff
fe
01
ff
01
04
fd
01
f7
00
fb
fb
00
ff
fd
fa
00
f8
00
fa
ff
f8
f8
fe
f8
01
05
02
f9
04
03
f8
01
f7
fe
fd
04
02
f9
fd
fd
02
01
fe
f8
fd
fc
ff
0c
e9
bf
e5
1f
02
df
ee
0a
1a
f6
01
d8
07
ee
03
ea
1c
2b
06
e3
12
1f
19
03
ed
85
02
1a
2f
e0
ba
ee
f4
13
f4
18
03
f8
25
f8
01
da
db
ff
e1
fc
ff
15
d8
fc
f5
f3
f8
f5
fd
fb
f9
f3
f8
f9
02
ff
00
f4
f6
03
fa
f7
fb
fc
fe
fb
fc
fb
ff
1f
01
fb
f2
0e
0e
14
f9
f3
08
0d
f8
fd
05
f4
f2
25
2a
03
d8
fb
0f
07
fc
17
08
00
1d
06
08
0d
e5
fb
e5
fb
14
e8
fc
fc
12
0f
f7
2f
0c
12
1b
d4
f1
fa
f1
c3
de
1d
1e
fe
c9
29
f3
09
de
f4
0a
1d
1d
f8
02
17
fc
f9
e6
ee
1d
03
f3
06
04
1b
17
e5
0a
fb
03
fc
e1
ea
f8
fc
06
32
07
f0
e7
1a
2b
23
ed
ff
25
fe
e9
00
1e
1e
00
01
33
0f
e7
dc
09
f3
dc
e3
b6
07
e8
e0
eb
ec
01
d4
0a
0b
f8
d4
e8
01
01
f8
07
0b
26
16
0b
17
ee
f6
13
12
1a
16
c3
fb
0f
22
f5
cb
f5
1c
ef
f4
2b
df
03
ea
f3
d5
b7
ef
f5
0c
f6
05
f1
22
e4
ff
16
f1
d4
1a
2a
f5
e5
f2
f8
05
0e
16
0e
45
3e
46
02
20
f2
13
fe
ff
eb
e0
02
0d
20
0d
0c
ef
ec
eb
e4
f5
ea
06
33
f3
fc
fb
f8
1d
06
e2
1a
08
1a
26
f2
f7
31
02
14
c6
bd
fc
f4
de
f9
20
eb
f8
f2
12
03
f3
0c
17
16
37
19
fa
0a
cd
1b
20
06
0a
cc
01
fb
02
10
f1
f9
05
f9
17
0e
18
23
09
bb
b8
f9
02
ec
b5
d5
24
0e
e0
ee
bc
10
11
21
f3
fc
00
fa
f4
f9
fc
f9
f9
f6
fd
00
fe
00
f9
fc
00
f9
fe
03
fc
07
fd
f9
02
35
1d
1f
27
56
16
24
da
10
09
1d
0d
b8
10
ee
09
f3
c9
df
1e
e9
f2
e1
1e
fa
fd
fa
e9
f3
15
1c
17
e2
0b
00
0a
02
ca
e4
e8
e7
d0
ea
f8
fc
fa
e8
17
ec
03
d7
d3
0c
18
0b
d7
e5
e9
f8
01
ed
f9
e7
f1
e8
00
dd
f3
0f
f1
2d
da
dd
12
21
ed
0b
2c
f5
9c
ca
d7
0e
0c
ed
e2
ea
1f
14
23
f0
15
14
f1
ed
05
1f
fa
ef
b0
f9
e8
18
ea
2c
02
e6
e3
e7
35
f2
13
10
00
0f
f1
00
1d
21
2c
e2
1d
06
0f
32
03
fe
ff
fd
01
fe
01
03
f9
02
fe
fc
03
fc
03
fe
fb
fc
fc
03
01
fd
ff
02
fb
f6
07
1d
1a
25
e3
fb
f4
ea
17
ef
07
e7
f2
12
f8
0c
14
e3
ce
fd
10
0f
d4
d4
ff
f7
d4
e5
0c
f7
0a
1a
11
0d
df
f1
e0
19
03
10
21
de
dd
ce
0f
03
00
0d
17
ff
f8
fe
fb
00
fe
fe
01
ff
fd
02
fe
01
00
fd
01
fa
fe
fb
ff
fb
ff
00
01
fc
fe
f9
fe
f5
f9
fa
fd
01
fa
fc
f7
f2
fd
00
fa
f8
f9
f6
06
f9
ff
f8
ff
00
ff
09
0a
bf
ec
de
16
bb
eb
15
10
0f
07
f4
1a
01
20
f4
0c
fe
cc
18
01
1f
0f
b2
04
fa
fe
fa
04
01
fb
fc
f9
02
fb
00
fd
f9
fa
fb
00
fa
ff
03
fb
fd
fc
03
fc
fb
fd
00
fc
00
fa
fb
01
fd
fb
00
ff
00
fd
fd
fe
fa
fc
01
fb
fc
fe
fe
03
01
ef
f0
03
0a
24
00
ff
ee
03
fc
ed
e5
17
18
df
ce
f8
03
04
fb
e6
e5
06
0d
25
fb
37
3b
04
e9
f5
21
18
19
15
e4
12
38
06
e4
cb
06
ff
f7
03
01
ed
d1
c2
f5
01
ff
ff
fc
04
fc
fc
fb
01
fb
ff
01
00
02
03
fa
fc
02
00
fd
fc
fb
00
03
00
14
03
37
f4
d0
0e
08
0d
35
d0
d1
ef
00
fd
eb
fe
ff
e1
13
33
f8
cd
c2
ee
04
0c
df
eb
f5
19
fe
f8
0c
fe
cb
d3
22
12
02
e8
12
de
20
15
f0
20
10
03
0d
10
f9
e0
ec
fd
f9
f5
e9
0e
0e
08
08
d9
ef
19
f3
ed
f6
ea
06
f2
e6
fb
21
11
04
fb
fb
fd
fd
fb
fb
fe
ff
fd
fd
fa
ff
fb
fc
03
fb
fd
fa
fe
03
01
fa
01
fe
00
fc
e0
f3
f7
74
f7
1f
e5
f0
2e
1d
3c
d4
dd
f2
1b
d8
d4
d7
0a
12
e9
19
0d
16
c1
e2
fd
20
28
df
06
05
0f
03
f6
17
16
0e
d7
f8
0f
1b
ff
fe
f1
13
29
ec
f8
0c
fd
eb
f6
12
05
10
17
13
4d
01
31
15
17
16
dd
e8
df
fb
0c
e8
f6
03
12
f2
d7
da
02
fc
f9
d3
04
16
ff
0d
e5
0e
1f
10
01
df
b8
fd
00
19
e4
df
dd
e3
03
ff
16
e5
0b
0f
04
06
0b
03
13
10
21
e3
f2
fc
14
03
0e
0d
fd
07
e7
eb
10
1c
fd
19
18
f3
da
09
04
eb
20
fa
f7
1a
27
11
21
e9
00
1f
17
24
f7
c3
10
21
27
f9
02
02
00
02
fe
01
04
f7
ff
00
01
04
fd
f8
ff
fa
04
fb
fe
fc
02
fe
fb
f9
fb
13
16
e9
f4
f5
e1
22
08
1b
05
f4
30
0a
09
08
29
1c
ff
1b
c9
e4
f4
1c
17
11
14
03
1a
13
f9
15
16
1f
20
f6
da
c2
d0
11
c4
ec
d2
8e
bd
03
20
1c
d4
e1
08
1b
16
14
0d
03
ea
bd
fd
f6
f1
cc
f6
16
11
df
0e
11
0f
f5
e8
0f
03
1c
07
15
ee
1f
eb
fb
05
dc
2a
c9
dd
f6
9d
1b
e7
fb
08
15
f0
d1
12
f0
02
f7
f5
0b
fb
ff
fa
fa
fe
ff
01
fc
fb
ff
fe
fa
fb
00
fc
fd
fe
f6
01
f6
fb
fe
fc
ff
01
f6
fd
fc
1d
fb
13
d2
04
ec
e1
21
06
25
fe
e5
02
04
08
18
cf
00
12
15
09
fb
ea
d3
d5
04
38
e6
81
09
f8
f9
fc
cc
0c
04
10
18
0d
fc
0a
0f
f4
ff
2d
08
1c
60
0f
ce
c9
fa
07
07
02
0e
00
34
0b
05
f8
f6
07
08
44
15
0b
25
10
1c
d2
20
15
ea
5c
0a
01
fe
f3
a7
00
fa
1d
fd
8e
d4
d1
fa
fd
ae
c5
e0
f6
0b
ec
d2
fe
03
ff
ff
fd
ff
fb
ff
fc
03
fb
04
fd
04
fe
fb
fc
fe
03
04
f8
fb
fb
fb
01
fc
f8
fa
f8
fb
fe
f3
fa
f4
fd
f4
f3
00
fb
02
f2
f6
ff
f5
fb
fe
fa
fc
fa
f5
fb
36
f5
cc
bd
d6
23
ec
d0
df
c9
14
05
e7
05
ed
17
38
0d
f0
e3
34
07
24
27
e8
ee
da
eb
13
df
f8
db
fe
0a
fc
e7
fd
0c
1b
e7
f4
dc
f8
0d
f5
df
0c
1a
f7
0d
11
16
ff
f3
e4
08
dd
a0
ff
ff
19
dc
d1
f8
1d
fb
c6
f6
f3
24
e0
b6
ee
f5
06
27
11
f4
42
22
33
04
09
24
f4
e4
f8
17
28
ee
e7
30
09
14
00
03
10
23
f8
19
26
ed
fc
1e
0d
e5
c3
fe
07
0b
f8
ce
e3
22
24
f0
df
cd
fd
12
1e
0e
06
01
f4
fa
00
fd
04
02
fa
04
03
fb
fc
fa
03
01
02
05
03
02
04
fb
fc
fe
01
00
03
ff
df
04
e5
ea
c0
04
2b
fd
07
d0
13
f4
09
17
01
ee
f1
05
10
1d
09
ea
12
1d
e2
df
2c
2a
ec
fd
06
f1
f6
0a
f5
1c
f2
da
00
dc
e3
08
08
e4
18
df
e6
f2
13
19
39
21
0b
ec
1e
fd
f7
fc
fc
18
fe
f1
ea
e2
04
04
e4
f1
0d
f4
1d
ea
1f
07
e8
fc
02
fd
fc
01
fa
02
fb
02
ff
03
fb
fd
03
02
02
fc
ff
04
fb
ff
fa
02
fe
02
4b
04
ea
06
dc
cf
06
f4
cc
01
f5
0d
dc
b9
0c
1a
0a
e9
0d
fd
f9
f8
31
0f
21
35
2e
0c
1c
2e
1b
30
17
0e
f9
f6
15
09
0f
ed
f6
1a
ff
df
e6
ef
03
04
02
07
e4
aa
f6
e0
d7
0a
f7
ff
ee
11
0d
23
22
f9
14
1a
03
19
00
f9
25
0a
03
f7
f2
04
fe
ff
05
01
01
fd
fe
04
03
f9
01
fa
01
fc
fb
03
ff
02
01
fd
fd
01
ff
00
e1
e2
ab
11
07
32
da
e9
fa
0b
0f
e2
10
03
05
fb
e5
05
f6
07
f3
05
f4
dc
00
de
ff
d6
0e
0d
fa
17
e2
dd
16
00
fb
01
0b
27
de
14
e2
fd
fa
04
c6
1e
04
e3
ad
19
18
14
ca
0b
29
3b
07
f4
23
1a
ef
d7
02
f2
e4
e2
07
fd
ea
fb
f6
18
f0
fd
1f
d7
ee
d0
1b
f4
04
ff
ff
c8
07
f8
0d
1a
12
04
18
05
12
ed
d0
0d
f1
20
db
f9
e9
fa
0d
f3
f0
f2
d0
dd
d0
ce
01
02
1d
b7
e6
f9
ee
27
bf
f1
ed
e6
17
01
05
02
fd
05
fb
fd
00
ff
fa
fa
01
fb
01
fe
f9
fc
fe
f9
ff
fb
fe
fd
fb
fc
b5
13
0e
d4
d1
de
fa
ec
0e
0b
22
24
0e
28
ef
27
2b
14
15
16
25
23
15
3e
eb
c4
61
12
fb
d9
02
12
e4
27
e7
b5
94
ec
f6
09
00
b8
ef
12
16
06
fa
09
29
31
10
0a
2b
f6
f6
fc
1c
18
f0
e3
05
fd
e9
f6
f0
04
3a
fb
f4
f3
16
e5
03
eb
e7
0c
37
47
06
cd
02
ef
20
05
fb
0a
05
1a
25
27
1b
08
de
f0
09
eb
e0
ea
c4
be
14
e4
e6
d5
19
06
f7
16
39
27
06
1e
10
11
0a
27
37
30
e9
0c
1e
fe
2a
0d
14
e1
fc
1b
10
fb
02
08
13
c9
eb
e5
d5
19
28
0b
18
36
0b
17
f9
03
2d
1b
d7
e4
ec
fb
ed
18
10
01
22
05
16
32
fa
1d
0f
2d
05
0c
06
27
25
0c
f6
e1
2b
0f
e0
3b
07
d8
d6
0b
08
17
03
f1
e6
dc
17
df
f4
c1
ec
2f
ca
f0
8a
23
0c
8c
99
a3
fe
d9
1f
34
0a
fe
1f
0c
12
1f
ef
f9
24
2f
01
fc
fa
25
17
05
18
f0
02
e6
fe
2d
37
94
2d
16
14
05
9a
06
ea
1c
f8
b6
05
fc
38
e9
df
11
06
f0
f4
ca
f2
e7
b5
e9
ff
92
20
dc
e4
eb
ce
09
f2
17
f4
e8
c0
d7
0e
f1
da
d4
e4
06
34
d5
f3
f5
0b
2e
10
eb
e4
08
1c
eb
14
ed
f4
2b
07
d1
ee
ff
1d
cb
0b
ce
10
0a
ef
00
3b
d1
cf
99
bf
fa
2a
30
ff
01
0c
14
1e
09
fc
0c
08
eb
de
fb
10
ed
9a
f0
f0
bd
17
29
ee
fd
c5
0d
e1
fd
05
d2
f6
01
e2
c7
d3
01
1e
19
e2
cd
3a
3c
34
33
fb
fa
fe
01
fc
fd
fb
01
02
fc
00
fe
fd
fc
ff
fe
03
ff
02
fe
f8
fa
ff
fb
fa
e5
c9
96
f8
2a
0f
bb
eb
11
10
12
d7
00
f2
03
0d
b7
d3
e4
0d
03
d4
a7
13
2d
e2
02
d5
e2
0a
ef
eb
16
bc
e2
1b
ff
93
c3
20
22
de
c9
f0
09
ec
ed
23
2a
34
f7
f6
32
e3
fc
f8
ec
f4
18
04
2c
fa
12
fb
dc
f6
ff
f7
30
d1
2b
07
31
15
d9
fd
ff
fb
03
00
01
01
04
fd
04
fb
03
02
fc
01
ff
04
04
fa
01
fe
fb
03
00
fb
f8
0f
1c
f2
0a
06
1f
ed
f0
0e
e6
10
29
0d
f4
c1
ef
df
c6
f1
f9
04
cc
06
1b
32
0e
07
f4
0e
e0
0e
f3
16
eb
26
0d
11
07
eb
0f
fa
1d
ec
9c
1e
fd
d9
eb
32
f7
03
fb
fe
f9
02
fd
fb
f9
fa
ff
02
f7
f9
fb
fe
ff
fd
fb
f8
fd
f8
ff
fe
f8
0c
ff
06
eb
0b
03
0c
e5
0f
1e
f6
fc
09
eb
1c
cf
fa
0a
07
09
06
04
fc
ec
ce
06
1b
a9
a8
cd
09
e0
d6
cd
f0
ef
f4
d1
cd
f4
1b
c3
ac
e1
f9
1c
f5
b1
e8
f0
14
0e
24
e0
e0
ec
07
1b
04
df
f8
02
02
04
fa
02
24
09
e4
f8
dd
21
5c
06
fc
1d
02
f8
e9
a0
1c
fe
ee
d8
0f
ef
e4
ea
06
27
09
29
23
11
fa
33
4c
f3
fe
45
fc
f1
0c
f7
21
25
f4
09
12
19
e8
fd
33
13
0c
d4
d7
1e
f8
f9
fb
f9
1e
d8
e5
2a
e2
04
fd
1e
43
00
ef
ff
f2
09
fc
e4
07
cd
ff
fe
0f
f7
d6
e0
eb
16
29
1c
fb
00
01
04
02
fc
01
ff
03
fa
fc
fa
fe
fc
00
fc
fa
00
f7
00
ff
00
f9
fa
f8
cb
0f
30
07
0a
ce
09
fd
fd
f9
f5
10
02
2d
01
ee
33
fb
04
d9
fe
04
f6
f0
ad
3b
11
ea
ee
d1
fb
e4
12
04
19
f3
0e
f5
03
09
f5
18
03
08
fe
22
f9
c9
17
07
fa
01
04
fc
f9
fe
fd
fe
00
fd
03
01
01
00
fe
fc
02
00
01
00
fb
fb
ff
ff
ff
c0
12
cc
df
04
1a
08
e3
0a
28
12
18
f9
18
21
fa
f6
05
f5
0a
10
24
1e
1c
df
fc
00
01
bc
e6
09
f7
fb
ed
e1
00
0a
f0
e3
00
08
2e
03
05
fc
1f
0f
01
ef
ec
d4
ff
eb
fd
07
1e
27
ff
1c
0b
1c
1d
33
03
1b
0d
40
15
24
f4
e0
f8
09
f2
0e
41
15
32
cc
ef
0f
08
1a
1b
e4
fb
07
f9
13
e5
f6
df
f8
11
bc
ef
17
d2
1e
bc
10
08
06
ce
36
09
39
0d
e2
10
04
05
f1
de
f3
c1
27
26
06
23
d9
27
e6
01
12
26
15
0c
12
07
f7
1c
f1
33
15
1d
24
fd
2e
01
2a
08
fa
f9
ed
09
01
11
d7
ea
fe
fe
04
04
f9
05
fb
ff
fe
00
02
fe
fc
fc
fc
00
fe
fc
02
fa
fe
02
f9
fc
ff
fd
fe
f9
f4
01
fc
f9
fc
f9
fd
01
f3
f4
02
f9
fa
02
fb
04
f9
06
fd
fe
f9
03
f6
fe
22
fe
06
fe
f5
fe
00
00
dc
1e
16
f7
ed
13
20
1d
ee
e7
03
f4
13
f1
a9
e3
fd
fb
ef
f9
06
05
f2
f1
06
08
03
f1
ea
12
05
ed
f8
da
e0
0e
29
07
07
f8
ba
ef
f6
1b
e9
dd
12
2f
32
0e
1c
09
fd
fa
f3
03
fc
cf
fd
f6
fb
df
95
f7
38
22
f7
f3
02
01
1b
ec
18
03
f5
29
fa
07
eb
03
20
1d
f1
2d
f1
f3
1c
f3
0d
10
b1
03
d7
0b
25
22
11
fd
09
24
04
18
14
0d
0e
29
1c
ea
d7
06
f1
e6
dc
e8
23
03
01
02
02
04
ff
fb
00
fc
fc
f8
00
f7
ff
f8
04
ff
fc
05
f7
fe
f9
ff
03
fa
01
f8
f8
fa
fa
fc
fd
ff
fb
00
ff
f6
01
01
ff
fb
fc
02
fc
f8
fd
ff
fd
fa
f5
28
19
10
d1
0f
fd
3f
00
f8
1a
0e
00
d8
09
0a
d6
f7
f9
e8
02
e3
d0
36
0c
ed
ed
f2
d9
03
ef
07
00
ef
a0
de
de
fd
11
fb
23
17
02
3c
2a
12
01
09
ef
2d
29
fa
fb
f5
f1
fa
ec
fb
f6
01
f2
07
f9
f8
f9
e4
fd
fa
f9
f0
fa
01
f1
f1
ee
02
f3
09
cb
0c
05
f2
e8
f0
ec
f1
16
fc
ee
0f
0b
0b
d5
bd
f3
02
f2
09
03
e1
0f
2c
04
e8
19
32
16
ec
c4
fe
05
0d
f9
ff
f5
1e
09
0d
0a
01
00
e9
21
26
44
ea
fb
fb
06
d7
e2
ce
07
0a
fb
1b
0d
10
f2
ef
0c
03
db
f1
0c
e3
e7
09
04
04
d5
07
22
f4
f6
ff
30
02
18
02
01
0b
16
1e
20
14
ec
16
ee
0d
2a
e7
e3
00
26
2d
93
cc
00
08
d2
b9
f5
10
21
03
e5
fe
12
47
d0
0c
09
26
2e
b0
05
0a
25
f3
d5
b9
f8
0e
14
fb
fe
30
30
06
ea
12
01
38
11
00
12
0d
ee
ed
0e
24
f0
c5
e2
24
19
0c
15
d6
e6
0a
24
f4
ff
00
01
0c
32
1e
06
2a
fc
1b
22
0e
04
f7
24
2c
f7
e9
bd
d7
c6
e8
f7
08
e6
f3
12
20
20
10
03
0a
fb
0d
16
f8
14
23
d6
e0
0b
24
f9
e9
f4
0a
ed
1c
fe
19
1e
03
ee
14
d2
f6
09
16
2c
ed
08
00
13
04
f5
14
16
2f
19
09
04
bb
29
06
ff
f2
05
32
ec
f2
0b
e5
08
d9
17
1f
f1
08
c4
11
08
e4
b8
ff
ef
21
2a
f8
41
f7
eb
fe
e1
e8
f9
fd
e5
de
10
ec
ec
0c
ef
eb
1b
eb
2d
fb
f9
02
fe
f2
fe
f7
06
03
fc
fd
f4
03
fc
f5
fe
fb
f0
04
ff
fd
f7
fa
f8
fc
ff
fe
ec
12
22
15
12
dd
f4
e5
ea
e1
e1
f0
0b
f8
eb
bd
db
02
09
f5
0f
fc
da
03
ac
f2
d3
22
e6
f9
fc
bc
12
10
f4
fd
1d
0f
f7
d7
d3
c4
1e
eb
c4
e0
fe
04
da
10
e5
fe
da
b3
d1
02
16
e6
b5
20
14
17
01
de
27
11
22
0b
3e
f3
ea
0e
02
0a
25
f9
11
c2
00
f0
ec
05
f7
07
f3
ee
09
ee
bd
28
1d
33
f2
14
19
0e
19
e9
27
f1
18
d3
fd
05
28
01
d5
dc
12
43
14
01
ec
ea
11
1a
03
fc
0c
09
16
0d
04
00
fa
04
01
01
fa
ff
fa
fa
02
fa
03
02
fb
02
fe
ff
fd
fa
fa
04
02
fc
fe
fa
11
c1
17
27
17
d4
14
04
f3
e4
ed
fe
1b
d7
f3
22
23
13
f4
eb
17
1e
0e
de
e0
0c
3a
41
1d
fd
24
09
21
02
ea
eb
fc
09
0c
23
f7
fe
0f
0a
ed
23
fb
ee
f8
17
01
fc
04
fb
02
00
ff
fb
fe
03
fd
01
ff
00
fa
fa
fb
02
00
00
ff
f7
fd
03
f7
02
fa
fc
f6
fc
fe
fc
fd
fd
fb
fc
00
f3
06
f4
f8
f6
ff
fc
fa
fd
f1
00
f8
00
23
dc
c0
ca
d8
2c
ef
f5
f5
08
1a
f0
19
34
27
13
06
29
26
03
25
de
2c
42
ea
fa
02
02
01
fe
00
fc
02
f8
f8
00
02
00
01
00
02
02
01
ff
f9
00
02
01
02
f9
00
01
fc
ff
fe
02
03
fb
03
ff
fc
03
fa
fe
fa
00
ff
00
fb
fe
fa
fc
fb
03
fc
b6
c8
1b
0f
fe
e2
e5
14
19
25
ed
11
03
11
ed
e2
06
0c
08
18
05
e5
03
0c
1b
e9
ca
e4
f3
ea
e3
ed
fe
fe
09
07
03
f8
0b
12
ff
0c
0e
1d
09
2e
1c
0e
c3
f1
fe
04
01
00
fc
fa
fb
ff
04
03
fe
02
fa
02
01
04
fa
02
ff
02
fb
00
02
03
fd
30
f0
0c
27
eb
ed
39
e9
e6
b5
ed
ce
e5
34
ed
1a
f2
0b
0a
00
fe
14
30
09
e5
c0
e0
09
dc
eb
d1
f8
0d
04
f9
bf
0b
20
0a
f8
e6
fc
1d
04
fa
e0
eb
1d
11
09
02
e6
1f
15
ff
ff
fc
fa
eb
f8
f1
d0
fe
25
f9
d2
10
1a
f8
e2
ee
07
21
ec
1b
fe
01
00
fb
fc
ff
02
fb
fc
fb
03
02
03
01
fb
fe
fc
fb
fb
fd
f9
fe
fb
00
03
19
0b
15
1d
12
06
e6
f1
05
15
ea
08
10
0f
f9
fb
d4
f2
01
1a
f7
ce
0e
09
f2
ea
eb
10
32
01
da
1d
2d
09
ef
12
0c
05
12
ec
0c
18
de
ea
1e
28
0e
03
f7
d3
48
f0
ec
06
f8
f6
ee
1c
fd
1c
d9
12
17
2b
04
f5
d9
09
0e
c9
19
0c
02
01
ad
d3
04
d8
23
17
00
f7
1d
17
18
0d
0f
ef
e1
24
11
5b
b6
00
ec
fd
29
e6
0e
08
fa
f6
00
05
0d
06
31
fa
17
fd
fb
f5
04
26
f8
d7
e7
0f
0b
41
1f
e5
e9
fd
0c
f6
e4
0a
0b
0d
0c
23
bc
b3
eb
09
10
de
da
ea
15
c7
e5
e4
fa
3d
07
c5
c6
06
02
f9
ff
00
fb
01
02
fe
fb
00
00
fd
fb
fb
03
00
f7
fb
01
fb
01
02
01
00
fd
2d
f1
1e
06
04
01
ff
0e
25
1f
f0
26
f2
f5
e5
f9
14
07
0d
13
25
2e
de
04
f9
1f
23
ec
11
ee
0f
06
04
fe
ef
ff
e7
03
e6
f9
bf
0d
cd
d8
dd
17
d2
80
df
c9
0f
c8
f3
43
28
15
f0
ef
e4
f9
f4
ea
09
0b
f7
d4
e8
0d
12
fa
24
2a
41
07
34
3f
18
2d
15
09
41
fe
00
1e
12
f9
ca
ee
14
ea
16
f4
ff
06
f1
f8
0d
17
f9
e5
03
fd
03
ff
fa
00
fc
04
fe
00
fd
fc
fb
fe
fa
fb
fc
fb
02
fc
03
fa
ff
fe
fc
21
17
9d
ad
0e
10
e8
ec
ba
f3
f7
f4
1c
2e
18
e7
e5
19
27
35
ea
f4
17
37
01
fe
8e
05
13
0c
ea
be
fa
eb
12
f1
ec
05
49
1d
d4
06
1a
2d
ea
ec
07
11
3c
0a
39
06
d2
ea
f7
06
cd
f1
fc
f5
f3
ef
f2
ec
01
02
09
f7
ec
dc
f1
1b
fb
d1
fe
fe
19
1b
26
f7
02
2b
df
08
26
f8
ff
09
ec
fc
e2
02
fa
ff
cc
f1
09
0e
f2
f9
fd
fa
03
04
03
f8
02
fe
fc
fb
f8
02
ff
fc
02
00
ff
fe
fe
fc
fc
fa
01
fe
00
05
02
f6
fd
fb
fb
01
fc
fb
fb
01
03
ff
fc
f3
01
05
02
08
f7
f5
fb
06
08
f8
f6
fd
06
f3
0b
01
f6
cb
f6
08
f5
fe
d5
0d
fe
e3
c9
e2
ef
fb
0c
0a
fe
11
dc
ea
ee
e4
ee
f2
dd
e5
21
53
f9
26
2a
21
f8
f5
fc
18
fc
1c
1f
0d
eb
07
1a
fa
26
f8
f1
f2
e6
25
f7
f0
c7
c8
00
dd
f0
e8
fe
fe
ef
15
d6
05
fa
d9
cd
e4
d5
e9
dd
16
21
b9
fd
12
08
da
d0
10
21
13
f0
1f
29
16
c4
b8
0a
f5
f3
e6
0a
0d
0a
0f
1a
35
8b
3e
1e
07
03
dd
0c
08
0a
02
ea
fb
04
21
14
20
15
f4
fe
fe
11
02
04
03
ff
03
fd
fb
ff
f9
ff
04
01
03
fd
fd
ff
00
fd
ff
ff
fc
02
fe
fb
fb
fb
24
1f
eb
c3
f1
00
33
0a
26
09
0d
39
1d
1f
07
43
27
1b
f5
05
3a
fe
1b
b7
27
21
04
fd
33
29
ff
de
d5
02
19
f8
e5
17
20
fa
f4
ee
06
ec
05
e3
07
01
d7
ca
f7
11
08
10
f0
e3
05
1a
37
dd
dd
fd
e9
f3
d4
18
f2
26
09
e1
fd
0b
34
0c
03
fe
fb
01
fc
00
02
01
fd
fa
fc
fd
03
fd
01
03
fd
00
fd
03
fd
fc
02
fb
fb
04
10
10
07
f5
11
e6
11
de
f2
19
f3
26
1c
09
19
3a
12
e4
fb
18
1f
20
1e
13
c4
ed
f1
10
25
ce
c5
f4
f6
18
12
21
23
eb
09
35
13
35
09
06
02
fa
18
20
0f
36
13
13
0b
0e
02
e4
f0
02
19
eb
e3
f2
21
10
d4
fc
05
11
f4
ed
18
0a
39
11
fc
fd
01
01
fa
00
01
fd
00
fa
02
fc
fb
00
fd
fc
01
01
f9
fd
fb
f9
ff
fa
fb
e5
d9
0b
0b
e1
fd
f4
1d
d7
ee
f3
c8
33
14
11
ec
ff
19
15
21
03
eb
17
0f
d3
d6
f9
e7
07
01
00
e4
ff
0b
eb
fe
05
f9
c5
bc
f1
db
eb
db
f4
fe
02
f4
09
e1
05
15
0c
fa
bd
eb
0f
2b
f0
dc
ee
24
f2
c8
de
f0
e9
cc
b5
24
fa
e1
e5
37
ff
e0
eb
09
05
e1
db
fe
e5
10
f1
f3
f2
fe
0e
ef
0d
0e
b9
29
3b
fd
ca
fa
f9
0c
37
12
06
1c
d0
0a
c5
e6
2e
ec
0d
ce
ff
ff
40
00
f9
fd
f6
25
f9
f8
be
0e
08
ff
fb
fb
00
fa
01
02
fc
02
f9
00
fa
ff
02
01
ff
01
fb
fd
05
fd
01
00
fb
f9
11
0a
17
0d
07
f8
31
08
02
1e
e1
17
0d
0a
fd
e9
06
0e
33
fe
f1
e6
04
29
3e
07
cb
ea
09
e2
ea
cf
31
0b
2c
df
f9
20
22
03
f1
11
d0
f0
24
0f
55
15
00
de
1d
f9
ee
0c
19
2c
fe
01
03
d4
f1
e9
dc
0c
ce
fc
d6
1e
e7
ea
0b
0c
f6
de
fc
d3
0d
f0
19
01
f5
c7
fd
18
f6
f7
dc
05
13
f6
17
0d
0d
24
04
ff
2a
f0
f7
27
0f
fa
fa
db
07
df
ff
fa
d5
14
f4
13
f8
eb
03
04
e3
ea
ec
f4
df
f6
ca
d6
06
f6
0e
05
04
03
31
4a
22
f2
ff
12
0b
e6
02
e7
15
03
18
d5
36
f6
e3
fd
1b
12
d1
fe
3a
01
f3
0f
08
f1
0b
d3
05
c1
db
be
dd
f2
c6
e9
f3
1b
f4
f9
fd
18
09
0e
f0
f2
01
2c
08
ee
03
06
e7
13
02
0a
0d
dd
f8
f2
fd
c0
7e
1b
0f
97
8a
c2
1c
bf
10
ea
15
e3
e6
e3
11
2e
f4
fe
f5
01
39
1a
04
17
10
28
0c
19
ce
cb
ff
16
ca
00
dc
01
ef
10
e9
0e
f0
ee
ee
d4
16
07
c7
16
e8
2c
e8
e0
d7
ff
21
28
dc
01
fb
07
04
e2
09
fd
f1
18
2e
f6
f8
18
07
25
0d
07
0a
12
19
0f
24
dc
d1
10
d2
ea
e7
e8
02
05
db
1d
2a
fc
16
15
fc
17
e8
4a
33
3f
1c
12
06
37
22
e0
d1
01
32
fd
21
d5
f2
f3
16
22
d5
d0
db
1b
0d
03
26
c1
f5
fb
f6
e6
f8
25
21
06
e8
f4
df
fb
06
df
11
15
3e
08
0a
02
04
20
ce
ca
fd
e2
05
fe
12
08
12
09
fb
00
ff
03
ff
00
fc
01
fa
fc
f9
01
fb
04
ff
ff
01
ff
00
fd
09
02
03
07
04
bf
e7
e6
fb
0f
00
b0
de
09
ea
01
ed
1d
15
18
04
0f
11
f7
0b
0d
16
f7
dd
eb
0e
1d
01
f1
0a
10
12
39
e7
ce
f6
05
30
0e
0b
0e
04
23
cf
fc
02
f1
f6
04
fd
de
ed
e5
fa
00
cf
d3
18
e6
ea
e3
03
15
11
0d
e0
0a
01
01
e5
fc
ff
d0
f2
e4
fc
04
ff
fa
00
ff
00
05
ff
fb
fe
00
fc
fc
fb
02
01
00
f8
fb
00
ff
fd
ff
fd
01
ec
f7
bd
d0
04
16
e3
e7
c4
2f
0a
31
ff
0b
04
ee
e5
c9
19
1d
d9
25
e5
37
1a
1a
1f
0c
08
ec
04
34
2d
1f
ec
ff
2b
11
22
fe
14
0f
03
f5
0e
1f
c8
d5
c6
f8
fc
00
f8
f9
f7
fd
01
fb
ff
fa
f8
fa
ff
03
f7
ff
00
fe
01
fc
00
f9
f9
00
07
1d
0d
08
26
05
fc
f1
0f
30
eb
14
f9
0a
38
04
f9
ff
f0
0e
18
f9
09
f6
f8
df
1f
fb
eb
f2
ec
10
05
e9
15
ef
15
f1
29
42
f8
1a
08
03
eb
f7
de
04
f2
0b
f8
1b
18
f1
06
11
31
1f
fc
0f
09
f4
19
17
1e
ec
dc
4c
23
1e
f4
c3
15
fd
0e
f5
1e
19
f6
fd
fd
1b
50
29
31
1f
27
d8
f7
00
ed
fc
bb
d3
ae
0a
46
12
05
f8
0c
fd
07
27
ed
f3
de
15
09
0e
05
24
fc
10
00
0e
20
01
3c
ff
10
0e
fa
26
10
09
ed
0d
14
e4
ef
cb
f4
f8
07
f8
11
34
21
ed
da
f3
14
26
ca
f4
fa
2f
0c
da
02
fa
f8
fa
fb
03
fc
01
02
fa
02
fd
05
fb
00
fb
ff
fe
fa
fb
ff
ff
03
f9
02
09
32
32
03
1f
f1
e4
14
0b
d3
f5
fe
c8
eb
f1
00
ea
2b
13
f6
fc
08
04
2f
1b
12
e8
ef
e9
0a
ff
0c
e1
18
25
e1
3b
18
fd
0e
df
19
e8
f8
f7
00
06
fc
db
ef
03
06
fd
fd
fe
fc
ff
fc
ff
f9
ff
fa
00
f9
ff
fd
fc
fb
fa
f9
fe
fd
01
f8
01
1e
fc
24
00
f0
d3
08
12
a5
0d
02
fc
ee
0b
12
fe
1d
fd
ad
92
0d
07
fe
cc
f7
0d
27
37
da
19
05
f6
47
20
04
1e
21
b2
e6
df
fd
fd
ce
b1
3c
fe
e8
e5
0a
de
ee
de
f0
fb
1a
e5
de
db
18
fd
96
da
d9
84
d1
d8
e5
2e
37
03
05
31
14
f3
1f
fe
f3
f0
f4
16
2d
fe
fb
1d
35
1f
f7
d5
2d
28
ea
ed
f6
ff
2a
ce
cd
c7
02
2c
f6
23
f9
f2
e4
23
32
29
f1
db
22
34
f8
0b
e3
0f
f1
22
ed
ee
0d
01
22
e8
c4
0a
19
25
ee
0c
15
f4
ff
e0
20
11
e7
e7
17
bd
01
e3
1c
e5
f8
0a
f3
4c
f2
c9
00
ff
fc
fa
00
fb
fb
04
00
00
f7
fd
fc
02
01
02
fd
02
01
f9
fc
fd
00
07
fc
04
f8
f9
02
fc
fb
01
ff
ff
fa
f7
fa
fe
08
fa
ff
f7
fd
fa
00
fe
fb
02
fd
04
e9
07
12
18
65
e1
1b
c7
ab
32
b7
c2
dd
00
0e
d4
e2
eb
0e
36
f4
f5
0a
07
11
fc
29
fa
1f
fb
d9
fc
e5
ef
f5
db
df
0b
f9
2e
be
10
24
2e
18
e5
d1
1e
eb
f8
f9
f9
2b
21
e6
fc
23
1c
09
1f
ee
14
f3
12
06
fd
e2
e2
0b
10
f4
04
ff
fc
27
45
24
d1
ff
10
0f
f0
c8
fc
08
04
1b
18
1f
35
fa
f6
f6
16
2c
13
ea
f2
25
fa
d8
1c
0b
e8
11
e5
d7
f0
f8
d0
e3
f3
e9
1a
12
0c
31
fd
d7
02
07
25
ff
f0
15
fb
f7
00
f7
00
02
fa
fa
01
fd
f7
f8
fd
07
00
fc
fd
ff
f8
ff
fe
ff
00
01
04
fb
fe
fb
f8
f7
f8
fb
f9
01
01
fc
fb
fb
fa
fc
02
fa
00
07
00
f9
05
01
fa
01
24
15
e3
de
28
fa
fb
7e
da
e8
08
05
eb
ff
02
f8
0f
c8
fb
f4
14
00
ee
02
25
18
f8
34
e1
c1
fb
f9
ec
01
0e
17
27
12
f5
03
f2
09
dd
0e
97
e9
02
c2
ea
c7
f2
00
03
fa
f7
f7
f4
ff
02
00
02
05
07
fe
02
f5
fa
f8
f5
f6
f7
fe
f9
f1
fd
16
fd
e9
fc
0b
ed
f9
29
04
7b
de
04
16
f8
22
f2
09
ea
22
39
00
03
db
05
da
01
f2
ff
01
28
1c
e6
e5
cd
10
05
f3
f4
01
d8
05
29
1e
12
f5
09
22
14
e8
f2
1c
0c
0a
fe
f7
0b
df
e8
19
e8
15
d0
d2
d4
0e
1b
b9
be
f1
07
0f
c4
dc
19
1c
1a
05
c3
f7
1a
19
ef
e8
0b
b7
01
eb
ef
0f
fa
f8
02
fb
f7
eb
0c
e8
17
d4
01
c2
ed
1d
f2
03
0d
1a
e1
ed
eb
0b
06
08
f2
f0
f2
ea
0f
1c
bf
01
16
01
df
c6
fa
10
1c
eb
e5
02
12
29
e1
f1
1e
11
e1
c0
f3
0e
0b
08
dc
29
01
06
fb
d1
e7
ef
23
f6
f5
24
e2
05
fb
0e
16
00
2e
f7
ef
e5
0f
12
ca
0e
17
01
d7
e3
f2
f0
e7
fe
fa
fa
ff
09
2c
2d
36
1f
18
f9
04
32
24
f5
eb
05
ea
e5
04
c3
e7
16
15
e8
13
eb
ed
1c
0c
ec
bb
ff
d0
f1
fc
d1
d8
24
fc
0f
f0
e0
16
10
16
bc
e4
00
04
ae
c1
de
2a
d4
f0
08
de
f4
01
2e
09
e9
00
05
00
1c
21
20
f0
0a
fc
fe
03
ed
14
04
28
1f
1b
32
c7
19
e9
0b
f8
f0
1a
01
cb
b5
c6
f9
f4
ef
e9
eb
1c
07
fc
fc
fe
fa
fa
f9
02
08
ff
01
fb
fe
05
04
03
f1
f8
fa
fd
f8
04
ff
fc
05
07
e7
fa
1e
1f
6b
ec
ee
ff
10
ea
01
37
26
a8
04
05
d9
01
e4
13
f8
0c
11
00
ff
03
f5
f9
04
fb
16
f4
fb
13
1b
31
26
02
22
f1
fd
fa
10
f3
dd
fc
ef
04
05
f2
25
27
38
07
3b
d2
28
13
06
25
8e
c6
f1
09
35
8a
d9
0f
f4
f2
c4
2e
10
f3
d9
f6
0a
10
05
f5
e6
00
f4
35
0b
f9
cd
fe
04
3d
df
e2
f4
e7
f5
0a
df
35
22
d3
01
f9
f4
ff
24
20
f1
fd
00
ed
fa
a8
d5
f0
25
ff
7d
e6
c9
1d
f8
a9
0c
e7
13
fa
04
ff
fb
ff
fa
fa
ff
f9
fe
02
fc
ff
02
02
fa
03
fd
fe
fb
fe
03
03
01
fc
05
30
13
17
3d
f0
28
30
35
1a
cc
f0
10
11
d4
df
cb
18
06
2a
fc
25
1c
0d
cc
e6
e9
e0
0c
20
12
11
03
14
28
e4
10
27
f0
f7
d8
e8
f6
e0
f0
05
fb
0c
08
17
fb
f8
ff
04
fe
f9
fc
01
fa
fe
fe
fe
fc
fe
fb
f7
f7
00
ff
f8
fc
02
fe
f8
ff
f6
fc
fb
03
f8
f0
fb
f4
f6
fb
fa
fe
07
ff
fb
f9
fc
ff
fd
06
ff
fa
f4
fd
01
49
02
e6
e6
11
fb
10
ff
f5
fd
d1
c4
01
f2
11
e7
d3
01
06
fd
0a
21
07
0f
1b
f9
fd
fb
fe
fc
fd
00
04
00
00
01
02
00
03
fe
fe
02
fc
00
fa
01
fe
fd
01
02
ff
fc
04
fa
f8
fc
f8
fc
ff
fd
fe
f8
04
f7
fc
fa
fa
fb
fd
ff
fe
fa
fc
fc
f9
16
0c
06
0a
06
0c
1f
fb
09
0b
42
2d
fc
1c
10
2b
15
f6
f7
ee
0d
ff
16
d9
14
db
0c
fb
1f
27
02
21
2f
37
28
05
ff
09
07
2f
e5
ee
09
e2
04
f7
ae
ec
0d
08
ff
03
01
fa
02
03
03
fe
fd
fe
fa
00
fe
fe
fd
fb
03
ff
fb
f9
fc
ff
02
fb
fc
01
f5
11
e0
eb
f4
f8
df
e1
e7
f3
06
08
1e
2c
f1
26
1a
25
f6
ee
12
22
0a
f7
0e
0e
e5
f4
1f
2e
03
f5
18
1a
fe
f9
d8
32
0d
fe
ed
d4
e2
f2
f5
dc
db
01
03
11
0a
0d
f3
eb
28
ff
f6
dd
05
ee
f8
ef
e9
df
0d
e4
2c
fe
e6
10
fd
12
31
06
00
00
fa
01
fc
fa
ff
fd
ff
fb
fa
03
01
03
fc
03
fb
fe
03
01
01
fd
f9
fd
01
eb
e5
19
0f
fb
ca
e6
f1
fa
cd
10
19
e4
da
d9
00
16
d9
d8
f2
23
ef
1d
0c
00
c7
c8
be
0a
2f
da
fb
cc
c3
16
e7
ef
e2
fa
21
0c
14
07
d7
fc
fe
09
17
f9
ea
f8
f2
c3
f1
fb
04
11
08
0b
06
01
ff
ee
e7
29
05
fd
fc
fb
3d
f6
ec
bf
ef
4b
31
18
e8
03
02
21
02
e9
ee
27
1f
25
1d
10
1b
1e
05
24
09
c5
2c
00
fb
0a
1d
e9
de
fb
05
15
14
03
f6
de
01
e1
fe
12
f9
18
02
f4
14
28
fb
f5
23
2d
14
fe
1a
0a
09
fc
d5
0d
07
32
fb
a6
f7
eb
3c
e8
fa
eb
ec
18
1d
06
00
03
23
07
03
fe
fb
fa
fd
f8
00
00
f9
01
02
fc
fd
fa
00
00
fa
ff
fb
03
01
ff
00
fc
fe
fe
2a
11
08
1e
1e
2d
1c
fb
2c
d3
0f
f4
16
f8
f9
2a
e7
ea
d2
0e
0d
f2
fb
15
21
3c
2f
d2
02
35
f5
f6
ed
fd
17
f7
fb
0f
24
15
d6
29
11
0a
0c
cc
fe
fb
14
13
22
21
1d
0b
c2
25
0e
d0
f1
e1
11
03
c7
fd
ee
12
f6
04
02
d1
04
d8
fc
fe
f4
fc
f9
01
e3
f0
0d
17
1c
97
d6
17
12
1f
c4
8d
1c
13
2e
df
17
20
06
21
03
ea
fc
f9
fd
00
05
fb
00
ff
f9
f8
fd
fc
01
fa
fd
fd
fb
fb
fc
fd
00
fd
fc
fe
ff
35
0b
18
03
eb
06
0c
0b
12
05
ea
15
02
1c
f9
dc
0e
09
25
e6
e3
ef
06
2d
0b
25
1e
f9
0b
3d
1f
ee
bd
04
00
f4
f1
ea
fc
ea
16
fa
02
0c
0d
01
18
e8
0d
11
da
0c
20
29
1c
d7
10
1d
e8
e4
fb
25
09
e5
f4
1f
f4
f6
01
ef
0d
15
10
01
da
f5
ef
f3
04
20
3c
f1
11
f6
11
21
f9
ff
fd
13
fb
f9
ee
05
e9
b8
fa
06
25
fc
01
f9
03
01
00
fb
fa
fd
04
fb
03
fc
fe
fe
fe
fc
02
fc
fd
04
04
fb
05
02
fc
fc
00
fd
f8
fc
00
fe
f9
ff
01
f7
f5
fd
ff
f6
ff
f6
f9
f7
ff
f7
ff
ff
04
f4
12
08
0e
18
f7
22
04
fc
fa
ed
12
03
ea
16
27
f6
07
f2
ed
f2
fa
d1
e4
de
db
0a
17
28
12
fb
f6
1f
1c
f2
d0
13
05
dc
e3
e9
e1
00
f5
35
d4
f6
fa
fe
20
d4
18
09
09
16
1c
e5
00
09
2b
0c
e7
ed
12
08
d5
eb
f4
15
f7
0b
0d
0d
f9
e6
ec
02
10
10
06
fd
05
22
0b
fc
05
04
39
22
ae
1d
d9
ef
04
07
06
1e
02
ed
f3
2d
c0
ca
af
c4
0f
e5
f1
13
ed
f8
2e
1d
1c
12
1c
09
0d
00
05
0c
f5
36
2f
0d
da
02
fb
03
ff
fe
04
ff
01
03
01
fa
00
fc
fd
fe
f9
01
01
03
fb
01
ff
01
fe
03
0a
f1
17
21
1c
cd
cd
e3
ed
18
fd
e9
2c
e7
b6
e9
ec
fc
e6
d4
14
2a
fe
1b
06
f4
ed
17
2c
12
05
0a
0a
fd
0f
f2
f4
0e
e9
0c
1c
ef
ec
e8
1d
16
ff
16
07
f3
16
be
d2
dd
1f
13
e8
ec
15
15
db
0c
05
f5
0a
f4
f3
f2
17
35
f7
ed
e0
1c
fd
fe
fd
02
fb
04
fc
fb
fe
