19
11
f2
0a
eb
fe
f6
e3
da
cf
00
f3
c7
1e
ef
15
06
07
22
18
08
03
ea
0f
12
07
05
ec
03
d8
0a
0f
12
f8
fd
f5
f7
fd
0f
0c
0a
1b
e9
e4
f7
1e
17
13
f2
11
07
ec
ec
d6
0a
11
15
14
c4
c7
15
13
1c
0b
d1
04
25
12
df
10
0b
fc
f8
d7
0b
fd
33
0c
f2
1f
ee
08
f1
ed
ee
f4
07
ea
ff
ec
08
03
da
f4
06
dc
e5
12
38
21
d2
09
08
20
21
f5
07
06
13
f7
d2
26
17
fb
09
10
31
19
e1
fb
01
15
06
f5
06
ac
ac
f8
07
00
e7
e2
cd
06
2f
1f
ef
00
04
21
22
df
ea
06
0c
f3
ef
fe
fe
01
05
ca
e1
09
ff
0c
ba
f3
19
00
fa
d5
16
0e
f7
ec
ca
f6
19
e9
0e
0f
e4
27
fb
ea
fa
06
fb
3a
22
08
ff
0c
26
ed
ef
f1
d9
2c
e5
eb
f3
07
2c
da
c8
03
01
1c
ce
07
eb
02
d2
f1
19
2e
06
d2
ec
f9
34
32
fb
ec
e4
04
0c
12
be
06
be
d5
08
f3
01
f7
c8
1e
f3
15
4e
f5
e9
01
fc
39
0d
c8
0e
ca
24
1b
d2
02
fb
0a
07
07
bd
e6
1c
1a
ff
58
48
ed
f8
f6
fc
e2
d0
f4
1c
3f
15
03
e3
0b
1b
33
3b
f2
f8
1b
07
f7
c1
f1
17
0d
0b
f4
fb
f2
e5
12
31
fd
fe
f3
13
18
f7
01
0f
25
13
18
ee
02
d1
39
1d
e1
0e
e3
04
02
f5
1f
ee
08
11
a9
e5
ea
09
34
a8
fd
dd
fb
09
05
10
2b
df
c4
f1
18
0a
fd
0c
f6
05
0d
fa
24
e8
ff
02
fc
00
08
13
0c
0c
07
f9
01
dc
df
e1
0b
1d
0e
03
d9
e9
23
2b
1b
ea
dd
0b
26
40
02
ae
f7
f6
3f
0a
ed
fb
10
24
09
e8
0d
14
28
29
fa
f2
f3
05
1e
ee
f0
db
ed
ea
f9
09
14
f8
d1
fc
12
ec
b8
ec
0c
00
b0
c2
0c
12
f6
ae
d7
f1
fb
fc
ed
c3
e1
f5
ef
c9
93
0a
f2
04
eb
fb
2c
f5
e4
c2
d4
eb
ec
ff
12
db
c4
0b
f5
02
e2
02
12
07
f2
04
1d
10
0a
ac
07
0b
ec
fe
93
09
1a
f7
05
fb
f3
15
f8
09
d7
e8
22
fb
f5
94
24
29
fe
f0
d0
bb
de
ee
0f
e1
e0
f7
f0
02
08
11
06
e8
d5
e6
12
11
c0
28
0f
fd
0b
c0
19
11
a8
03
f2
1b
e7
fd
f1
08
1a
f8
0d
fc
fb
1d
f2
22
f1
e8
c8
d8
ed
e6
0f
02
fd
0e
2c
b7
e4
0c
3a
2b
9e
df
1f
1c
1c
c3
e4
ef
e5
cb
dd
eb
ec
cb
be
04
dc
10
20
e3
05
eb
24
f8
cd
ac
00
4a
e6
f6
b9
10
3a
01
d2
cf
f5
20
0e
a7
09
1f
e6
e8
14
2c
f4
d5
f1
d6
f1
f5
07
0a
83
f4
f7
eb
be
f0
f3
ec
cb
cc
23
fb
f4
27
dc
dd
fa
0d
16
d9
c0
25
12
04
00
d7
1d
16
f4
18
e3
fa
0e
ee
01
ee
f8
f2
eb
1b
1b
f8
1f
f0
bb
35
e8
0f
14
69
1e
da
07
17
b0
f6
df
f2
07
f2
f4
27
17
17
f4
f6
19
17
13
f3
f2
b7
de
02
0b
1e
cc
da
f1
0f
11
02
fc
db
df
db
19
40
20
0f
08
f6
1d
0b
02
02
e4
0a
00
ce
c2
f8
e3
e6
b5
d0
f9
d2
e4
b4
cd
20
fb
01
04
f6
27
15
df
e1
f3
2b
16
cb
97
f3
eb
01
01
a8
6f
e8
f9
fc
09
c6
17
ef
ef
f6
f6
20
f0
b0
27
09
f2
d3
c0
53
02
01
bd
b8
56
0e
11
e0
b2
3d
f6
e9
0e
f4
ec
ea
ff
0a
f9
e8
23
ef
ff
d5
e0
3c
fb
24
dd
aa
21
14
0a
0e
05
b6
f3
f7
d9
9b
a7
07
d4
97
bd
8b
f6
bd
dd
12
e7
fd
ed
1a
02
d1
1d
24
30
f5
e3
10
0e
15
1f
fa
ff
1e
2a
2a
03
24
e2
ec
f2
f3
e7
d4
b6
23
fd
05
10
1d
2d
09
22
3d
3e
38
23
11
ed
f0
09
14
e7
21
40
2a
3a
e5
f5
01
2b
35
e6
06
fb
17
00
f4
19
21
fe
f2
0d
20
f8
0e
2f
18
11
23
c0
fa
14
23
17
2a
be
15
14
22
f6
b5
d8
de
cf
fb
e9
f1
0e
1b
20
07
de
fd
1d
04
f4
ec
1b
1e
e9
e1
ff
fa
ba
c8
ec
f4
ed
c7
27
0c
f6
d1
c2
f2
fd
1a
a3
ea
ef
0b
df
d6
ea
1b
0d
fe
0c
11
31
06
b7
ca
cb
d0
ea
bd
aa
98
d0
f0
fc
f2
16
30
ee
3a
35
1d
dc
de
29
08
0d
09
09
1c
f2
09
f6
00
23
ef
03
0b
fc
1e
fa
e7
e4
01
2b
f4
f9
08
f6
19
0d
e7
df
bc
03
02
3c
15
e9
f1
f7
02
25
b2
12
1b
27
ef
bb
0e
21
01
d2
00
ff
ff
fa
13
08
03
fa
e2
34
3e
e9
02
f9
ea
19
b8
f4
14
00
03
c9
db
19
32
37
d8
ed
18
22
13
21
f7
f5
08
3b
ff
2f
c1
9b
36
d9
0f
1c
bd
1e
f8
e4
01
e6
2a
0b
0d
f6
d7
f6
f7
17
ea
06
1f
e7
16
1c
2a
20
9c
d5
1b
17
06
ea
f8
0f
ef
ef
fe
2b
05
08
1f
c7
e2
fb
fa
e6
1a
08
fd
dc
16
f6
01
0d
fc
04
12
ea
f4
15
14
f2
f9
14
f2
02
dc
e7
c6
09
fa
f5
f9
22
1e
2a
d9
17
f5
04
30
0f
25
27
01
db
3a
1a
28
18
04
ed
d8
15
08
fd
f9
eb
f1
f4
13
19
0d
f3
cf
03
1b
06
e6
d4
30
09
12
dd
d8
e5
db
bd
fa
1f
2c
e2
a6
cf
03
06
fa
e5
bf
b6
bf
e4
15
00
92
0e
e8
04
f0
f1
e1
cd
f6
d3
2c
6d
19
0c
f8
16
40
f9
e9
21
13
12
fc
0a
f4
25
06
05
05
cf
fb
f4
fc
06
03
e9
d5
fd
fc
d6
97
f8
f6
e3
cd
06
04
14
06
0e
24
2d
11
05
25
27
38
0f
f4
ec
ea
e6
09
0a
00
f2
03
f8
f9
f1
02
17
05
ef
e3
f6
02
fc
04
0a
07
09
fc
f3
ce
dc
fb
03
00
0a
cb
ed
11
15
18
d7
ca
20
2a
00
c8
c5
12
1d
f5
be
e0
12
28
25
08
13
18
12
0b
ff
02
1a
06
da
f3
f4
0b
d0
e4
da
f8
c3
e2
18
11
fd
fc
12
21
f5
ef
0f
22
17
e5
ec
12
20
e9
fb
ed
18
21
09
ec
f8
00
0c
fe
fc
ef
85
70
c7
f5
24
f5
c5
df
0e
16
16
06
13
16
29
04
03
13
16
22
00
f9
05
fd
ee
eb
e8
f8
1c
0c
fb
ce
06
19
00
ee
f1
1c
14
0e
e0
eb
0e
1b
f9
12
1b
1c
1a
10
dd
fa
fc
15
32
f2
f6
14
1d
29
df
f5
13
14
1a
f5
fd
19
19
f5
f7
01
15
ec
e1
1e
06
16
e7
c5
f7
fe
0e
f2
c8
e7
02
0f
10
05
da
f4
e9
02
fe
ca
e1
d4
fd
f5
e0
12
06
f8
0a
f2
1b
29
fc
ea
e8
f5
27
07
f1
06
04
1c
f8
fd
fe
f9
11
01
f9
ab
fc
20
fc
04
6e
d0
f9
f8
e4
da
b7
c1
f5
f8
2e
13
f4
f3
0c
2f
26
1d
f6
08
f7
cd
c9
e1
07
fa
f2
02
fb
03
00
0c
25
21
22
15
13
1c
03
10
1e
26
13
fa
e4
01
ed
01
1b
1f
e8
07
05
00
01
c9
0a
01
11
03
be
ed
fe
ff
28
b6
f8
f0
0c
21
07
01
1d
c4
b4
14
15
f6
c2
e1
1a
10
e8
fb
0d
05
f2
f6
ee
04
18
f9
01
01
e4
02
fe
ee
cc
d4
07
12
fe
e8
d1
10
30
1b
01
ed
ed
14
23
14
ea
f5
11
25
2b
08
0f
0c
13
00
f3
0c
1f
28
29
31
02
08
06
11
28
fb
14
08
ed
f4
f9
fd
ee
de
cd
13
18
1b
e7
cf
06
21
0a
ba
0d
07
d3
51
3b
eb
00
e7
dc
d4
17
20
1a
f4
0d
13
04
ff
e2
11
16
02
db
ed
04
05
02
14
2b
fd
ed
f0
e4
f5
2d
2c
fd
1a
09
0b
09
0b
e5
ce
f7
2f
f8
08
bd
15
38
f3
31
33
b1
08
0a
43
0e
b2
c4
02
24
d8
be
cf
e3
fc
e8
ee
fc
f1
07
19
1f
14
f2
f9
14
13
14
de
eb
00
09
f8
bd
0c
07
fd
f7
e7
37
d3
07
23
f7
1e
ca
31
28
1f
00
cd
20
fd
fe
11
da
09
f9
0b
09
0f
1c
05
c0
ef
00
ff
0f
c0
9c
fb
10
23
d7
d5
dd
04
d3
06
07
fe
f5
fe
02
fe
02
fb
fd
fd
d3
18
04
fa
e8
08
1d
0d
e2
02
ef
1a
07
f4
f6
06
1d
12
ec
d8
c8
d5
f6
f1
f9
0b
14
01
35
01
f6
21
16
e6
15
14
28
e8
be
0c
0a
eb
ca
e9
1b
23
05
e7
25
f6
ec
f4
bf
c0
e7
13
fc
d7
ca
f1
0d
1b
09
ea
f6
11
2d
36
27
dc
f0
dc
10
ff
eb
f2
e6
01
2c
ec
23
25
97
22
e2
32
42
c7
d4
0b
f9
1e
fd
13
07
f9
f7
e4
0a
03
00
08
05
07
f6
1d
1f
10
17
b4
ea
10
fe
ed
95
d1
e9
ed
d4
2c
1e
1c
0f
16
10
07
17
18
0d
df
05
e3
ec
c6
fa
b1
d7
ef
02
1a
f4
fd
03
16
0c
f0
ef
e9
25
1c
02
cd
21
08
22
08
06
0c
29
fe
15
f1
d2
c4
0e
27
2c
06
cc
fd
fd
f9
02
11
1a
13
20
d6
f6
0e
0c
9e
9b
e4
12
0a
9c
da
ff
20
03
83
10
2b
0a
e9
b7
f1
f6
df
df
fe
b5
bf
f7
fc
c9
bc
de
13
17
fa
c1
18
0a
14
f6
e7
f8
06
07
13
34
fd
de
e6
d2
c3
fa
02
e5
04
1e
1c
07
08
22
2a
17
24
15
14
0b
e1
05
04
fb
f3
db
0f
22
4d
1b
ca
12
16
01
47
d7
e6
e5
e6
14
12
e0
f1
0b
31
f6
ee
1d
26
48
18
01
e1
08
ff
e5
07
0a
05
f6
e0
1b
10
ee
f2
f5
f4
03
11
12
f8
01
16
1f
ec
00
f8
f7
ee
d5
15
fc
f2
f1
a4
c2
0c
07
2e
f5
a1
10
24
37
19
c2
fb
35
1c
a8
04
12
14
14
1b
1a
05
1c
0b
1c
14
fc
19
09
07
df
f1
81
c6
e4
e7
a2
7f
f1
e8
14
3e
da
26
f5
ec
0f
07
37
ff
fa
c8
11
fa
09
fb
f8
fe
01
13
ff
e9
fa
f5
1b
09
ae
af
ac
b5
1c
f7
0a
8f
0a
05
f4
ea
f9
25
24
d7
00
33
3b
0c
e7
ed
20
fa
bc
04
16
fe
0b
ed
0b
03
f2
07
13
07
c0
fc
fc
15
0d
e3
0e
f5
eb
03
f7
e9
ea
1a
ef
06
03
0c
18
ed
f1
2b
05
36
08
f5
df
3a
08
e7
f9
1f
21
dc
f4
0b
1d
f7
a9
2f
f8
06
13
04
21
0a
de
de
bd
15
17
ed
f2
ed
03
fd
da
ff
15
d9
e9
fd
f6
07
21
f4
21
eb
00
17
e7
dd
ee
21
2c
02
b2
d9
38
0f
13
fe
dd
2c
17
02
12
f1
04
ab
08
1c
2d
1a
bc
dc
03
ff
25
9d
ab
ac
e8
f8
fb
df
e9
fa
01
ff
0d
f8
f2
09
1b
fb
c7
ce
f7
e7
90
fc
12
23
f5
27
29
18
24
ee
16
24
02
f5
cb
ff
f0
f0
d9
f9
e9
0b
ff
f6
b6
d5
fa
1d
2b
f1
c0
e8
25
3b
f5
d4
c9
e0
07
07
1b
3b
12
d9
01
15
24
0d
d5
00
f4
01
96
fe
05
16
b6
06
3f
11
ee
ea
0f
15
21
f6
ed
12
ed
e4
0a
0b
07
14
f0
ed
ff
f7
ce
05
e3
e2
eb
1c
05
00
e1
f2
01
f7
0b
f0
f3
f3
15
f2
f4
e7
fd
05
fb
e9
05
1d
09
fe
f9
06
f2
fa
f1
d5
f5
f8
19
2e
19
23
e0
